1111111110111110
101000
1111111011000100
100110100
10101011
1111111110011001
10110101
1111111011111110
1111111011000101
1111111110010000
1111111101101110
100001011
1010110011
10011110101
1100010101
1000110000
1111111101011011
1111111010110111
1111111010100100
1000011
11100
1111111101101101
1111111111000000
1001001
101011000
1111111101001110
10010110
1111111100001111
101010110
1111111111011010
1111111011111001
1111111101100000
1111101110101111
1111101010011001
1001100110
1111110011100101
1111111110011110
1111010100001101
1111010010110010
1111100000001100
1111010111101010
1110010100001011
11001
100100110001
1000011011
1111011111111000
1111111010010010
110010011
1111101110000111
1111110101000101
1111111111111100
1111111011100010
1111111100000110
1111111011100011
1111111101010000
100001111
1111111101110111
1111111111101000
1101001101
111110011
1111111101101011
1111101100010110
1011001101
1111101011110100
1111111011000100
11000111000
111101000
1111110100000001
10111110001
11001011
1101
1111101111001000
1111101110100101
1111011100110100
1111100000101010
1111000011110001
1111011000011111
1111110010001100
1111011000010101
1111100111101010
11000010010
100110100011
11101000
101000001
1111111011010110
110101
100011110011
1001010000
1111100101010001
10101101110
10110110100
10110000110
101000101
100011
10100001
100101010100
100110101101
10001100011
10000010100
1000110011
100111111000
1010111000
1111110011011001
1111010001111110
1111011111101001
1111101010001001
1111000101111001
1111011000101110
1111011101101001
1011011011
10001101011
110010
1111111010111110
1000101011
11010111110
110100111
100110010001
10001010010
110000011001
11010001100
101010010100
1110111000
1111111111001101
1111100011
1101111100
100101000101
11000101000
1111111100001101
1111111101001100
1111111000111000
1111111010010101
1111110100100101
1111100011001100
1111011001010011
1111010111000110
1111000110101101
1111100010010111
1111111000000011
1111101110001100
1111101001100101
1111111100110110
100000001
1111111010110000
0
10110011111
1001001101
101001101010
11101111101
1111011111
1111110101101111
1111111101010010
1111111100100011
1001011110
101101101
100101000
1100011011
1111110000011011
1111110011100000
1111101100011101
1111101010110101
1111101110110000
1111110110000011
1111101100011110
1111001001100000
1111101011110000
1001101011
1111000001111100
1111010110101001
1011000
10101
1111011011001101
1111111110100000
1111101110100011
1111011001
100001011110
1011000111
10001110000
1100110100
1100111111
1111110110111110
1111111011101011
1000000000
1111111110100100
110011110
1111111010110100
1111101110101001
1111100101000011
1111011000001110
1111110001110111
1111110101101000
1111011011
1111110000010101
1111000010001011
1110111010000101
1111000001010011
1111100100001111
100010110
110101111
1111100011110010
10111
101110100101
10111111011
10011000010
1111110010001011
101011010
10101001
1111101110010010
1111101100100101
1111111000010000
1111111101101110
1111110110111100
1111111111110001
1111011101001110
1111010101000001
1111001101000000
1111100100111111
1111110100100111
1111101100111101
1111100111010111
1111100110110111
1111000001100000
1111011101001110
1110101001011000
1111110101100101
10010110101
11010111000
1111110010011101
101101100000
100000100011
1010100001
101010011
11100011
1000101111
10111010100
110100010
1111101011100110
1001010000
110101000
1111101001
1000000000
1111100100110111
1111101111001101
1111111011010111
1000101
1111101101001111
1111101001111001
1111111101000110
1111100100010101
1111100011010000
111101010
1110100000110101
1111011101000111
1111111011111110
1111111110
11000100101
111111011111
1110101011
1100000011
11001010110
10101000101
1011011100
10010110010
1101011000
1111110100101101
1111111010110111
11010110010
101110010110
111010010101
1000001010111
1100010101010
10000001010010
1101011110100
1010001100011
1010000010010
1011000110110
1011100001011
111110011101
101101111000
1111011101111000
1111100000001101
10111010
10010000101
1011001110
1000010111001
1111111011000111
1111111001110010
10011110010
1001000010
1000000011
1111111001010000
1100111001
1111111111110001
100111110
10101010000
110101110001
110100101011
1000111010101
1010001011100
10001011000000
11010111101001
11101010101001
11011010011001
10111111110100
10110101111100
10010110101110
1011111001111
1111101110101111
1111110010100001
101111101
1111110101011001
1010111001
1110000010
1111110100001000
1000010101
1000111111
1100011110
1101101010
101001000
1111110111100011
1111110111010001
1111111000000011
1111111000011001
1001110100
10010001001
10010111
1111111111001000
101010100
11110011001
1001010000010
1011110011010
10010110101110
10101001010011
10100111000100
1100010000000
1011100111
1111101011101100
1111111011000001
1111110101011100
1111111111011100
1111100010001010
1111111000000001
1111111100001100
1111101110001011
10011100011
1010011010
10111110
1111111110101111
1111111110011011
1111110011000101
1111110111101110
1010010110
100011101
101111111
1111101110000110
1111110100001100
1111101111100001
1111110010011101
110011000110
100011010010
1101001001
1000101101001
1010100111111
10100000100
1111110100001101
1111111110011000
1111101001011010
1110111110
1111011011111011
1111010001101010
1111011110111111
1111111110001111
111111000
10010100101
1000101101
1111110110001000
1111110111011001
1111110001100000
110010111
110101101
110101000
10100101000
11101111011
10000110001
1111111110100001
1111110100110111
1111111001111000
10000010010
1111111110010000
10010111110
1001000010010
100000110010
101000010
1111101000010011
1111100100011001
1111111110010001
1111100110000100
1111001000100001
1111111111101010
1011000111
1111111011110100
110010000
1101001111
1111111111010001
11010101
1110001110
11101101000
10101101111
11110101
1001110
10100111001
1111111011001000
1111110010001100
1111101010000111
1111110100100111
110001001
1111110110110110
1111100111011100
100111000111
1000011110001
11100001101
1111101100001011
1111111110010101
1111011101110010
111001101
1111001111101100
1111111101100001
1111111001100101
1111110101000101
111001100
1010011001
1011100010
11010000110
100001111
101011100000
100110001100
11101110110
1010000
1111111110100001
1111101100011100
1111110010010100
101101
1111110111111001
101011101
100100100
1111100000011110
11010100010
101011010010
100001001010
1100011
111011000
1111111101011110
1100000
1111101110000110
1111100100111001
1111111110011001
1111110100100001
11000001
1001010001
1100001100
1111111101111011
1111111101001010
1001110010
10011000010
10000101011
1100110011
1111111010010110
1000
1111101111111110
10011100
1111110101100100
1111101000110100
1111110000100011
11010011101
100111010111
1000101001110
11010001111
11101001
1111111010001001
1111111000010100
1111110111101101
10100100011
1111111100110110
1111110110101011
1111011001101010
1111111010101100
1111110001010001
1111110101101000
1111110001100001
1010
1101101001
100111100001
11001100100
10011000111
10100110101
1111110110001010
1111110000101010
1111110001010100
1111100100101011
1111101011111100
1111110110001011
1111101100010101
100000100100
1001101001
10011011011
1110100
101001010
1111110000111110
1111100101010100
101000000
1111101001000101
1010100000
1111011111100001
111111
1111110000110101
1111110011111011
1111111110110101
1010111000
11001100011
100011100110
10010100100
101000100
1010101
111100
1111111100000011
1111101101010001
1111101011100001
1111111110000100
1111111111100110
100001001
10001010110
111000001
100011000101
1111111000000010
1111111000010000
1111101010110111
1111101100110110
10010000001
1111111110000111
111110010
10010011110
1111110010011111
1111110101001101
10011
1111100101100100
1111111010111001
10100011000
111101111
111010
1111111010000111
1111111010011011
101011
1111111100011011
1111110001000101
1111110101101001
1111110110011010
1111100010111010
1111101011000110
1111010011100011
1000000101111
111000011
1110100
1111110100010010
1111101100010101
1111111111010101
1111111011010001
1111110100011111
1100000010
10110101111
1111111111111111
1111110110010000
100110100
1111101111001111
1111110100011111
1111111110010111
100001000
1111101100011111
11011001
11010000
10011111
1111101000000101
1111110001010111
1111111101001000
1111100101110000
1111110001101101
10100111111
1111110001100100
1000010111001
1000011001
10111100
10100010101
1000011010110
1111101101000110
1111101001011001
110111
110011100
1111111110110100
10001010001
101010100
1111111100100101
1111101011101000
1111111110000110
1111111100011000
1111110010111111
1111110011011111
1000100101
1111111001011111
1111111001111101
1100101
1111100000110110
1111101110010000
1111110001110000
1111110011011110
1111110010001000
1111100010010000
1111110001011101
1111101110111100
101010110
1111111111110010
1000101101001
1010011
1111110110010111
1001010010
10001101100
100011111
1111110011001000
1111111111101110
1111110110010000
1111111011011110
101010010
1111111101101001
111110001
1010010
1111111000001111
11000000
1010111
1111111010101110
101000101
1111110110101010
1101011111
1111011001000010
1001111100
10100100
1111011100100110
1111101110100000
1111111011010110
1111000
1111111000001100
111110
1111111100011101
111011000
100110110
1110000
1111110101100010
110001011
1111110011010110
1001001000
1000000100
1110110100
1101100110
1011011100
1111111111110110
1111111110000001
110010000
100010111
1100011110
1111101011111101
1010111
101010000
1100100110
1111101110001011
1111100100101000
10010111
1111111110111110
1111111100100000
101011110110
11000111101
1111110110101100
1111110111101011
111010110
10011100
1001101101
1111111111110000
11001010110
1111001010
1111111001001101
1000100100
10111000011
10010101010
1011000001
1111101111101000
1111110110010001
1010110111
1111110111001101
1111110011110001
1111111001011101
11011101010
1111110111110111
10100001000
10100111111
100000
1111111100100000
1111111111110100
101101111
1111110111001011
1111100100
10110011011
1111100111001101
1111111001010001
10001
1111110011100010
1011001111
1111111000100000
1111111011110000
1111110011111001
10010101001
1111111001101111
1111101011100110
1111001110110100
1111001001101101
1111101110111110
1111110000110101
1111110110111010
1111011100011001
1111001011110110
1111100101010101
101101101
1001011100
10000000
11111101
10001111
100111100
1111111111100101
11000101001
1111111010101111
1111111001100100
100010010
1111111011000110
1111111111111000
1111110101001100
1111110101000111
111010111
1111111100110110
10010110010
1111111101111100
1111110011011011
1111011000110011
1111101000010011
1111010101000100
101
1111110101110010
1111101110100100
100111010100
11001001011
1111111100001000
100010111
100110100
1100
100111001
1111111011110000
1011110
1011011
100010
111101101
1100011000
1010001101
10100000011
10000110001
11000000101
100000001101
100001100011
111010000101
111011111011
1001010111010
1000111011111
110001100010
11010011101
11101100
10100101100
11001111111
1111111111011000
1111111100010000
1111111010100110
101001111
100000100
