1111111010111000
1011001
1111111011001001
1110110
1111111101100011
1111111101010010
1111111101010101
10111100
1111111110001000
100111011
1111111111101100
1111111101010001
1111111100011111
11100111
1111111011000000
1111111101011010
11101000
1111111100011111
11001001
1111111110110111
1111111101001100
1111111101110000
1111111010100011
100010001
1111111111110110
1111111111111000
1111111011100001
11010010
11011011
1111010
100001
11010000
1111111011011110
1111110110110101
1111011111110100
1111011101000001
1111100010111101
1111010101110111
1111010000100110
1111110011010011
1111110111100010
1111110110111000
1110100101
11100101010
10001011011
1111111000100010
1111100100101001
1111010000101011
1111001110100101
1111011000011001
1111011111010101
1111101000110101
1111111011111110
1111111100001101
10111
11111010
1100010
101110
1100110
11100101110
10100101100
1111101000101111
1111011010010111
1111101101100111
1111000110011111
1111000011000101
1111000001110001
1111011010001000
1111111010100001
1111101101101010
1111011001100100
1111010100101111
1111100100011100
1111000010000000
1110111000000010
1111101101111011
1111000101100101
1110110011000110
1111010111111101
1111010101000100
1111010000000010
1111100000100100
1111111010111111
1111111010111001
1100000
1111111101100101
11000010100
10010111001
11001001000
1111111001011010
1111000011101111
1111010000111001
1111001101010110
1111001100110010
1110110101110101
1110110001000110
1110011001101011
1101110001110010
1110011110111110
1110110110011110
1110101110101111
1111011001111111
1111010111010010
1111001101001011
1111110111011010
1111101001100011
1111101011110000
1111101010101001
1111001000000011
1111100100101110
1111110000110110
111101
1110011
1111111011010111
10111101100
1111110001111100
1111011111011101
101010011
100000001
1111101100110100
1111010010010110
1111010101111011
1110111011010010
1111000000111001
1110111010101101
1110111111100101
1111000000011100
1111101000101110
1111011000000011
1111010111110001
1111110101001100
11111011100
10010110111
11001100011
100101100
101111010010
100011011
1111011011001111
1111101000010101
1111110101001110
10011110
101010101
1111100110110111
1111011101110000
1111011011111111
110000011111
1111111100110101
11011010100
10111010100
10001010001
111111
1111111111010001
1111110010101111
1111011001101111
1111110110011011
10010110001
1111100100111011
1111101100110010
1111110010000001
1111100111000110
1111100111000011
1111101001111101
1111101111101011
1000100001
11100110101
1111111110010001
1111011001101110
10111000
100001101
1111100011000011
1111110011111000
1111111000001101
1001111111
1011011101
10101010
1101111000
1111111111101010
111001010
1111110100001001
1111100001101101
1111101111010111
1111110011001101
10001110001
1010110111
10011011010
10001010100
11110011
1111100110001001
1111110011011110
10000010000
11110011
1111111011101100
1111101110100100
1111100010001100
1101100011
110101111
1011101100
1111100011001110
101011101
11100101101
10011110010
1111111110101110
1111111000101011
1111111101100011
1000101011
10010001
1111100110100110
1111100001110110
1111100010001001
1111111010111010
1111111011110010
1111111111000101
10110001001
100100110111
1111111111110101
1111111011011100
101010101
100100010
1111111100010001
1111110000111111
1111110010111000
1110111001110111
1110111010
10100100
10101000110
1111101010011000
1111111101001001
101010001
100101111110
10001111100
1010000001
10000010010
10111110000
1101001
1111101000001101
1111101000101010
1111100110000110
1111100101100000
1111111011010111
1000010001
1111100000
1010100011
10010110
1111101110100111
1111111001111100
1111110110110111
1111010111001010
1111101100000111
1111000101110111
1111101011001001
1111011100111100
1111110001001010
11011100111
1011100001010
1111110000100000
1111111001111110
1101011111
1111101001101111
1111111001011010
1000011100
1111001011
1101
1111100010111000
1111101001101100
1111110000100010
1111111011011000
10110011011
10101011000
100111111
10111010
101100
1111110110100000
1001111
1111110101011001
1111110100110011
1111101001011100
1111110101101000
1111110000011100
1111101111000001
11100110111
10001000101
10000100111101
11101000000
1111110100010011
1111111111000111
1111110010010010
1110111110
110000011
1111110011000101
1111111000001010
1111000110100000
1111100001000001
1111101011010010
10000100101
101010001111
110010011101
100111011100
10010110000
1111101111100010
1111111001110100
1111101101000110
1111100111111011
1111101010101011
1111011111000000
1111100100010000
10110101110
110111110
10011010000
100110000001
10101110100
11110001000
10010110101
1111111101110100
11001000000
1111111110101001
1111111000100011
110011111
1111111000110001
1111101100111111
1111110000100101
10000100010
10001011100
101001011110
1000100100000
101111101001
1101011010
1111011100110010
1111101110111111
1111111000000011
1111110100101111
110100110
1111101010010101
1111001101100100
1111110001010011
1111001011110100
1000101011
100001100111
1001011111
11111100001
11011110001
1011011110
1111111000001000
1010011
1111111111111100
1111111101010010
1111100100100100
1111011100111100
1111110111001001
11001110111
10011011010
1001100010
1000110011010
110010100010
111101110
1111111011010101
1001000101
1111100101101000
10010101
1010011101
1111010110010111
1111001000111110
1110110010
1111111100001100
10100110010
1111110100001011
1111101011000101
1111110111000000
11110100100
10100001111
1111011001111111
1111110111000111
1111101110001011
1111010111011010
1111110000100010
1111110110110011
10101011111
11001010111
1001101101
10011010011
110011100010
101000101101
1010011111
110110100
1111101110001110
1111101011010010
1001011101
1111111000011010
1111111010110000
1111011
111111010
1111101000100111
1111001100100100
11010011
1111101011010101
101000001
101100100000
1111111000111100
1111101111110001
1000110000
1111101110110111
1111111011001110
1010001101
10111000
1111111000001000
10011010100
11101101
100100111
100111110110
100000000111
11001001001
1101101101
111001001
1001000010
1111110011001001
1111110101101101
1000010110
1100100111
1111011100011001
1110110111001111
1111011011001000
1101010011
1111100111010100
1111010110000000
100100101
1111111101000111
1111101011111101
1111100111110000
10000101110
10101011
11001111
1111110001100110
1010011110
1111101111101000
1111111110010101
1000100101
100000101000
11100001011
100000100011
1110011
1111100010101011
1111111100010010
1111111101001001
10100111011
1000011101
10010011
1111111100010010
1111000100001001
1111100010001111
10111001000
1111100111000110
1111110001111100
1111100011010001
1111100000000100
1110110101110111
1111001101001101
1111110100000110
100001011
1111111101111001
1111101010000001
1111111010101110
1111110100111101
1101000
11000100011
100101011010
110001001101
11001101011
1111110001001011
11010100
1111111001101100
1000110011
1111111101111011
11000110
100011010
1111101101101110
1111100110010010
10010101101
101101
1111101110000011
1111110100000010
1111010111101011
1111001100100010
1111000001110111
1111011110101010
1111100011000010
1111110000111010
1111100111001011
1111110000011001
1111110110000000
1111111111011000
11000010010
100001110110
10011111101
1100010100
1111111010100110
1001000001
1111110110011100
10101001110
11011100100
1111111100110110
1111101111101000
1111110011101011
10111001100
1111110110011100
110101001
1111110100001110
1111101111100110
1111110110000000
1111111001000001
1111100011011001
1111100011000011
1111110000000001
1111111010011100
1111110001011111
1111010100010101
1111100110110000
1111101101101100
1111111101000010
10011010010
1110101000
1111101110001110
1111110010100001
1111001101101110
1111010111110111
1111011110010001
1111100010110110
1111011101000101
1111001001110010
1111011000001111
1111001001001100
1111101111
11010010110
1111111110110111
10010010
10101110001
1111101110001001
11000110001
1111110001001100
1111111001110000
1111101011011111
1111110101110111
1111101110001010
1111100101110100
1111010101100000
100110011
1010100101
1100001010
100101110
1111001110111111
1110111110000010
1110011110010101
1110100110011100
1110011001010001
1110101111101110
1110110100000101
1110010110011001
1110100111011110
1111011010001100
11000110001
10001110
110010110
1111111011101111
1111110110001110
1110111010110110
1111011010010100
1111010011011110
1111100000101111
1111100011101110
101011101
1111111011111001
1111111101000011
101010011
10110111100
100100110111
10100110111
110111110
1111001000111110
1111011011000011
1111010001010001
1111011000111111
1110110001100000
1110101011011100
1111001011000001
1111011000110000
1110110101100101
1111100000000011
1111101100111110
1111101000010110
1111110111101101
1010111101
1111011110011111
1111001010110010
1111100011001110
1111111111110011
1111111101111101
1111110100011101
1111111111001000
1111101010111010
11000100
10111010100
111100110
1100001
1111101110000010
1111100110010001
1111011001000110
1111101110000110
1111110111001111
1111111000100100
1111110000000110
1111100000100010
1111110111100100
1111101110101101
1111001111010011
11101110110
1111110100000111
11011100010
10000110
100000010
100010
1111001000001001
1111010101101111
1001011001
111000100
1001000111
1111111000111100
1111101000011000
1100111010
1111011101
1111101001110111
1111100010001010
1111011100100011
1111101110011110
1111111000010001
10001000010
101011111
1111111110111100
1101011000
11010000
1111111110000101
1010001111
1111011001010110
10011111001
1111100001111111
111001111010
110010011
100000011
101011011
1111000010000010
1111000001101100
101111011
1011001011
10000110101
1101101101
1111110100011001
1111111000100011
1111101111101011
1111100100000110
1111100110110011
1111100001011110
1111011110100101
1111100010000010
10010
100100000
11110001001
1111111010000011
1111110011111100
1001001100
1110100001
1111110011001110
101100
1111100111001101
101001010110
1111111011111100
100010000
1111111100011100
10110101
1111001000000101
110001101
1110110110
1011011000
111011111
1010010011
1111110101110101
1111101101110101
1111100111101111
1111001010011000
1111011011100101
1111100001101110
1111001110101010
1111010110001000
10111000
1011001010
110001000
1111111111111101
11101110000
100000100
1101101000
1001011000
1111110001
11011011011
1111111010101000
11001001
100111011
1111011110111001
10100001011
100111001011
1111111000001010
1111101101000001
100001000
1111101110000101
100000000
1111100101010011
1111110111101100
1111101001010001
1111110101100001
1111101101111100
1111110010111110
1111101010101100
1111100011100011
1111001111001100
1111011100001010
1111101001101010
110001
1100111
1111111000101010
1111111000010001
111111100
1111111010001000
1111111011110011
1111010
10111000
1111111100001110
1111101010010111
100011111
1011101111
101000
111001001
1111111111111010
10110011010
1111111011101111
1111100101011100
1111111000110110
1111111110100110
1111010101110100
1111011010010100
1111001110100100
1111000011101110
1111010001101001
1111100100100001
1111000100100001
1110111100000000
1111100000000111
1111100100110110
1111011110100010
111000011
1011100
10111001
101000
110000
101100
1111111111011001
100010010110
110101000110
1111100110111011
1111111001011000
1111101110111100
1111110101100101
1111111000000101
1111011000110110
1111011001111010
1111110111000011
1111100011010011
1111100000000001
11101010010
111000110001
11011011110
1111110101000101
1111111111010011
1111111111111001
100100000
1010101010
101101
1111111100000111
1101100
1111111110100111
