11100111
1111111100000110
1111111101110101
11110110
100101001
11111011
1111111111111110
1111111011100001
1111111110111000
1111111101100110
1111111011101011
1010011
10010100
10010000001
10000001000
1000101
10000011
1111111101101000
11011100
1111111110001101
10111110
1111111110101111
1111111110101011
1101001
10011100
1111111111110000
1101010
1111111111100111
100110101
10111011
1111111100000100
10101110
1111101111011101
1111101100000000
1111101010001010
1111011111010111
1111011101000001
1111010000011000
1111000110100000
1111010011100100
1111010110010010
1111110110100000
100010001010
101000000110
101011110110
10100011110
1111100010011111
1111011110000010
1111010010101110
1111010010000111
1111101001001100
1111101100001000
1111111100000011
1111111110011010
1111111010111011
1111111011110011
10011011
10001111
110101111
10100001011
11001110111
1111011001100000
1111010100010011
1111001011110001
1110100001101100
1111111101001001
1111100111101001
1111011001010010
1111100010000001
1111110111011011
1111101010110001
1111001110010110
1111010100101010
1111011010011110
1111101001110000
1110100100000110
1110111011100100
1111101110010101
1111001101111011
1111001010001100
1111110101110010
1111110101101111
1111111111111011
1111111110100000
1111111100000101
100101100
10110101001
11000101011
10001011010
1111010011110111
1111000000111110
1111111111111011
1111101000001110
1111111011110011
1111010111110110
1110100010000101
1110101100010101
1110111111110011
1110101100010011
1110110110010001
1111001010001010
1111010101011111
1111110001010010
1111010111100011
1111001101101000
1111100000011000
1111111000001001
1111111000011000
1111100111011011
10101100110
11001100101
100010001
1110101
1111111011010101
100001011000
100000000
100011010001
1111001110101010
1111001100010000
1111110101100101
1111011000011011
1111000110011000
1111010010100101
1111100011101010
1111100010111010
1111101110001001
10100111
1111111010011010
10101010000
111000101
10100100
1111101001010101
1111111000101010
1111100101001000
1111100000011010
1111100101011100
1111010110000010
1111101100101010
100011110010
1111110101000111
1001110
1111111110100010
1111101010
1111110001101111
101100110001
1111100000010000
1110111101010011
1111010001000000
1110111000110011
1111010100000101
1111100100101110
1110000
1111111110101101
1011110010
10101111101
10011001010
1111110110111010
1111110101111011
1111111101101011
10001101010
1100001010
111101101
1111111111010011
1111110010011011
1111010000001100
1111101001001011
101010100
1111101101000000
101001110
1010101
1111100110101101
1111110000110001
1111111000000110
1111010110100101
1110110111101111
1111000011101100
1111101001011111
1111110100110101
1111111110010110
1111101101110101
1111110010110010
111111001
10000111110
1100101110
10100001011
1110001010
1010000001
1111110100110111
1111110110000000
1111111010110100
1110010101
1111111011111110
1111110010100101
1111111110011011
1111011110
10110011000
1111110111001010
10101101100
1111111001101000
1111101000010001
1111100111011110
1111001100110011
1111011001110111
1111011011010100
1111110011011111
1001001
1111110111000000
1111100001111010
1111111010110110
10000000
1111111001001110
10111111
1111111100100010
1111111101010011
11100100
1111111000001101
11100101
10111100
10110001001
1000100011
1111111010010011
1111111110000000
1111110010101010
110111011
1011100000
101101100010
1111101111000101
1111100101101001
1111111110001100
1111000110110000
1111101111011100
1111111101001111
1010101111
1001111111
1111111110100000
1111100100111000
1111111111011100
11011100
1111111000000000
1111110101001101
1111111100001111
1011001101
1111111010001111
1111100
1010110
1111111110010011
1100001101
1111111111111010
1111100110000110
1111101110111101
10111110
1111110111110101
1111110001001011
10010000001
10011
10010010001
11000010111
1111111001001010
10010110101
1010000101
100110000
10100011000
1100110101
10010
1111111011111100
1111111011001101
1111110000101111
1111111011010100
1111111001111101
100111000
10100010
10000101011
11111100010
1110011011
1101111101
1001101101
1111100011011100
1111100011000010
100101001
1111101100010111
1111110000101001
1111100101000010
11010110010
11000111100
1111111011111110
10010001011
10011001001
1101100001
1111010011
111011100
11000110000
11110100
1111110111100000
1111010110100101
1111100111001110
1111110010111011
1111111010010011
100000111
101011000010
100010010111
11100010001
1110111010
1111111011010101
1000101010
1110111111011110
1111100100110110
1111010010000100
100100010111
1111101100011010
1111100011000010
11010101
11010001011
101000101011
10001001101
10001100111
10111011
1110110000
11011110010
1100101001
110000001
1111011010000000
1111000101000101
1111100100110011
1110111101
10110001100
110010001101
110110110111
11010011100
11001100111
1111111111010001
1000000100
1010110101
1111000110010001
1111101100111000
1111101100001010
100110001111
1111111100110110
1111101000010011
1111110100011110
1000111
101001001011
1111110110101011
1111111011000000
1111101000110111
1111111111110011
111010010
1111110110110001
1111100001001100
1111001100000110
1111001111000000
110011001
10110111010
100101110001
101111110011
110011111111
101011101111
11101110010
10010110111
1111100111010101
1111011001110101
1111001000111110
1111100110100011
1111111010000000
11110001011
1111110110000110
1111101010000110
1111110011111100
101010001
1111101000001011
1111011000010001
1111101000010101
1111100011110111
1111111110000111
1111110010000000
1111100011000010
1111110110001110
1111101101011001
100101000
11110100101
10010100100
11000110110
110010110110
100111110011
111111110111
1010110101
1111101010010111
1111011111010100
1111011111010111
1111001011101100
1001111011
100000100110
10000110110
1111101010100111
1111100100001010
1111111100010011
1111111101100011
1111101101111111
1111010110010111
1111100011000000
1111101111010000
1111100111100010
1111110100100011
1111110110001000
100100001
101000111
1011000010
10011100011
1011101010
11100010010
100111111000
110100010111
1100001110
1111100100110110
1111001101011000
1111001000100110
1111001111000101
1111101001100011
1011000011
11111010001
11011000000
1111101111110111
1111101010011010
1111011011001111
1111010000001010
1111110010000100
1111100000010000
1111101110011011
1111110100101001
110100101
1111111110111000
10010
1000000100
1111111111111101
110010101
1100111001
11101010000
110011001011
110101111100
11100011100
1111110011101110
1111100011001011
1111011010101001
1111111110101011
1001101110
1111100101001010
11010110
1111111101110000
100111100111
1110111001
10111100110
111101011
1111101010111000
100001000000
1111011101100110
1111101000000000
1111111100110100
1111111011001110
1001110011
11100100011
10100001101
10001101011
1100001100
101101000
10011010001
101111111110
100111011101
1111110101100011
1111110000000110
1111011001111000
1010
100011100011
10110000100
111000011
101101011
101101001101
10101111010
1111111110011000
10111110
1101111
1111101001001010
11011001100
110100
1111011110001110
1111101110011001
1011
1111111111111100
1111111100110110
10000110111
11010001011
1100011101
1101010010
1111001011
10010101101
1111101110101101
1111011011110011
1111100010101110
1111101101010100
1111101000101111
111100110
10110010011
100011011111
1111111100010110
11101001000
1001000111
101001001101
1111101111111011
1000001011
1111100011100101
1111110111011010
101000001
1111101010011010
1111110010011111
11010100
11011011
111010010
100001
1111110100011110
1111111010010100
101110011
1111111100101100
1111011001111110
1111011111001101
1111100110000001
1111110111111111
1111110110001010
1111101010011110
1001000011
1001110111
101011011001
1111111110001011
1111101111001011
100010011001
1111111101000101
1110011111
1010001001
1111110110000010
111011000
1111101100000101
1111110100001100
10000010100
1111111000010101
11100111
101111101
1111100100111101
1111110001001010
1111110101000011
1111100000100111
1111100101100101
1111101000001011
1111100000011111
1111100101111100
1111111111100110
1111111111001001
1111111111010100
1101110100
10011110000
101000010111
11001001
10101000100
10101010
1111111100101100
1111100100111100
1110110
11101111111
1111101010
1111011000111001
11111010
11101
1111110010001100
110101
1111110011011111
1111011010111101
1111011101010001
1111101100100010
1111101101101010
1111100010110011
1111101111000111
1111100100101010
1111101011100001
111001101
1111111101010000
1100010111
1110100100
100001100111
1000001001010
100110010001
100011011
1111111000110011
1111111111110001
11011001
10111011100
100110010
100011010
1111110111111111
1111111111101101
1111110111111011
1111111110001011
1111111011111000
1111111011111001
1111101101100111
1111101011100111
1111111110111001
1111111011001000
1111110101011111
1000000
1111101001110001
1111110001101110
1010000100
1101100100
11110011011
100010010011
10000010011
10000010011
111110010
1111110001110000
1111101011111111
1111111110011001
1111111111010000
110000111000
100000001
100101110001
110101011101
10110100101
11001000110
1001101000
111101010
1111110111111011
1000001
1111111101111011
1111111100100100
1111111111100001
1111101110000011
1111101100011101
1111110110010100
1111101110011101
1111011111001010
1111111111001001
1111111101100110
11111111001
100100010
11011100000
11101111011
1111011111110100
1111100000011010
1111111110010111
1111111101100111
1111111101011010
1111010000001001
10011111001
11111011010
11010010
1010001010
1001000111
10001100101
1111101110001110
10111110
1011110
1111111111100001
1111101100010111
1111100001000101
1111101010100010
1111110001010111
1111110100000001
1111101011101111
100101000
1111111100000111
110000111101
110100111111
100111000011
1010010111
1111100011010101
100000000
100111101
1111111101010001
100000
1111111001001100
1111110000011001
1111111110100001
100100101100
1111101101101100
1111110000101110
1111101010010111
1111111000010010
1111100100110001
1111100000000111
1111100111001000
1111011111101111
1111101011111000
1111001101101001
1111100101011011
1111100111110000
1111101111001111
1111111101101111
10001000101
10010111101
1000101000
1111110101010011
110101101110
10100010011
1111111010101010
1111111101001010
101011011
10001010000
1111110110000000
101001101001
1001011010001
100001001001
111000110000
10101100000
1110100101
1010101110
10111011
1101100111
10011100
10110000001
1111100001011100
1111101010001011
1111110110001000
1111111011010010
11010010
10011001110
10001000000
10001010010
1111101100110101
1111101111000100
1101110011
1100011111
1111111111000010
1111111011111111
1111111011001010
10010010
1011010001
100100011101
110111111100
110011100011
11101010111
11110100101
101110111001
10101100010
1111110011100001
1000111110
101101010111
1001010001011
1111111111101101
1111111100111010
1111110101110111
1111111101000010
1111111111100100
11100101001
11111101100
10100100111
10100010010
10011000001
1111111000111010
11101001
101000011
1111111011011011
101010
1111111100111100
1100101
101001
1111100011110011
11010101010
10100010001
100100000
10101001
11110010011
10010001101
10011101000
100000000001
1000111110100
111110011001
111110011011
1000011110001
110101111001
101100111111
1111001000011001
1111110100011111
1010000000
10100100
100111010
11110010
1111111101111110
1111100
