101001111
1111111011111011
100110101
1111111011110010
10111001
101011111
11000101
100010010
10001110
1111111110000000
10010000
100011110
1111110011000000
1111111011011111
111101011
1111111100110000
1111
10111011
100001111
1111111110011000
1111111110001101
1111111110001001
11101011
1111111101001010
100111000
1111111010110100
1011111
1111111100101001
1111111111111000
1111111011010010
1111111111010111
101011000
100010011
111100000
110110111
1111110101110010
1111101011000101
1111101100000000
1111011100110111
1111011001101001
1111011110000100
1111101100110011
110010011
111000110010
1000110101000
11110011100
1111000100011000
1111111101100000
1001010011
10001100
100110111
1000110001
11000110
1111111011110011
1111111110011110
11011100
1111111010100110
1111111100101111
111101110
11000111111
1110101110
1111101110111010
11001111000
1111111110110000
10010111001
110000011000
110111110100
111000000011
100001111110
11101101110
101011100111
111100100000
110011010001
11011110
10001010011
100000100101
10111001
1110100010
1111101110010010
1111010011
101100011001
100011000100
101000001
10100111
10111000
1010111
11101001001
101100110010
1111110001110100
11010010011
110001100110
1111101110000110
1111111000100001
1011010100
1111111110101010
1111100111010010
1111110111110110
10001110101
1111101111111010
1111110011010100
11001010111
100000011
1111110111101001
11100
1111111110010010
1111111110001000
1101011
1111111000111100
1111101011100000
10010100101
11001010010
1101111
111101
1111110010101000
111110011
1111101011101001
100110001
1101001100
1101110001
1111011110101111
1111110100111100
1100101
100010101
1111110110110010
1111110101010000
1110
1111111001000001
1111111011100111
1111111101110000
1111100000011010
1111100111100111
101000111
110100010
1111101111011011
1101111000
1111010111110101
1110110110100111
1111101000010010
1011001000
11111001
10001000
1111111110000010
10000100101
1101111110
100000000110
11000011
1111111100100010
11110010
1101010
101001000
11000100010
10100001111
1010111
1000011010
1111110101010100
1100010110
1111110101111000
1111101100010110
1111101100111101
1111101100000100
1111110100101111
11111111
111001110
111101
1111111011100010
1111111100011100
1111111010000101
1111111101101110
10101010
1111110001111111
1111111010000011
1111111101001111
10101001101
1111101000111010
1101100100
1111111001001001
1111110010011010
1111111010111101
11010101010
1111001101
100111101
1111111111010000
1111111000010000
1111110011010100
100010101
1111110001100000
1111101010101000
1111110111011010
1111101100011001
1111101101110001
1111110111000000
1111101000000101
110110101
1111010101011000
1111110111000001
11000111101
11111110
1111111100000101
11000000011
101101010
1111111000101001
1111101111000110
11010101011
1000010011
10100100
1111111111110011
0
11010010000
111000101
1111111101110010
1001101001
1111111111100011
1111111001000111
1111110101011100
1111101011100100
1111111110110100
10000100
11010101001
10110001
1111110001010001
1111111001101010
1111001001010000
1111111100111010
10100110000
11011100001
110011110001
1111111011010000
1111111010011101
1111111111111000
1111111000100010
1111111011000110
1111111000110101
100010101
1111110011110010
10100101101
1011100111
1100111010
1100000110
11110100111
1010001000
1111110100001010
1111111110110111
1111111010101001
1111111011001101
11001110
1111111111100100
1111111110111010
1000101100
1111110011111101
1111101001001110
1111011101110011
1111100000101011
100011100
1100111100
1111101010110101
1111100011100101
1111110110111000
1001101000
1111111011100111
1111110101011111
110001111
1111111001
1001000000
101010001111
1001101100
1111111111001011
11001011001
10101000101
111110
1111111010010110
1111101000110010
1111100011001011
1111111111100101
1111101111001010
1111111111111100
10011011
1111100110011001
1111010111000101
101101100
10000001001
1000010000
10111111011
1111111111011001
1111001111111100
1111111101011000
1011011011
1010111101
100111011000
11101100110
10001111000
1101111111
11101110000
1111011011001011
1111100001011100
1111101100010010
1111110111110010
1111111100011000
11110010
1111101111100110
1111100010010001
1111101111001010
1111110001001010
1111111101101100
1111011100010110
1111110110010010
1111001111
11110010011
10001110010
11000100
1001111111
1111100011000101
1111000110000111
10001010000
11100010010
11100011001
101100110011
10110110001
11110001
1111110001100000
1111100011011001
1110101110100011
1111000000101111
1111011011001101
1111101010001100
1111011110001101
1111111010000100
1111111011001010
1111101110100110
1111110001011000
1111111101111111
100100110
1111111101010000
1111110110001010
1110010001
1111100110011000
1111111001111110
1011100110
11110001000
1010111000
1111011101100001
1111101000111100
1111111001001100
1111111110100100
1111110111001110
1111010100001110
1111001001010011
1110010111000011
1110010100011110
1110111010001111
1110111110110111
1111100111110011
1111111001101000
1111110111011101
1111101100110101
1111110110101101
1111110001111010
1111111011000000
110000001
1111110100010000
1111010001111101
1111101001011000
11001110001
10101000000
10011111101
1111101100111010
11000000101
10000110010
1111010101010000
1110110110000010
1110011010101100
1101111101001010
1101100101001000
1101100011110010
1110001000000101
1110011100101110
1111001111100111
1111111011001000
1111111110011010
1111110100110011
1111110011101001
11
1111111001011011
1111111010100101
100000010
1111111000000000
101000110
110000
11000111010
1111111100000101
1111111100001010
1010010111
1101000000
1111110011111011
1101011111
10110001110
1111100011111111
1110110101111001
1101011110001100
1110001100001001
1110000110101011
1110010001010000
1111000111011000
1111111001101001
101011111
10000010100
1000100101
111110110
1111110010110101
1111111001100101
1111110011111011
10010101000
1110101
1111101111110100
1111111101011011
1100100011
1111100110101100
111101101
1111111110101001
10101010101
110001011110
1111111000110110
1100110110
10011100111
1111100100110110
1111000101110110
10110001
1111111100011001
1111101100110010
1111111000011111
1111101011010101
100010000
101110010010
100000101010
110001011000
10110110101
1111111110011111
100011
1111111001000110
1111110101101100
1111101000011000
1111101111100110
1111111110101110
111000001
10010110011
101111111010
1111011010
1111111010101111
1111111101
1110100
1111110100
11110101001
1111110000100001
1111010100001110
1111111100110100
1010010001
1111111000011101
1111111101000110
10001111010
11100111101
101010000111
100011001110
111101101110
11101100111
1111111011010100
101001000
1111111100110011
1111110010011100
1111111001001101
1111100011111100
1111101110111111
1110001001
11011010000
10111011000
11010100011
1001010111
100000011101
1111111011001111
100011000
1111111101
11001111
10010001
1110101
10001011111
1111110100111110
1111110001000100
1000011111
1101100000
100011001111
100101000000
101001100000
11000111000
100101101
1111110000110111
1111100001001110
1111110001100111
1111110110110111
1111101110000111
1111101101011011
1111111011101110
1111111100111001
1111111000000010
11010110000
1111110000111100
1111111011011001
1111110010000001
1111101110101000
1111100110100001
110000110
1010000011
110111010
1111110000010110
1111110110000110
1111111010011100
101101
11000011
101111001
11011111110
11011110110
10000001110
101010010
10
1111111100011011
100001010
1111110001100111
10100000
1111100011011111
1111111100001110
111000101
1011001000
110100000111
1111111100100100
1111011100
1111101110011010
1111101101110110
1111100110101101
1000011000
10100100
1111011100011110
10110000
1111110111001011
11000
10010001110
1111111000100011
10001010011
10011101110
101001100101
100000111010
10111001000
1100000001
1001011110
1111101001010111
1111100101001001
1111111011000011
1111110110000010
101110001
10101011011
1111110100011101
1000011111011
111100111000
1111111101100100
110001
1111110001101011
1111100110100010
10101000001
10000100001
1111110001101010
1101011000
1111110010011001
1100111
111000100
1111111111111011
10110110000
11111111111
11000001111
101011000101
11010010011
110000011
1111111101010111
1111101110001011
1111101110001000
1110110
1000100010
1111110001011010
1111111010000111
1111101011110110
1100001110
101100001001
1111100100111000
1000010101
1111111010101010
1111111110010111
1101100111
11110101010
1000101100
1111111011011100
1111101111011101
1111111010001001
11010000
1111111010001100
1111111110100110
1010001
10100101111
11110010011
10100111110
1100111
1111111110100101
111101100
10010010111
1111111110011101
1111111100111011
10100010
1111110000101000
100100001
110110100
101011010111
1111111001011000
111011001
1111111100100101
101110001110
10010101111
10111101111
10010111111
1111111110100110
1111111111100111
1000010110
111111000
100011101
1111111010111010
1111111111111101
1111111001000010
101001010
1111111101111010
1111111000110100
1111111101000001
1111010110
1111101110
11001100111
10010000000
100000
1111101111101000
1111111111010000
101111111
111000011
1111110110111110
1100100
1111111110101010
1111001101011110
1111100011000110
1111110101011011
10001100000
110111001
1111101100101110
1111111000000011
1111111110111101
1111111010100011
1111111110100101
1011000010
100000
1111111011011101
1111101110010100
1111111000100100
101011101
10010011111
10101001011
110000000
100100001
10100110
1011101000
1111001101001001
10100000
100001011101
1000100
10011110
10011111
1111111001101101
1111011000000000
1111101111100001
1111101010100000
1001100001
1111110101100100
1111111010001111
1111110101011010
1111111100001111
10111100111
1111111011100000
1111101001110111
1010001
1111110111101010
1111101111010100
1101111110
110000100
1001110001
1111111100011111
1111111110111111
1111110100110101
101110
1010101101
111000111011
101011110110
10000111
100011
11010101
1111011101100010
1100011110
1111111110011100
1111001011011111
1111101010111111
1111111000010111
1111101100101111
1111110000011010
1111011001101110
1111101101110000
1111111010111101
1111101101101111
1111111110000010
11111110110
10111100110
1111101101101111
1111011110001000
1111100110110110
1111100101110000
110001100
1111110011111110
1111001011011101
1111110011010011
10110011011
11010110000
1001000
1111111110100011
1111111100101001
100110101
1111111010011101
1111010100100000
1111011011110110
1111011011011101
1111101000110111
1010001000
1111111000001100
1010010111
1111111001110000
1111101010101110
1111100100101110
1111111110100100
101001010
1111110111001110
1111111001011001
10011110000
1111110111001101
1111100000001010
1110101000000010
1111010100011110
1111010110011001
1111101100011010
10100011101
11011111
1111111010100101
1111111011101111
1111111110110010
1111001
1111111101100101
101000101111
110010101101
110011010100
1011100100100
1010001011110
1101111011111
111000000001
1000111001110
110000010111
1001000001000
100110010001
10101011101
1000100101101
11101010100
111100100
1111010000011011
1111001101100010
1111001100111001
1111100000110000
100110001
100110
1111111011011000
10010000
1111111100101101
