1111111011000011
10010010
1111111010100010
11001
1111111110111101
1100
1111111010101100
101001101
100011000
101000
1111111110011001
1111111101001000
1111110000101101
1111111011111100
1110110100
1111111110101101
100000111
1111111010100110
1111111011011100
10011001
101000001
1111111101001100
1111111100000100
1111111110100011
10101100
1111111100111100
1101011
1111111100100111
1111111111100110
1001010
1111111011011010
1111111110110110
1111111110010001
1110000
1111101001011010
1111011101001101
1111011001101111
1111000111001100
1110111100010001
1110001010111000
1110001100011101
1110110001010101
1110111110110100
1111011110101100
1000011110
10000101101
1110110111011001
1111100001010111
1111110100101000
1111110000001011
1111111010001000
1111110110011110
1111111101010111
10000010
100100001
1111111010110111
1111111101101101
10101101
1111110110111010
11001011111
10111011010
1111010100011011
1111011110011010
1111001010001011
1111111011011111
1000101111
1111101011101000
1111010100000100
1111110001101100
1111011001110010
1110011110111111
1110001111000010
1110010101000100
1110101001001010
1110110100011001
1110110000001000
1110100111100100
1110111101010011
1111000011011110
1100100110
100100000010
11111101111
1111111010100111
1111111100011110
1111111010110110
101
1111111000110111
11100100001
1010101110
1110111001
11011010010
1111011001110011
1110110101
10001110101
1010111001
10101100110
100010011001
100101110000
1111110001100100
1111001110100010
1111000100110001
1111010110100010
1111011001010000
1111101101010111
1111001110001000
1111000101100010
1111001111010010
1111111101011011
1111011111000010
10000011010
1111111011001000
1111111110100111
100111000
110011101
1111110001011101
1111111110010000
1111100111100010
1111111110101110
1000100000
11011010
1111110010100001
11001101011
100100100000
100100000010
10100101110
10001011
1111100000000010
1111100001000100
1111011000000010
1111010000000001
1111101001100001
1111101011011011
1111100100100110
1111110111110100
11010001100
1111111110111000
1111011100101111
11000011100
1111011111001100
1111101101111011
1111111111100100
1011011
1111110000010001
1111111110001011
10101001
111101111
1111111011101000
100100011
1001010011
101001111
11110101110
11011010010
10100011100
110110011
110001111
10110000011
10000000010
10101011111
1000000100
10101010
1111111111101001
1111101111101011
1111110011010010
1111101111000100
1111010100000111
101011010
1111011110011110
1111110101101110
1111111111001001
1100000101
11001101101
11101011101
1111100001100101
101100
11011110111
1111111001100101
1011000
1111111111110110
11110101100
1010010001
1101001110
1111011010
11110101100
100001011111
100010100000
100001010011
111101101
1111110100110100
1111101010111110
1111111110001100
1111111100101101
1111111001010011
1111101000100110
1110111010110010
1111010101000011
1111100001010100
1111111011101011
1111110100011010
111011111101
101101001010
1111111010000100
11001010
11000110011
1110000001
11111101010
10101000
1000101100
10001110011
10111101010
11010010011
100001011010
1110001000
1111111111110001
1001001111
1111110100110101
1111100000101110
1111110110110100
1110100101
1111110000010110
1111010011110110
1111110111011110
1110100001011100
1110101100011000
1111110001000101
100000010101
100111001101
1001010101100
110110001
1110110
1111110011111100
1111100001010100
1111110011000010
101100000
10001010010
100000000010
110000100000
101000100110
10011000101
101101000011
10000111111
10011110101
1111000000
1111111110001010
1111110101000101
1111111010010000
1111111101011010
1111111100001111
1111101010011010
1111101010010101
1111001110110111
1110110010000111
1111101110101100
1000100110
1111111111011001
1110011101
1110001010
100100110101
101011000
100011011
111100011
10110111000
100110101010
101101110001
111000011110
101001000100
11011111011
10110111011
10001101000
111111111
1100110100
1010001000
1111110110111111
1111100101100111
1111001101010101
110111010
10001101010
1111011010010011
1110101111101101
1111001111110101
1101011000
1000000000
1111101101010001
100010110101
1000111100
1111101101110101
11011000010
1101010110
1111111000000111
10011000010
100101100111
10000010101
101110111
1111011010110100
1111010111011011
1111001110000010
1111101100010000
1000011011
10111001011
1010010101
1111111111101100
1111101011011000
1111110010101011
1111110100010010
1111111000100000
1111011011101001
1111100011111111
100011011
111110
1111111110100100
100101101100
1111101011110010
1111110010000011
10001010111
1111111011
1101110100
1111110110001001
1111110101010100
11001
1111011001010010
1110111000010101
1110011010001010
1110001001101101
1110011011001011
1111110001100111
100111100
11100011101
10001110000
110000001
1111111110000001
1111111101111110
1111101111011111
110100011
10101110
1111110110001010
1111001100000011
1111010100000001
110110001
1111101111111001
1111101101110010
1111110011100110
1111011100101100
111010101
1101110
1111110001010100
1111100101001100
1111011100010001
1110110001101111
1110000011111000
1110010011111001
1110100100001110
1111001100110010
1111111110011111
1000111110
11010100
11101001
1111110110000100
1111110010011001
1111110000000110
1111110111100101
11011000
10000100100
11010100011
100000111000
1111011011010110
1111101000011001
1111111000010100
1111101011100110
1111011111001100
1110110110010011
1111101110100000
1111011110001111
1111010010000101
1111011010101110
1111100111011011
1111011100000011
1111010100001011
1111010000110100
1111101100001111
110000110
1111111111000010
100110011
1101001000
1111111010101010
1111101111000100
1111101000001100
1111111010011101
11110011
1000010101
110010010
11001011
10110000101
1111111011000111
1111110111011010
1111100010101101
1111101000100000
1111011101110001
1111001100110110
1111011010011100
1111010100011100
1111010111101010
1111111101100111
10110001
1000010101
1111110110001111
1111110111100000
1111111111101000
11010000
1000110010
1111110100110100
1111110111110111
1010000
1111101000010101
1111111000100100
11001100101
1111111100001011
1111011111110100
1011001
1111110101011011
100110010100
111001011110
1111111001110011
110101111
1111101011011111
1110111111111000
1111111101101100
10000000100
1111110001101011
1111101011010011
110111101
10010111100
10000011111
1111111011010101
1111101100101010
10001110
1111111110101010
1111110111011011
1111101101110000
1111111100100101
1111110100100010
1111100111011011
1010010000
101001001100
10111011100
1111111110011001
1111100111
10101001
100011000110
11100110100
1001001110
1011000101
10000110011
1111010100101101
101101011
11001010
111101000
10000100111
1111111100110111
11001100110
1100100111
1111111001110010
11001100
1111011100
100111
1111110110010110
1111100011010101
1111111001010010
1111111101001110
1010100110
110011000
1110110111
100110001001
10111111011
11111001111
10111111010
101100010001
11100010101
1111111110101001
10000010110
110001000
1111100011100101
1000001011
1100001111
1100011101
11101011101
1001011101
11010110011
110010111
1111111101110111
111100000
110010110
1111100110111011
1111110001101001
1111101011010110
1111111101110011
1111111100000011
111011010
1111111111000010
1111110111010011
1111101110110001
1010011011
10100101000
101010100010
11000001010
1001011000000
1111110011000101
100001100
1111011111110010
1001001010
1100101101
1001111101
1111111100101010
11110100
10100101001
110000010
1111110100
1010111101
10111000101
1010001111
1111101111100100
1111011011111001
1111110111101011
1111110101101101
10110000101
10110011000
1111111111010000
1111101110011100
1111101100000110
10000100111
10111011101
1111101010000110
1101001
11001111101
1111100100111000
11001101110
1111101110100100
111100011
1101100001
1111110100101010
1111111001110011
1011110010
1000110110
1000000000
101001001
1001011111
1010100
1111110011010111
1111100111010000
1111110000100010
1111110110110000
1111110111100001
110100111
111010110
1010010100
10110100
1111111000110100
1111110011001110
11110010010
1111101001001100
111110101111
1111110111101100
10111000
11110111110
10011001
11010100011
100101110
1000010110
1000001100
11101100
1111111000010101
1111110001010001
1111101110110010
1111111100111010
1111100101110011
1111010110001000
1111101100001110
1111110001111001
1100
1111110101100100
1100
1011001110
10111011000
1011100110
1111101000010001
1110101001
110010101111
1111100100000110
101000110001
1111011111110110
1111110111001000
1111111110101001
1111111011111011
111011
1101011110
1111110111001111
1111011010011000
1111101001111001
1111101101100000
1111110010110010
1111110000100110
1111110000000110
1111101101001011
1111100010001000
1111110001100011
1111101111101110
1111110010
110000110
1001111110
1000010111
111001000
1000111000
11011011
111010010010
1000000000001
1110010101
101111111000
1111111011010000
1111110011100101
1111101100100100
100101010010
1011001100
10010010101
1111111110101000
100000010
1111110111001101
10010111100
1111111001111101
1111111000100101
1111110111011101
100000101
1111110010100011
1111111010111001
1111101110110011
1011101100
1111111110000010
111001
11111001
10010100111
100000000101
11111010111
11101011111
1000001010010
10110110001
10101001110
11110111
1111111100010000
1111111010100010
1001100001
1111111000010011
10001101010
10011111101
10010011010
1111111100010001
1111110111001110
1111111110110111
1111110001101000
1101111
1010010
1111110011110111
1111110101001000
1111110011100100
1111101110001011
1111110110011000
1111111110010101
1111010101
111000011
100000010111
101101000100
111100110101
1000110101000
11000101010
1111111110111110
1111111100011001
1111111011000001
11010111
111000
110011010011
11001000100
10111011
10111000000
1110001101
10001110010
101011111
101101110
111100010
1111111111100011
1111100011100010
1111111011010101
11011010
1111111000101111
10010110000
1111111111000111
1111111100010000
110111101
100000101101
1000111101
110111100
1110010101
10110011000
1001110
1010001
1100
10001110
1111111110111100
100010101
11000010101
1111110111100110
11110010001
11011000000
101100000010
110011100101
100111111000
101111101000
10110010001
1111100011001100
1111010111111010
1111110100001100
1101000111
11000010100
100001010000
100001011100
100111110010
101101111100
1000100111011
11111101001
110001011000
1010100000
1011
1111111101110111
10011010
100101010
1111111010101111
1011110001
1111011111101111
1111011000100011
1111100001011100
10010110011
101111111011
11010110000
111111100110
100111101011
1111110101101011
1111110110011000
10011111001
111110100000
1001000111111
110001001001
100110011110
101101011010
101101111000
11101010110
100001010101
101111111000
1110100100
10000101011
1111111110101000
1111111011101110
1111111101100010
1111111111100111
111000
1111111101001011
101010101010
101100101011
11100111101
110101100010
100011010010
11101001011
111011010010
101111100
111001111
100101011101
10101100101
111101110
101110111111
11101000101
1111111111110100
1110110111
1111101000100010
1111110011011011
11010001100
11111000010
1111111010101101
11111
1000101
1111111101111101
