1111111101011111
1111111011110100
1111111101001111
101011010
10011
10001101
101110
1111111101110100
100100011
11001001
110000
1111111101011000
1111111001110111
1111100111110111
1111110101011001
1111111110111100
1111111101000101
10011110
100101110
1111111110010101
1111111111101110
10011000
1111111111011001
1111111100011100
1111111011110101
1111111111001001
10000010
11010001
100000000
101010010
101001001
1111111101011100
1111111001001001
1111110100010101
1111011100000010
1111010011100100
1111011111111000
1111001110101101
1111001100011000
1111101010100010
1111101110111001
10100110
10001111100
1111011010010101
1111100111110111
1111101101111110
1110100001000100
1111010001101000
1111001111010000
1111000111111000
1111100101110111
1111110010101110
10111011
1111111010101000
111011
1011101
1010100
11000101
1111101000101000
1010101001
100001110
1111010011100010
1111100001101100
1111011100100101
1111001000010001
1111000110101000
1110101000100100
1110100101110111
1110010000101110
1111001100100100
1111010100011101
1110100000011111
1111000111101001
1111110010001011
1111100110001110
1111101101100010
1111110100000000
1111010010101000
1111101101111100
1111011001011001
1110111111111001
1111110011000101
11100001
1011
111110
1110110
1111100110101001
1111110110001011
10111100101
1111001101011111
1110111110110111
1111011111010001
1111011110101101
1111011111110100
1111101010011010
1111110101000101
1111100111000100
1111100101101000
1111111011111111
10111100
10000101111
11000000100
1111111000010101
1111011111100111
1111110101101000
101100110
1111011111101011
1111111000110010
1111111000010011
1111111110000011
1111111011000000
101000000
1111111100000001
110110000
1111100000011110
1111111101100111
111011010
1111100011111011
1111100000110001
1111110110001000
1111011101010011
1111101100110101
1111100001111110
101001010110
110110100011
100100110100
100010100101
110110100000
100010000000
100101011101
1011001111
101100
110100
10100010011
1001000100
1101001011
100000011101
100111011101
1111100111101111
1111011100011001
100100100
1111111100000011
1111001011011101
11101011100
1111100001100001
1011011110
1111111010010101
1111110010001110
10000000001
10100001
100101011100
1000001101101
110111010001
101101101000
101111001111
100110101100
10101110101
10000010010
1111111100011011
1110110
1111110100111110
1111100110001111
11000010011
10000100010
1101101101
110110000110
1111110010111000
1111100000110100
1111111111001011
1111110101101011
10100110111
1111010100001111
1111100100010010
101100001
1111110001101110
1111100
1101001011
100111000001
111100010000
101001011101
101001101000
111010000010
111011011101
11110111000
1111000011
11011100011
10011001111
1100110110
10101100111
1110110101
1111111001010010
100101110100
1100000110
1111110010000010
111100000001
1111011111110100
1000000
1001010
1111111110101110
1111110011011110
1111110100111110
1111111101111001
1111110101011111
1111110110100001
11111001100
10000100100
11100111010
100100100100
100011101101
100010101000
111010001
1111111110011110
100101100100
10101100001
10110011101
10010000111
10010110010
1111110110101100
1111110000
111001000100
1111111010011100
1111101001011010
101110110010
1111110000001001
100000011101
1111110110011110
10010001000
1001100001000
1100011111
1111110111101110
1010111
11
100010001000
1011011110
100000001111
101110111110
1011001000
1111100011010100
1111011111110010
1111111011001101
10100000000
10100100001
100100010111
1111111111111110
1111111111010100
10110100100
100010011110
1111101010
1000101
101011000
101111001100
10111000110
1111101111001101
111111110
101110010000
111101000
1111001110110000
1111101110111110
1111111110101110
1001100100
100101101001
100011010111
1000001111001
101111100000
11000111001
1111111011101010
1111011101100110
1111011111000110
1111111001000110
1000101011
10000100011
100000010000
10111010111
11111001
1111101010011100
10011001111
10010000010
11110111
101110110000
100011100000
1111110000100110
1111101111111010
110110000110
1111111111110011
1111110001001000
1111111011011000
11011011101
11011001011
100111000101
110100111011
11100001000
11110101000
1010010000
1111101101111111
1111001101111010
1111011111000110
1111111010100111
1111111010111111
1110001000
110010101011
101111000011
1101101111
1100111100
110000100011
101100111001
111001101011
1001110000
1111111000001111
1000100100
10010111100
11111110110
101010100
1111111100100010
1111110101001011
11101100
1111111010101101
10111110
11111011
1111111001010110
10110001010
110011011
1111101110110100
1111010001101000
1111110011001000
1111111110101011
10100111100
100010101100
11101001011
10110101100
1111101111101111
10111001110
10010011001
10110011110
11011001100
1111101000111010
1111011110001001
1111111011111001
10010111100
101001011100
100011100
1111101110110010
1111100101011101
1111110111000011
1111101110101110
1111100100101100
1111101111100001
1111111110000111
1000000010
1011010101
101100101
1111100101000111
1111110010110011
1111110110110100
1111110100111011
1110000001
101000100
1111100001001011
1111011100000011
1111110011110110
1111101100101011
1111111100010101
1010111001
10011111000
1111010101000100
1111101100001111
10011001111
1101011111
1111101110101001
1111111110101100
1111111110001011
101000110
101010100000
1011010100
1111111001101110
1111101101001001
101011010
1010001111
1111111010101011
1111100101011101
1111101111011111
1111010100001011
1111101111000000
1111111100000101
1111010011111111
1111001011100010
1111100011001000
1111101000101100
1111011101010111
1111100011001111
1111100001
1111111
1111001110001111
110000010
10100001111
1111110010111101
1111101100010010
100111100110
11011110100
11000000111
110010111011
10011110
1111110000110110
1111111010010111
1111111101100001
111001110
1111101000001001
1111011100110101
1111101101100111
1111101100010110
11110011100
1111110000101010
1111011100110100
1111101010100101
1111101111011001
1111010010001001
1111101001001110
10111110
11000011011
1111101100000111
1111100101010110
1100000
1000111100
1111101000101111
1111101010101001
101010000011
111000111
1111111101101000
100000110
1111111010101100
1111110010001110
10011001
1001001010
1111110110101101
1111000100000010
1111011000011100
1010110010
10000000010
100000111110
1101000000
1111100001101001
1111111000010010
1111101100011100
1111011100001001
1111111001001110
1100011101
1000110100
10011111
1111111001000001
1011101000
1111011010101000
1111111001110001
1111101111010111
11011001001
111100110
1111111000011100
1111101110100101
1111110010011101
1111110001000010
1111111001010100
1110001111
100001111
1111100010001001
1111010010111011
1111101001001010
10100101
100100000100
11001000111
1111100000
1100111001
1111111101001011
1111100000101001
1111111100100000
101001111
1111110101010000
1111100010000011
100000000100
1111111110110000
1111011110000100
1000110010
11001011
110100001
10001000
1011011
10101001001
100000011
1111001011
100110101
1111101010010110
1111110110100011
1111101110011110
1111101011100011
1111110100110100
11101100101
10001100011
100000001111
1011111101
1111110110111110
101010111
10101111
11000011100
11010000010
10000011011
1011
10000100011
11110101001
1111111101011000
11011111101
1111101101110001
11100
1101101011
11101001110
11111110011
10100111101
11000100011
1001110001
1111110001011010
1111100000010001
1111011101100110
1111111000100001
1111111001101100
1001010101
1111111100001011
1111111000000000
1111101110110011
1111111101111011
101100111000
100110000110
100010001100
1111111011011111
1111111010000100
10100110011
1111100111100001
1111101001101011
1111111101111101
101000000111
11000100010
1111110110000111
1110110101
11011000011
11111101
11110001100
1111110111111010
1111101011100000
1111100011010110
1111100000100100
1111100011000000
110110010
1111101101010010
1111111100100001
1111101001101001
1111101001010110
1111110111101101
11100100011
110111010011
1011100001
1111111110011111
11000100
10011000000
1111111011110011
1111100000100001
1111111111000001
10000010010
1010110110
10011000100
1000011
10101010
10100000100
11000011011
10011101010
1000011100
1111101111110111
1111101010110011
1111011001100110
1111110001110111
1111101010110000
1111100000001010
1000101011
100011100010
1111111111111000
101101001010
110010111000
1100000100111
111010111101
101000100011
100100001100
11100101010
1001000000
1100110010
1111101011001000
111000110
1111101101011111
110111100
100010100101
100110010101
10010100010
1011110101
11000111110
100011
11101101
1111111010001010
1111101100100111
1111100111111001
1111010110101010
1111100000011000
1111111100111011
110101011
11100
100010111011
1000100110000
1010110100011
1101011010010
110011001110
10100001000
11101000
1101100100
1010000101
1111110011101111
1111101101011011
1111011110001100
10110010
100000000000
10111111000
100001011111
10100010
111101000
1111110110010101
111100100
11000101
1111111010001111
1111101110010011
1111111001011110
1111100101101011
101101001
11100
1111111101100100
11111101001
100010001100
111110000000
1100000010100
1001100111110
110000010000
1111110101011000
11011110111
1000100011
1111111100101100
10101010
100010101111
1111101001010101
1000111011
11000100
1010111110
100001100001
10010111
110100100
1111111001111001
11100100101
100110100
101010101
1111110011000100
1111111000111000
10011010
1111110001110001
1010000011
100101100010
10101001
11001000111
100010000100
1001100101100
101001001001
110011001
1111010011010010
1111111010101110
1111111011010011
11100
1000101001
1101110
101110010100
101101111111
101101011000
101010011101
1000100010
110111111
1001111111
101000100110
110000101010
101101010100
1111101110101001
1010111110
11001101110
101111111000
110101011011
100101000010
1111111101100011
100000101
1111111101010010
100011110011
11101100010
1111111111101010
1111110010100101
1111001
1111111111101110
11001110
1111110111111010
10111101110
1000010000011
110110011110
111100111100
1011111111100
110010001100
1001011101111
1001110100000
1011010111100
1000110100000
1010011001110
1001110100100
1100000001001
1110101110010
1101010000000
110100000010
101111100
1111100101100010
1111110000101001
11010001010
111100001101
100001110010
1111111001001010
1111111001100011
10100100
1111111110111010
10110010
11010010
1111100000
1000011011111
1001110010010
1101011011111
1101110010111
1111100001010
1110000100011
1001101100010
1001011001000
1110110111110
1110010010111
1110101001011
1010101011100
111101101000
111010110001
1010001101001
101111000000
11100011011
1010001101100
111101100111
10110010110
1111110100111011
1111111110001111
1111111111110111
101
10101110
11010000
10001001
1111111111110000
1111111100001111
110111111
10101100100
10101110110
100001010001
101111001110
100000111111
101011001111
110101011110
110100001110
110101011001
111100101111
111011100000
101001100011
100111100101
100001011010
100110001010
100111111110
10110110010
10110010
11011100
1111111111110111
1111111101011111
1111
