11011111
1111111111100000
100110110
10110001
1110100
10001011
11000101
1010111
100110000
1111111101110100
11011101
1111111101100110
1111111100011110
1111111000100110
10110110
11000010
1111111111100000
10000001
1100001
1111111101011110
1111111111100110
1111111111111110
10101111
10001001
10001100
1111111101110110
1111111011101001
101010110
1111111100001110
10110110
10100100
10001000
1000010
1111110001000010
1111001111101100
1110111100010010
1111000101011001
1110101110110110
1110001111100101
111001001
111101011
1011001011
1111010000100101
1000000000
1100101010
10011111
1110111001101001
1111001001010100
1111010011000111
1111001111110010
1111011011100111
1111110111001110
1111111110100001
1111111110001101
1111111111011101
1111111111110100
1111111111001000
1111111010111000
1111101100101010
11100101110
11011001001
1110110010000010
1111000101011010
1111101110000100
1111000101100011
1110110101011111
1101111100100101
1110101001000010
1110111101001010
1110011001001000
1110000110000001
1101111101111000
1110111001011111
1110101000010101
1110000011111010
1101110011111111
1110011000011010
1101111011111011
1110010011111100
1111010001010110
101111010
11010000110
1111111110001100
10101
1111011
1111111110101010
1011010
11011100011
11101011101
1111011000100011
1110111111010000
1110111111010011
1111101111110101
1111011001001110
1111001111010111
1111010001011111
1111010101011111
1111011001101011
1111011110101111
1111010100111010
1111110010000100
1111110100110001
1111101011111111
1111011000011010
1111011010110001
1111111010001101
1110111000001001
1111001100111110
1110101111
11110011100
11011100010
1000101
1111111010101101
10101100
1111111111100011
1111111110101100
1111001100000000
1111100001110100
1111101001100000
1111101011111010
1110111010110011
1111101001011010
1111111100001100
100011000111
101001010
1111111010111011
1111110100010001
1011100000
1111111100100101
111110110
1111110101100110
1111111101011001
1111011010001101
1111011010110010
1111011101100111
1111100011011110
11100001
1111000111
1010111100
1111011110010011
1110000
1111111101010010
1111010010111000
1011010010
1111101000000100
101111000110
1111110100111011
1111110000000101
1111111100001010
1111111001111110
10000001111
1011111001
1111111000111010
10001000111
1111111000100110
100011010
1111111111100010
11011010011
11100011101
1111000001
10010000
1111100111001110
1111110100011100
1111110000101000
1111101101100011
1111011011111000
1100100000
1111101100111001
1111111111000001
1111100010100101
1111110110110100
101011110111
1111111000111001
101101001111
11011100
1111110110110100
1110001001
1001010011
10011100111
1111110011101111
1111110110011001
1111110111100011
1111111010000001
1111111100110111
1010011010
1110001101
10000111111
1111111010011011
1111101111001000
1111111010110100
110110001
1111110010111011
1111011011011101
1111100110000101
1111110001110001
1111100100100110
1001110111
1111011111101101
1001101111
11100101011
10011
1000001000
11000101011
1111111011100001
10010000111
1010101101
1111111110000101
111111010
101101000
10000001
1111
11010010
1001100011
1001001001
1111111100111011
1111111111000000
1111111100010110
1111101111011001
1111101010111111
1111100011110111
1001001111
1111111011010110
1111101110001011
11011000
100000101011
11000100000
10010101101
1111110010110001
1111110110100000
1111111000100010
1111111110100101
111111100
10100010110
10000011111
101101
10101011
1111110101110010
1111101010101010
101011001
1011101101
1000010100
1111111101000100
1111101011101110
1111100110101000
1111101101000110
1111101100011000
1111101000101001
1111111111001001
1111110110111110
1111110100111110
1111011100111011
1111111011101110
10000101001
111110010110
1111111010010111
1111010011101010
1111110110010101
1111111000110011
1110111
1010100010
1100111001
10101000
110101011
11110101
1111111010000000
101001110
1101110100
1000001
1111101010001011
1111111111101101
100110000
1111111010010010
1111100111010111
1111110010110000
110000001
1111110010110100
10001001011
1111100110010010
1111111001101010
1101101110
10001010110
111011011111
11100011101
1111100110010111
1111110000000011
111111000
1001000011
1001100101
1111110100001001
1111111110000110
1111110000000110
1101011101
1100001100
10100110001
10100110111
1011101110
10110100010
1101101101
1001111001
100011101
1111101000001100
10101010000
10001101000
1111111101101111
100110000
1100100001
111011100
1110011
10101101010
101000100000
1001110
1111100100011010
1001000010
1111111011111011
11001101
1111101101
111100011
1111111101010110
10011110101
100010010111
11001000001
11111001001
10010001010
10011101000
10000111100
11000101011
10100000110
1111111100101000
1111111101110001
111011011
111011100
1100101110
1111101111011001
1111010100000010
1111101000001111
1111111011111001
11001111101
11010111011
10101
11111011
1111100111001101
1111101000100011
100011111
1011000001
101001010001
11010010000
10100010001
100011101001
100101010001
11111000001
1111111110101110
1111111110000110
111011000
1110111010
10110110011
1011100100
111011100
10011100001
100011101111
1010101
10010110101
1111111111011001
11010101000
101010101
1111100110011000
10001111001
100100011
1111111110101111
1111010111
100011010011
10100010100
1010010101
1000100010
10000110111
1111111011
1110100101
1111111000000101
1111100110100100
1111101000001111
1111010110010011
1111100101000100
1110001011
1111110111011000
1111101111111100
110001011
11111010101
101001101001
110100010101
11101110010
10101101111
10110111
1111100011111010
1111101100111110
1111101101001111
101111100000
11101
100010111110
11000011010
1111111100010100
10010100100
1111111011110011
1111111100001000
1010010101
1111101111100111
1111110001110110
1111101010001000
1111010000110111
1111100010001111
1111100011001101
1111110011000010
1111110101011011
1111111110011110
100001100011
101001000000
101000110011
111010001010
101101001110
1001101101
1111110111111001
11000110111
1111110001011110
110101011
101010100
1111101011111110
10011000110
101011001
1111111101010011
1110101101
1111101101010011
1111110011111100
1111111011100011
1111110011000110
1111111001100011
1111101010000101
1111001000001001
1111011101100011
1111100001000111
1111100111011101
1111110010001001
1111111101100010
110100001111
101010011011
100010101110
101011001100
11101011000
1111111000111111
1111111010110110
1111101011111001
10010101100
1111110001001001
1100100111
1111101111000011
1111111011110001
1111101111101000
1011000001
1111111101001110
1111100110001111
1111110110010111
1111101011101100
1111111001100011
1111111001001010
1111011011111011
1110111001010010
1111010000111101
1111101001101110
1000001011
1011010111
11000111111
100100000000
10110100010
10101100111
1010101111
1111100010
1111110001010001
1111100111110001
100110011110
1000001
1000000
10011000011
111110110
1111110001010100
101000111
1111011110111000
1111010111011110
1111101000001010
1111110100100101
11110110
1111111101011000
1111100000000001
1111000000111000
1110111101101011
1111011000111011
1111111000110000
1001001111
1010010100
101101101
110100110
1111111100010001
1111111011100100
1111110111011011
1111100110010010
1111110111101111
1001010110
11011010101
100111001
11011100
10010100001
1111011001100101
1111110011001011
1111101110010000
1111100101100011
1111111011000110
101001001
1111111001110000
1000010000
1111101100110101
1110111111001011
1110111000101101
1111011110010001
1111100000111001
100001100
111100010
1110010001
1111111100110110
1111100010001011
1111110100110010
1111111010000110
101001
1111000101000010
1111100011110100
11111010010
1100110011
1111110111010001
100111000111
101010111111
1111100100110010
1111011010011110
1111100000110000
1111111010001101
1111110110011010
1111111100000101
1111110001100000
1111101011011101
1111100111011111
1111011111010100
1111101110100010
101000
111110001
1010110110
1111111000101111
1111110000110111
1111101111001111
1111011110111101
1111100101111111
1111011101111110
1111010111110010
1111100010011001
1111011000011001
1111011110100001
10101
1111111011101011
11100011010
11100111101
1111101111111010
1111110100000111
101110011
1111110001110101
1111111100000111
1111111111111010
1111111110010111
1111101101101110
101111
10010110011
10101100101
110000100011
101001100010
1101100111
10010
1111110000010001
1111011000111111
1111100111010110
1111100000000011
1111101000000111
1111001100110001
1111111010111111
1111010010011100
1111110101110001
1111110100000110
1111111100011010
1111110110100011
1111111001000011
1110110
1111111101011110
10010000001
10100000000
1111111000
1111110111100001
1111110011100011
110000
1101110101
10001111100
10011010110
100001010110
11100110100
1001011010
1111101111100110
1111110011110011
1111111001111001
11111110
1111100001101110
1111010010011001
1111010111101010
11011101001
1111110000101111
11001101011
10001001011
111101
1101000
1111111101001111
1111111110101100
1111001100111110
1111101110000100
1100000
1111111001001010
1111110001110001
10001
10101001
10100000111
10100101100
11101001101
100100111111
10001100010
11000000111
1111111011111110
111101100
111001100
11000010
1111001000010010
1111100110110111
1111100111001110
1111110010101100
1111100110111111
1100000111
10100011011
1111111110110111
1111111110001011
1111101010001001
1111101101001111
1111001100110111
1111101100111001
1111101111001011
1111101110110100
1111101100111001
1111111110101001
10010001111
11100011010
10111000110
10000010100
10100010010
10010000010
1001001011
1100110101
11101100
1111101100010101
1111110100000100
1111110110000000
1111111101100101
1111011010111100
1111100100111110
1111011011110101
1011101011
1111111011000011
10110001
1111111101001111
10110110010
1111100101110010
1101011011
1111101011100010
1111001101101100
1111011011110101
1111101000011100
1111110000110000
11011011
1111111000111001
1111101001010111
1111111010000111
1100111
10101010100
11101100
11111001011
10110111011
1101000011
10110001100
100000000011
1111011011000101
1111010000011101
1111010110111101
1111100000010111
11001001101
1111111110011110
101011100
1111111011111010
1111010110100010
1111100001101011
1111101000110001
1111010011011101
1110111110000011
1111100111111101
1111101000011110
1111101100010001
1111010111011011
10011000
111011001
1111111001010111
1111110100100001
1101000001
11010010111
1111111101001111
1111110111101100
1111111111100001
11000001110
100011
1111110011000110
1111101101100100
101111000110
10110111000
1111111011100011
1111111101100001
100011101
11101110
11001011
1111111010000110
1111011101010100
1111011011111001
1111100101101101
1001000100
1111100100101101
1111110001011101
10000111
1111111001011011
1111100111001100
1111011010011101
1111100000001001
11011111011
1001010010
1111100111000011
11001010
1111110111
1010100111
1111001001100100
1111111110111100
11100001010
1111101010111010
1000001111
101110
1111111111101000
11101101
101001101
1111111101110010
1111111011010100
11100101011
110010101011
1111110110011001
1010000000
1010011110
1111111111110001
1111111001010001
1111010100110001
1111011110110101
1010101100
1111111000001000
1111101000100010
10100101010
110101001010
10110110110
1111110001110101
1111110110110011
1111111010100011
100101000
1001110001
1111111101111110
10010001
1111111111010110
1111111110101011
