100011001
1111111110000111
100100011
1111111011100101
1111111110000110
1111111111000011
1111111111001111
101000011
1111111011110011
1111111010110101
11101110
1111111110001001
11011001
1111110011000001
1111101111010110
1111111000100110
11111001
1111111110100010
101001111
10100010
1111111101101011
1111111011100101
1111111011110010
1111111110110000
1111111011010011
1100100
1111111111111011
1111111011110111
100010000
11001111
10100100
10010110
11001001
1001110001
1111110101111000
1011001101
11011101100
110101101011
111000111011
10010011000
1100110000
1010000100
1111100111111011
1110111110011100
1110111111010100
1111100111000100
11000001101
111110010
1111110101110001
100001011101
1111110010011101
1111110010001010
1111111111001001
1011000
1111111111010010
100110100
1110100
1111000
1111110000111000
1111100101011000
1111100101110110
101000010011
101101110110
11100110100
100100100000
1111101111011001
1111111100001010
100110
1111100111000100
1111001010111001
1111110101011001
1111110001010010
1111100010001011
111010001
111001100
100011100100
1010011000
1100110001
10010110011
110
1111110101001000
1111101001000110
1111111110101000
100110111
1111111101110110
1111111100110010
1111011110111001
1111011100110010
11101000111
1001001011
1111100110001111
1111010010000001
1111101011000101
1111011101101000
1111110010001001
1111110100101011
1111011010011011
1110111011111111
1111011010010010
1111011010011100
1111010000010111
1111100001110100
1111110100011111
1011110000
1111111110010111
1001011010
100111111100
1101111101
11001100010
1111110000001011
1101001100
1111111111110000
1111111011110010
1000110010
1111100100001110
1111111000010110
10001110011
10110010011
1110011110
1111101101001111
1111110100000000
1100011101
1111110100000001
1111101001110100
1111101100100101
1111100011001001
1110111001101111
1111000100110001
1111000100111010
1111111010100100
1111111111110111
1111111010110111
1111110111000110
1111010000
1101100010
100011000001
100110110010
110000110011
101101111
11111111111
1111111111011010
1111111010110011
1111011111100100
1111110100110100
1101111110
1111111010101110
1011010001
1111110010010000
11100111101
11110010010
100100011111
10000001
1111111101000101
1111110011010110
1111110010111100
1111101001100001
1111101000110001
100000011
111010011
1111111000001110
1111110101100001
1111100111111010
1111111101110001
1111111000100010
11100000
1000011011011
101000101010
100001110110
100011011
1001010
1111110100101000
11001000011
1010011011
1101111000
100010100000
11010100011
101010110000
1101000111
111001000010
11000001011
100010001000
11110111001
100101101011
11010000010
1110100010
10001001
1111110111100011
1111101000110101
100001111
1111110101001100
100011
10010
1100101100
101011110000
11100010100
10101110111
1111111100001010
100001010
10100010011
100100110011
1001100101001
1000010111001
1000011101100
101001011101
100110100101
11110100000
1001110011000
1000011100110
110110001100
111010101011
11111100101
100001010011
1111111100
1010001101
1001101111
1111101000111111
11011001
1111111101001000
11000011011
1111111101011011
1111110011110001
1111010111110110
10010
10110000111
1111110000100111
1111110001011011
101000111100
101001110001
110100001101
1001010110001
111011011000
111100100110
1000101101100
1000000011010
1001111110111
1011110101110
1011000011010
1000110110110
111110100100
100100101100
10111011011
1111111101110001
1111111111101100
1111101011100111
1000000010
11001111111
1101000100
110000001
100010111010
1001111110
1111110000000100
11101011
1111111100111000
1111101010110110
100010010011
11111110011
110000111000
110001111101
101001000001
1001111101000
1101111011010
10001001000011
1011110000110
1101100000000
1010101011001
1011101111011
1000011000010
1100111
1111101000100101
1111110110000011
1011011
1111110110100011
1100110010
1111111100000001
10001111001
101000001
1000001110011
1101110000
10001111111
1111101011000001
1111111101011101
1111100110101111
1111111010000101
11001101001
111000011111
1001011010100
1010110100100
1111100111000
10001001110010
1111000101111
110011110101
100110100110
101111110000
1000001100101
1010010110
1111100011101000
1111010001110011
1111100011101001
1111111000101110
10101110
101100101
1111110101111110
10100111000
10001011110
1101011010101
100101110111
1111110110100010
1111011011110011
1111111100011000
1111111110001100
11011111001
1000011001
100000110010
1010010110011
1010100110001
100010000010
1110101100
1111110000010111
1111101010000111
1000001000
1010001001
11101000
1111110000011000
1111000010011100
1111010101110110
1111111000000110
1111101111001001
1111111111110100
1111101100101000
1111111011101101
10011011111
1100101100
100101101110
1111111100010010
1010000001
1111100011010011
100
11000100110
11100001
10110010011
1001000001
100100011001
1000011100
1111011011000111
1111011111000100
1111001001100010
1111010000110011
1111100110111011
1111011100100111
1111101011011100
1111011100100000
1111010101100000
1111100111000000
1
1111111011011011
1111110110000110
1111111101001001
1111110100100001
10011110100
10000101010
1011111000
1110111001011011
1111100100101101
1111101110100001
1111101001001101
10111010110
1111110011111000
1111101000111100
1111001100010011
1111100000101001
1111010011010010
1111011000110100
1111100100010001
1111110001101011
11001001100
1111101110011110
1111101111111100
1111111001000000
1111110101001000
111111001
1111111110100100
1111111011010111
1011000110
1111111101011000
10000111
10110100010
100010010001
100100001100
1000010010
1100101001
1111101011111011
100001010000
10111111
100001110011
10000
1111011111001111
1110111100000111
1111010010001010
1111100111110110
1111100001101010
1111111110110100
100001011101
110010001101
10000101000
110110110
10010000010
1111111010010100
10001100
1111111100110110
11100101111
1100111100
1000001100
11000111111
101010111
1111111100011011
110110000111
11011010
1111101110010110
1111100011010101
10011011110
1011001001
11011111011
1111101110111110
1111110100000011
1111100001001101
1111001110011001
1111011100111111
100111001
1111110111111010
11010110001
100111010000
10001010101
10100010101
1111111100110000
111010011
1000110010
10011010000
110110100111
100010101000
100011100100
100111001100
11010010010
1111111111100100
101010011100
11101111011
1111010101010010
1111110100011111
1001101110
1111111110111011
1111100101011111
1111100011111100
11000
1111100011011000
1111001010100100
1111110100010001
1111111010010111
1111101010101000
1111110110110110
1111111110011100
10001100000
11111100110
1111110010101101
1111110010100111
1000011000
101001001101
11101111100
11111110110
11100001010
11001100110
10110010101
100100011100
11111011101
10110011101
1111101100001110
1111110110001110
1111111001100000
100110100
1111010000100110
1010100101
111010011
1111011110110111
1111100011100001
1111010010001101
1111100111100000
1111101111011100
10101001
1111110110101000
1111111100101100
1111111010100101
1111110000010100
1111110001101100
100001011011
101101100101
1100110100
1111111110101110
1111111010000010
11010110111
1111010010
101111001001
1011101111
11001110000
1111110110101111
1010011111
1111111101010110
1111101001000100
1111101101101100
10111010010
1110011
1111110101011101
100000000
1111011000110000
1111110000010001
1111010101100010
1111011001101001
1111101001100011
1111110100011010
110110
1111101110111011
1111111011011011
1010000000
1001100000
1111111000001101
1111100101100001
1111101010111110
1111110100111001
11010011101
1101110101
111111010
101100
1111111110000100
10100011001
1111100010011010
1111101000011010
10010001100
10110011101
1111111001101000
1111111000111111
10000101100
111110101
1111100100000000
1111101010011101
1111011111000010
1111101011000110
1111110010101010
1111110100100000
1111011111111111
1100000011
1001001001
1111111100101000
1111110101110000
1111110111011010
1111110000111101
10001011011
110011111100
100101101111
1111110011101110
1111101011101110
1111110010111011
11110101111
1111100001100001
10110000
10100011011
100100001111
1111101100111111
1111100001000001
10010110110
1100100001
1111111111011111
1111110111101111
1111101011111111
1111110110000111
1111100111011110
1111101111100001
1111111000100111
1111111100001000
111011110
1111110110000110
1111110101100010
1111100100000101
1111001111011100
1111101111001010
1111111010010001
1111010101010001
1111110000001001
1111100010100000
1111101101111011
1111111001101011
1111100110001101
1111101010000010
10100011011
1111011101001010
1111100111000101
1111101000101001
1010101100
101100011
1111110100111101
1111110100
1000100
110000100
11011000010
101000011101
11011101
1111110011011110
1111110100111001
1111110111010010
1111011100010001
1111001011111101
1110111101110010
1111101000001100
1111101111010011
1111000000100111
1111010001100010
1111010100100000
100101010
1111011001000101
1101001000
1111100111001100
1111110000000010
1111101111000101
1111101011101111
1010110000
10111
10010001110
10000011000
110011
1111111011111101
11011100001
101101100001
100110000001
1000101011
1111101010000011
1111111000110000
1111111100010010
1111101100111001
1111011111001101
1111110001010000
1111101111011001
1111110111000001
1111100100011010
1111100100000100
1111111110011110
1001001111
1111011110111001
111100111
1111111111010111
1111111101000110
111101010000
1111101000010010
11011110100
1111111011110110
101000110000
1110010
1111011101111111
1111111011001110
10111110101
100110000010
1101011011
10001101011
11101101110
11001000111
1111111100010000
10011
101010100001
1000110101001
11110011010
100010101001
101010011
10110001101
110101110
1111101111001101
1111010010111011
1111111111101100
10001001
1100100
11011011
1001000111
11111110000
10000000010
100100010001
11100100001
101100
10110101
1001010
11011001000
100010010011
11110011001
10000001001
10001011100
1100010100
1111100100101010
111100000111
1110000011000
1000001000011
10100101000
101010001
100111010010
11110111011
1111101111110001
1111110001011111
110111
1111111110100000
1111111010111010
1111111001011000
1111111110100001
1111101101100111
10110110101
100100010101
101011111000
10100011010
11100111110
100011101011
101111111000
11000011110
10100101101
110001101101
110001101100
101010110111
11110011010
101111011100
111001110000
10000111100
10111110001
10101011011
100011011000
100010100000
1111110100111001
1111111100001001
10011000
100001001
110111
101011101
1111110111000111
101100101111
1111110100110010
100111001
10101110010
1111111000110101
10111001010
11101011
1001100000
10110011011
1111111000
101101111010
10101010011
1111101100000100
1111111101011010
11101110011
110000001110
1010010001
1111110110101001
1000101110
1111111010011010
1111110111000001
1111111011111111
111010
1111111110100110
1111111111110011
100111100
100011000
10000011
11110100
10111101
1011001010
100010111
1100101100
11000001001
1111011011011011
1111100010000010
1111111001110011
1111101101001110
1111001011001100
1111011101011011
1111010110000110
11110000
11101100110
10101011110
1111111100110011
1111110010001001
1111110010010100
1111111101000010
1111111010111011
1111111110110011
1111111110110101
1111111110000110
