1111100010110111
1111100010010001
101110110111
1000101111110
1110111110111
1111101011001110
1111111010101
1111001000000111
1111101011011111
10111111000
1111111000000101
1111100101010000
110001101101
1111110010010110
1110111011011110
1111100011100110
1010111100010
1111001010101100
1000110111000
1111100001000010
1111100111100010
11101101100
100100010111
101100100000
1111011101001001
1101000111101
100101011
1110101011000011
1111011010010011
1111001100011000
