1111111011111
1111010111001001
1010110111
111100101100
1110100001010101
100011101111
100100011000
11111011111
1111011001010011
1111000111111100
1111010111001100
1111101110011100
1111010
1111010110011000
1111010111000101
1111101000110011
1111101110001001
1111110010011011
101101011
1010001001
1110000111011010
1000110100111
1100010010011
101111001010
1100111010101
1110010001010
10001000101
1010001000
1111101101110110
111011000011
