11011100001
111011010101
1111100100100111
11111100000
1110110010110001
110110001010
1111100111010110
1011011010000
1111000011111110
1001111110
1111111101100001
1101100
1111110111110111
1000010110
1111111100011111
1111001110011010
1111000001100011
1111111001010010
1111000100010110
1111111110010000
10101110100
1111010011101100
1111111000010111
1111110001011000
10010100000
1111011110111011
1111101101101101
111010111011
1000011111111
101100000001
