1110001011111000
1100011111
11100111011
1111010000010000
11101110010
1010011011001
1110010001111000
1101001
1111001011001101
1111011001011000
10101110010
1111111010100011
1111110111110000
1010111101010
1111101011110101
1000010100001
1110110000110001
1111110011000011
11001010110
1111111011100100
1110011001111000
1000011000
1110111101000111
110000010010
1110101001100101
1111011001010100
1111010110111001
100001110000
100101000
100101101011
