1111000000000001
110111001
11001101111
1111001001100010
1001100011011
1111010011001100
1110111101111010
1111001101011000
1101010101001
1111110000110110
1111011000110101
100111101110
1100000100001
1111111111100101
1111000011100101
10110111010
1111101100011011
1110110100000
1110101010
111011110111
111111101100
1110110110011101
110010101011
1111010010101001
1111000001100111
1001101101000
1110101000
10010100100
1111010000100101
1101101000110100
