1111100101000001
1101110111
1011111
1111000000001111
1111000110000100
1010001001
1110110000111110
10110101011
100010000001
110010010011
10011010111
10000000000
1111000110101111
10011100110
111101010100
1111010011001110
1110101101101001
1110000101
1111011101010000
101101010011
101010101000
1111101110100110
1111001001111110
1111011100001010
10010111
1110100000111110
110010010010
110010100000
1111111001110000
1000100000110
