1111100011100101
1111111001000
1111111010000000
110000010
1111001110010101
110111100010
11000000010
1000001000111
1111000111100100
1110100110011100
1110111101000011
110111010010
10001011000
100111110
1111000010001011
1111011011010011
1111100100011010
111011000011
1110111110101101
1111110000011011
11001011101
1111101110000110
1000110001100
1111001111111000
1111101010001110
1010001011111
1111101010001111
101101010101
110001110001
1001100100100
