111000101100
1111100110101000
1001100100
1000100010001
1111010000011100
1110000110101011
1011000110010
1111010101100000
101011001110
11000101100
10111010010
1111101011001100
1001001
1110101110000101
1010010011
1111010110110110
11101110
100001011
1111111001000110
1010011111110
1111111100111010
1111100010101101
110111100111
1111100001110111
110001100100
11011011100
1100110000010
1110111000100010
1110110111000011
1110011111101110
