1100110000011
1110010111001111
110101010010
100010011100
1011011000
10100101100
1000100110100
100000000010
1111001100111000
1110101011010000
1110110010110110
1111111111010111
1000000010000
10110111000
110011100011
1000010100000
10100001000
1111011000100011
100001011
1111001000011100
1110111010110000
1110101100101101
1000101100011
100110110101
1001000101
10000011011
1110010101001011
1111111100010111
100110111010
10000101001
