1000011110010
1010011011
1111101110100011
110101001001
111101111100
1110001111100100
1101001101001
1110111011100110
110010000000
101010111011
1111101101110111
1111101010001010
10001011000
1110111110010001
1001001001101
1111001110000100
1011111101111
1110100001
110100000
100000001101
1011010101101
1110111110010000
1111101110
1111100101110001
100000111010
11100011101
100010010100
1110111011010010
1111001010100111
1110111001100010
