1101111010
1110011101000011
101101000011
111000111100
1001111110000
10000001
1000101110001
1111100110011110
1111100101110011
1111011010011001
1110111111000000
1111011110110100
11110101001
1110110011
1111011011000101
100101000111
1111101010010100
1111100010110000
110100001000
1111000111001110
1111000001101101
100000010
1000001101100
10101111100
1110010011110000
1010110100000
1111001011011100
110001011
110111011
1111101010011110
