1010001110001
1111000000100
1111110011011101
1111111
1111011110001000
10011111100
1111101110011011
11100111111
1111011101100000
1111001000010111
1111100001100110
111111010101
1000110110101
1111011001101001
1111011011011111
1110111010001100
111100111100
1001110110010
1111001101001111
1111111100101100
101110111110
110000000000
111010111111
1111100010111111
1101111010000
1000000011101
1111100001011010
101101010001
1011010100
11011001001
