110100101100
1110000010001
1111000110110100
1010110011011
1111011111100101
1111101111
110
101000100001
1111110010101011
111000111101
11100101100
1001101001111
1111110011001100
1110110011001101
1111001101101111
1110111101010001
111110111000
1111010010000101
10100110000
1110000
1001101011010
100110000000
1111011010010101
1111001111000101
111101110101
110010011
110010000110
1111110001010101
1111110000010001
1111110110111000
