1110011010000100
10101110010
111001
1111011110000111
1111101000010110
1111010110111010
1110101001111111
10000001
1001010011010
10011010000
11010110111
11011101001
1111100111101100
1111100101010100
1111000000011111
1111110000011110
1110001010110001
1010111010111
1111110000011100
1001011100011
1000101101001
1111000111100000
1111100011010110
1111010111010100
1110011001110010
11001000001
1000110011010
1010011000
1111011000110000
1110100000101000
