1110111011000011
1010000111001
1100100100001
1111111101010001
1001100101111
1111000110110010
1101101001110
1101110110100
110100000011
1111111110110000
111010010101
1110110011111100
100000111010
110000001000
1110111101010000
10101001010
1110101011111001
1110111110001011
10000110011001
1111111101000111
1110010111000000
1111001111101011
1111101001101001
1111010110000101
100101000011
1111010010010100
1111000101111
1110100110010111
101010010001
1000001000100
