1111111111011111
1111111110101011
1110
1000
1001
1111111111101010
1111111111110001
1100
1111111111010111
1111111111010001
1111111111110101
1001
1000
1001011
1111111111001001
10101
1111
1111111111100101
100
0
1111111111101100
10111
11
1001110
1111111111011110
1111111111010001
1111111111111110
1111111111111001
1111111111110110
11001
1111
100111
10101
1111111111011110
1111111111111111
1
10001
1111111111011100
1111111111110011
10101
1111111111110011
1111111111110001
100001
1101
1111111111111110
11100
1111111111010000
10010
1111111111010110
100010
1111111111111110
1111111111001110
1011
1000
110101
1111111111000111
1111111111111010
1111111111011001
1111111111101111
110100
1001
1111111111101100
1111111111100000
1111111111111111
1111111111100010
1100101
101011
100001
10010011
10101101
1010101
1111111111111000
1111111111010001
1111111100101111
1111111100001011
1111111110000111
1111111111111100
11011
1111111111011110
110
1111111111011001
0
101110
1111111111000011
1101
1111111111100100
1111111111110101
10100
100100
10000
11110
1111111111101111
1001010
10110110
1010011010
111001000
1111110001101101
1111101110101011
1111101001000010
1111111010101001
1111111101000110
101100111
1111110110101101
1111111011111110
1111111011011111
1111111111010001
10111100
1110010
1111111110110101
100111
1111111111100010
10110
11010
101
10
1111111111110110
1111111111100010
1111111010110110
1111111010010011
1111111000000111
1111110111111111
1000110101
111010101
1111111011111001
1111101110110000
1111110111001001
10100001
1111110000000011
1000101100
11111010001
1001011001
1001000011
1110011001
1111111001010001
1111110111011101
1111110110011101
1111110111010111
1111111001100100
1111111111011011
1111111111111010
1111111111100101
101010
1111111111110011
1111111111010001
1111111100001000
1111101100100110
1111101110010110
1111111101001001
1111111110011011
100110100
11101100
1111111000110101
1111110011101101
1111111001100001
1000001001
1111110011110100
1111111001110010
111100001
1111111100100100
1111110110111001
11011000
111101101
1111111100010011
1111110000001010
1111110001111110
1111111001010011
11001
1111111111111111
1111111111110010
1111111111101110
1111111101010010
1111111100100000
1111111001001010
1111110010000110
1111111001011010
1110011
1111110111010111
10100101
110011110
1111110001000011
1111111011000110
1111110101000000
1111111011101000
100000000
1111100110111110
1111111110110111
1111110001011001
1111111010110000
111111011
1001101101
10100001011
1111111011100111
1111110000101010
1111111011000001
1111111110011110
1111111110101100
111100
1010
1111111110100111
11000110
1111111011101010
1111101111010010
1111111000001100
1111111010011100
1010000
10001001111
110000001
1111111011000000
101010100
1111101110110010
1111100111001110
1111111001110110
1111111000110111
10001101
10001010101
110111
1111110001100001
111110
1111111100010001
1111111110010001
1111110101000101
1111111001000101
1111111110100111
1111111110101000
11100
1001011
100010
10000010
1111111000011100
1111111000010100
10101000
111110000
1111111011000100
1111101111110001
1111111100000011
10101111
1011110100
1111111001110110
11000101110
1111111000011000
1111111001100100
1111111100000011
1111110001110001
1111110001010010
10010100001
1111111101101111
111001100
100101
1111110010001100
1111110001001110
11101
111
100010
1000010
10001010
1111110110001100
1111110100100100
100001100
1111110101111101
1111110111011101
1111110111111101
100001000
101100101
10110110001
1111101110000101
1111110111101001
1111110110110111
1111110010100111
1111110000
1101010111
10100101
1110000010
1101100010
11100010
1111111000110011
100011101
1111101110011110
1111110010010000
1111111110110011
110
1011
1111
101100
1111110001000001
1000010
10010101100
110000010
111
1111110000011000
1000110100
1111111111011011
1111101111110011
111101
1011001000
1111111100111110
1100010011
10110101010
1001001100
1111101101
1001110100
111001001
1111111000110011
10000000010
1100111110
1111110011101101
1111110001111011
1111111100000100
1111111111110110
1110
110100
10110110
1111111110100111
100110110
110000101
111110000
1111111011011000
1111111000011010
101001011
1111111010101100
100011110
101010110
1111110000001000
1111111001101011
101100100
1111110110011101
1111110110011111
1111111011110110
1100101000
1111111001111010
1111111100001011
11100010
10010111
1111111110101110
1111111000010101
1111111110001010
1001
1001
1111111111000000
1001110
1100011100
101100101
1111111101101100
110000110
1111110111101010
11110001
1111101100011110
1111101101111010
1111111011101011
11001101
1111100101110111
1111110001010111
1111110100101110
1111111010011000
10101100001
1111110100111000
101011000001
1100111
101000100
10101100
100011010
1001000001
1010111
1111111110001101
1111111111100111
1111111111110111
10001
1111100
1101011111
110010010
1111101110100101
11010001
1111111101111100
10110111
1001111001
1111111001000101
1111110001101110
1111111010101000
1111101000100001
1111111011101010
1000000011
1111110111100011
110100100
0
1011011100
11011101
11001000
10000111110
1001100101
1001000000
101101011
101000
1010001
1111111111011100
1111111111000101
111011
1010001101
1010110000
111101
1111111001111110
111101011
110110110
1111110001110001
10110000
1111111101001111
1111110000101100
1111111000110100
1111111000100010
1111101001111111
1111111010100011
1010101100
1111111001110110
10101111010
110110000
1111111011110000
11011100
1010
1001000011
1001110000
1010000
110011
1111111111111000
1111111110011011
1111111100110101
1011000001
10001010100
1110111101
1000101010
11100110010
10010010000
10101010
1111100000010011
1111101011110011
1111100011101011
1111110011111010
11111110
1111110110101110
1111111101100001
1011001101
100110
101010
1111111100010011
1111101011001101
1111110100100111
1111110110000101
1101111110
1111011100
1000001
1111111111001110
1111111111100001
1111111111011011
1111111010110111
100100111
10001011000
100000111111
110110011111
111010100001
110111000100
10111001100
1111110001000100
1111100011111000
1111100011100011
1111101010011111
1111111100111101
1111110101110000
1010100110
1111111111011110
1111111001001001
1011010001
100101100
101101110
1111111000011001
1111111010100101
1110110011
10000100001
1000001011
1100
1111111111110001
1111111111111000
1111111111100111
1111111001001001
10010101010
101010101011
111100100111
1000001110111
1100101000010
1110101000011
1011001000101
101111110110
10000111010
10000100001
1001111111
1111110101100000
1100001000
11110
1111111101000001
1100010
1111110110011101
1101001
1000011011
100010
10010010101
100011001
10011001
1111111111110001
101100
1111111111001100
1111111111000101
1111110100011000
1000100000
101000101110
10101011001
11001001001
1000000010010
1111010101010
10000001001011
10010000111000
1101001000001
110100011010
100000011010
1111011110
1111111111000010
1010000011
10101011
10001010
1111111101101001
1111110010101000
1111111001101000
11110000
1110110001
11101001
1000001
101000
1111111111111110
101
1111111110110010
1111110010011110
1011111
1111111110011110
1011
11101001
1111111111010010
100010100
10010010100
100111000100
11111110111
10101001011
1001100000
10000101010
1111110010001000
10001101110
1111110110100000
1011111011
1111111100011100
11000101
1111110010101110
1111111000101000
101110010
1111111
110000
1111111111101111
111110
11000
111011
1111111110000011
1111111010010101
1111101010010011
1111111000101111
1111110100100001
1111100001000100
1111010110010100
1111100110011100
1111110101000011
1010011
1001000110
11010
100100011
1110101
1111110101101010
1111110010110110
1001111
1111111001101010
1111111110111001
1111101100101000
1111111110001101
110111010
11111110
110010
1111111111101011
101010
1111111111011000
111100111
1111111001110001
1111100101110001
1111100010010100
1111101011001000
1111100010111000
1111100101111110
1111111000010001
1111100011101111
1111101010001100
1111110100010101
1111110101000110
1111111010111001
1011110100
1111010100
10011111010
1111111010000110
100101100
10111
10110010
100100111
1111111110011100
110101010
100000010
101100
1111111111101011
110
1
110101010
1111111011101100
1111110001010111
1111101001010010
1111111001111001
1111111011101111
1111110110010001
1111
1111101000011010
1111100111010110
1111110110110000
1111110010010110
110010000
11011110
1111001110
101000010
1100001001
1001010111
1111111000100111
1111111110100010
1111111100000111
10001100
1001000111
110010100
110
1010
1011
1111111111110101
1111111110011011
1111110011111101
1111101111100111
1111100100011000
1111111001101100
110100101
1111110111011110
10110000
1111110001100111
1111111101000000
10000
1111110010101001
1111111001010110
1010011011
1111111001110110
1111111111100011
11100110
1111111101000110
1111111001100010
11001010
1000000000
11011101
11001100
100111110
1111111111101011
110010
1111111111001010
1111111110111110
1111111110000101
1111111010000100
1111110111001011
1111110001111111
1111110101100000
1111101011000101
1111110100110110
1111110111101110
1111100110111010
1111110011100011
1111111011110100
1111111111000010
1111111110001100
1111111000011010
100000001
10010011
1110010100
10111100000
100001
1111111101001100
1111111101010100
1111111011101111
10011111
1010011
100011
1111111111101001
100101
11010
1111111111011110
10001
1111111101010010
1111110101000101
1111110101110111
1111101111000100
1111110001001101
1111111001001100
1111111001011100
1111111011100101
1111111111000001
1111101100010100
1111110010111001
101101001
1111111011111101
111101
1110010100
1111111101001110
10000001
1111111000101110
1111111001010111
1111111100111001
1111111111011100
11100
1111111111011100
10111
110110
111
1111111111001111
100000
1111111110110011
1111111100000001
1111111001111000
1111111011110011
11010010
1111111011011010
1111110011101011
1111101110111000
1111101111101100
1111110100000001
1111101001100111
1111101011111100
1111101111100001
1111110000101110
1111110100011011
1111111101110100
1111111100001011
1111111011010011
1111111101001111
10110
111100
1000100
1111
1111111111101110
101
11000
111100
1111111111110101
1111111111111011
101000
1111111111100010
1111111111110001
100011
101001
1111111110110000
1111111110111011
1111111101001010
1111111111001100
1111111101100111
1111111111011111
1111111111101010
1111111111101001
1111111101110101
10011
101110
0
1011
100
1111111111110001
1000100
1111
10111
