1111111111011011
1100
1111111111110101
10110
1111111111100101
1111
110101
1111111111111100
10001
1111111111100001
110000
1111111111110100
10100
1111111111010111
100
100
1111111111111100
1111111111100100
1111111111010011
110
1011
1000
1111111110111010
1111111111100000
10101
1000110
1111111111111101
100
1111111111110110
1001
1111111111111010
100100
1000
1111111111100000
1111111110111101
1111111111110110
1111111110101110
1111111111101001
0
1111111111111000
1111111111010110
1111111110100111
1111111111001110
1000
1111111111010110
1111111111101100
1011
1000
1111111111101010
1111111111010110
1111111111110011
1111111111011000
1110
11
110
10001
1111111111000010
1111111111000001
1111111111101010
1001
1111111111010001
11001
1111111111101100
1111111111111101
1111111111011111
1111111111001100
1111111111011010
1111111110101111
1111111101000100
1111111100101010
1111111100010110
1111111010101101
1111111011010010
1111111100110110
1111111101010110
1111111110001111
1111111110111011
1111111111110001
11
1111111111001000
1111111111100111
1101
1111111111111100
111
11010
1111111111011011
11101
1001
1111111111111010
101010
100000
1110100
1111111110101101
1111111011101010
1111111101100111
110001001
11111010
1111111001100010
1111110111101011
1111110101000100
1111111010011100
1111111111100010
1111111000001000
1111110100011100
100
11010110
100110111
100001010
1111111110110110
1011
1111111111100101
1011
1111111111010010
1111111111101001
1111111111100011
110001
100110
110110001
111010011
100010101
1000110000
101111001
110000001
111011110
101010110
1000111111
110001101
11100011
1111110110010111
1111111100000011
1111110101001111
1111110110100111
1111111111000110
1111111111110100
1111111100111001
1111111111100110
100010101
1010
10000
0
1111111111110101
110110
11001
1100110
111110011
1111100001
10001001010
1000001001
1111100
1111111110101011
1111111011011100
1111110010001101
1111111011000110
1111101111111000
1111111100001010
110011011
111111100
1111111011010001
1111110110000111
1111110111110111
11110
1111110101001111
1111101000001110
1111101101000001
1100011
1111111111110011
1111111111101000
1111111111100011
11001
1011111
1111111110111100
1110010
1010100111
1011100110
10111001101
110101111
110111101
1011111101
100010111
1111110101111100
1111111001010101
1111111011101100
1111101001111010
1110001111
111101
100000
1111111001001001
1111101000110010
1111111100001110
1111111001110001
1111101111001010
1111110001000101
1111110101100010
1111111010110111
1111111110111011
1011
1111111111100001
100111
1111111110010011
11011110
1110010010
110100000
1000011100
1111111001000111
1101100
10110100
1111110001010110
1111110000000011
1111101110110011
11101110
1100010
100111011
1111101111100100
100011111
1111111111000111
1111110010111110
1111110100001111
1111101110111001
1111111100010000
100011001
1111110100010100
1111111101000010
111
1000
1111111111010101
1111111111001101
1111111110110100
1111111111111000
1000011100
100000111
1101001111
1100010111
100101011
1111111111001000
110011000
1111111010101110
1111110111100000
1111110011
10111111
1111110110111110
10111000
10101101110
1111111111100110
101000000
1010100110
100001011
1011001111
1010101101
1111111011010001
100111010
1110011
1100
1111111111100011
1111111111100011
1111111100000100
1111111010000110
100110
100011011
1000110100
1111111011111011
1111111000011001
1111111001110011
1111110101001100
1111011011101100
1111100100001100
10010001111
11110001010
110010011
1010010001
100110111110
11111111100
101011000001
101101101100
101001101001
11110010011
11000000111
100110101
110001101
1111111111010101
1111111111111111
1111111111111000
1111111111000101
1111111100000111
1111111000100110
1111111101000011
1111111001011000
1111110111001111
1111110110100011
1111110000110100
1111101101110000
1111110001101100
1111100010100000
1111111011110001
100011010110
111010001101
11011110110
110000011
10010100110
11001000100
11110010011
10011000110
11110100101
100001000101
11011011001
1010010000
11000100
1111111111110111
1111111111000000
1111111111010110
1111111110100001
1111111101011011
1111111110001000
100011110
1111111001110101
1111101100100100
1001100
10110001
1111111011110011
1111101110111001
101110
1001110
11010010101
100001101100
11010110
1111110001101010
1111110100011111
1111111011001011
1111101110000000
1111110110010000
1001001110
1110001000
1111111111110111
100000111
100011101
1110000
1111111111001100
1111111111010111
1000
1111111101111101
100010000
101010100
1111111100010111
1111101101110011
1111111001010011
1111101110000101
1111111010001001
1111100110001101
1111110010111010
10001101100
100101101101
100001011110
10010100001
101111100
10010100
100011011
1001
1111110011011000
11001000
1111111011101111
1111101111110000
1111111101001011
11100110
1000000
1111111111100100
1111111111001111
1111111111010111
1111111111001100
11100000
11000000
1111110110000011
1111110110000110
1111110100100111
1111111101110110
1100000100
1111110100100010
11000001
1000001001
10001111001
10111010000
10000001001
1100000110
10101110
10101010110
1111111101001111
1111111101000010
11011010
1100011
1111111000001001
1111111000111100
10111101
101011
1111111111011011
1111111111101010
1111111111110101
1111111111111111
1111111111100011
1111111101100000
1111110110001100
1111110110101110
1111111110000001
1111111000111101
111111
1111111011010000
1110100110
10000010011
11100000011
10001001110
110111101
1001010
110010110
1111110101110100
1111111011100000
1111110010001101
1011110111
1111101110010000
1111110101100111
1111111100010100
10100110
100011
1111111111110110
1111111111111100
1110
1111111111100101
1111111100101111
1111111000011101
1111110011001011
1111110111001011
100010000
1100010110
1011111100
100000100
1010010010
1111110111101010
1010000001
11110000011
100001011010
1001000110
1001000001
1111111111001100
1111110111011000
1111111110110000
1111110100100000
1111111100011100
1111110110111011
10100001
11101100
1111111
111011
111
101010
101000
1111111100101011
1111111101010001
1111110110110110
1111111101111100
1111111110000011
1000001001
111000101
1111111100000100
1100110
1111111100111011
10111011000
11010100000
11000110010
1001011011
1100010
1000010000
100100101
10010100000
1111110011100001
1111110111100000
1111111011011001
110111011
10101101
1101000
1111111111100111
1111111111100111
1111111111110000
110000
1111111110001000
1111111111101001
1111111001110101
1111111010011100
10111100
111001110
1111111111011010
1111111100001100
1010110
100010
10101100110
11001100011
11100000001
10111000001
1111111110000100
1111101100111111
10110
1000011000
1000110
1111111000010000
101011101
101111101
1111111110101111
111000
110011
1111111111101000
1111111111110000
1000111
11010000
101
10010011
1111111011011001
1111111010100000
1010101101
10100110
1001101001
1101010110
1000100011
11000101101
11011001101
101000001101
1100100010
1111110101010100
1111111001101110
1111110111110110
1111110111111110
1111111101000010
1111111110010110
110010110
101011010
1111111110000010
100110
10000
1111111111111011
101011
1111111100001100
10110
11110110
111011111
1111111111001111
1111111111011001
110010010
1010001
101111101
1111111100011010
1010101010
11110011110
10100011000
11000001011
111110
1111110101010001
1111111001001100
1010011
1111110111100100
110
1111111111101000
101100000
1111111101001110
1111111101001101
0
110000
1111111111101110
1000
1111111101010111
1111111100101011
100000
1111111101100001
1010101001
10100010011
100110001
1111111100001000
1011001001
100101110
1011011000
100011001
1111111110111101
0
1111110010011000
1111111100101110
1000111001
100100
1010101000
10000000000
1111111100111111
1111111110100110
1111111001001000
1111111011111011
1111111110111111
100011
1111111111000100
10000
1111111111100100
1111111101000001
1111111110110000
1111110010111011
10100010
11100110
1111111000111000
101010000
1111110001101101
1111111010111101
1111110110111001
1111110101010110
1111111010001000
1111110100110110
1111110111010101
11111101
1111101111000001
1111110111011000
1111110101111100
1111110111111010
1111110011110011
1111110100001101
1111110010101100
1111111000111100
1111111111101111
1111111111100011
1101
10001
101
1111111101111100
1100111
1111111100000100
1011110000
1111000101
101101111
11100101
1111111111000010
10000010
1111110110111110
1111111100001110
1111110100001111
1111110111101011
1111111110101111
1111111001000111
1111101100001110
1111111011000110
1011
1111111010111110
1111110110101010
1111110000011011
1111111000111011
1111111010110001
1111111111101001
1111111111011001
1111111111111011
11001
1010011
1111111111011001
1111111110111001
1111111010001111
1111111011100011
1001110
1111111111101111
1010100101
1000010110
1101011010
1111110101101111
1111110001010100
1111101100001110
1111111011000111
1111111001110101
1111110001100100
1111111110000000
1111101111011111
1111101101011100
1111110101110100
1111111100111010
1111110110011000
1111111001101110
1111111100000111
1110
1111111111001010
1111111111011101
1111111111111100
1
1001111
1011110
1111111100011010
1001010
10001101
10011111
11011110
1111111110111101
1000000111
1111111010111010
1111111100000101
11101100
1111110111111000
1111111000000110
1111101000111111
1111110010001100
1111110011110100
1111110011110101
1111111001010111
1111111010000111
1111111101100100
1111111101101100
1111111111011000
11000
10101
11101
1111111111101111
11100
0
1101001
100101101
100110100
110100011
11100111
10100010
10000011000
10001001
1111111001100101
1111111011011001
1101111
101010001
1111111111101000
1111110000000000
1111101011001000
1111101110111111
1111111000010001
1111111010011000
1111111010111101
1111111100000111
1111111101100100
1111111111100101
1111111111110011
111
1111111111101010
1111111111111000
1010000
1111111111001000
1111111111111011
100011
1010
101
1111111101011000
1111111100001111
1111111111111111
1111111001100000
1111110110001001
1111111000110001
1111110110101101
1111110100010011
1111110100101010
1111111001100011
1111111000011001
1111110101000011
1111111010101000
1111111100110011
1100
10001
1010
101
11010
1111111111101100
10000
1000
100111
1111111111101001
1111111111100001
10111
11101
1111111111001001
10110
1111111110111111
1111111110000010
1111111110111101
1111111101101010
1111111101110100
1111111110100000
1111111111010010
1111111110100101
1111111111111101
1111111111111110
1111111111000100
1111111110100101
110
10110
101001
101001
1111111110111001
1111111111101011
1010
