1110
1111111111111011
10001
1111111111010110
11110
1111111111101100
10110
1010
1111111111100111
1010
101101
11010
0
1111111111101000
1000
101000
1111111111110000
100010
1010
1111111111001111
1111111111011101
1111111111110011
100011
1111111110111000
101100
0
1111111110110110
110000
10
1111111111001101
1111111111101101
100100
11
1111111111011001
1111111110010100
1111111110000010
1111111101101110
1111111111101110
1111111111001001
1111111101010111
1111111010110111
1111111101001001
1111111110100001
1111111110111110
1111111101111110
1111111111111010
1110
1111111110110101
1111111110111010
11011
1111111111001011
10
11101
11010
1111111111110010
1111111111011111
1010
10000
0
1111111111110011
1111111111100010
11000
1111111111011001
1111111100000011
1111111011001110
1111111011011001
1111111001110000
1111110110111100
1111110100100000
1111111001101101
1111110110101010
1111111001000101
1111111001100001
1111111100100111
1111111110100100
1111111111000101
1111111111000100
1111111111101111
1111111110100101
1111111110001110
1111111111000111
1111111111101010
1111
1111111111010000
1111111111111011
1111111111101011
1111111111110011
1111111111111101
100010
1101
1111111100011000
1111111011010000
1111111010100001
1111110111011011
1111110101110011
1111110100100101
1111110111011111
1111110001000000
1111100101101110
1111100001111111
1111100010110100
1111110010111011
1111111111101010
1111111001101100
1111111101111010
10001
1111111111000110
1111111111000000
1111111110111111
10100
1111111110010010
101100
1111111111110000
1000001
1111111111000110
1111111111110111
110
10011111
1111111110111101
1111111110111011
101011001
1010
1111111101010110
1111111110010011
1111111110101010
1000100100
1111110111110101
1111100000001100
1111010110000100
1111011011010010
1111101101110011
1111110100001111
1111111100001110
10010001
100100010
100001
11011
10101
1111111111011010
1111111111111010
101111
11001
10001
11101
11101000
111000011
10100100
101011110
101100011
1111111011101110
1111111011100010
1111111111110010
1111110100011011
1011011
1111100110111010
1111110110010100
1111100010000001
1111010001010110
1111100010011000
1111110100101110
111
1111111110100111
1111111111000010
110101
101010
10010
10011
1010
1111111111001110
1
1111111111011010
10111100
1100100
1111111011111100
111111110
1000011
100
101101001
1010110011
101000001
1111111101010100
1111110100101001
1111111011011101
1100111111
10100011100
1111101100110000
1111110000101111
1111101110100111
1111111111110000
1100000
1111110010000000
1111111001011100
1111111111101101
1001000
1111111111111111
1
10000
1111111111010111
1111111111101010
101001
11101
1111110001110110
1111111110011000
1111110100110011
1111101111111100
1111111101000100
1111110000101010
1111110111000100
1010111011
10000000001
10010110110
1011001000
1111110100101110
1111101110011000
1111011111110011
1111100101001111
1111110100001110
1111111010100110
1111111010110101
1111111111111011
1111111011111010
1001010
1010000
100111
110110
1100011
111010
1111111011011011
1111111111010110
1111110110010011
1111110101100001
1111110100010010
101010111
101000111
1000011001
100110100
101101
10101100011
11000000001
1111111011101100
1111011010110010
1111111000111010
1111101010000110
1111100010010100
1111111101111110
111110100
1111111100100111
1111111111110111
1111111001010000
1111111011111000
1111100
111
10001
1010111
1111111110010110
111101
1000011011
1111111110101001
1111111010101010
1111111001101000
10010101
1111111011110011
11000110
1000000101
11011101
111100011
10100101011
1111111011101001
1111100000010011
1111111101100101
1111111110111001
1111110101100000
1110101
1111000001
10000000
1111111010100000
1111110000011001
1111111001001101
100010110
100001001
1111111111100011
1101
1111111101111100
1111111011011100
110001
100101001
100100110
1000101100
11010101
1111111011000000
1111111001100110
1111111111001111
1111011
1101111011
1101010000
1111111010101101
1111101111001000
1111100111100011
1111100011001111
1000
1000111011
1010101000
100010111
1111111101000010
1111101011110101
1111111000111101
1111111111011110
11011
1101
11000
111111
1111111010111010
1111111111111010
101100111
1100111011
10111100111
100010101
111101001
111101110
111001011
1111111011100001
1110010110
10101101111
1111110001011000
1111010111000110
1111101101110000
1111101101110110
10010001
10010110111
1101001010
1000110001
1111110110000010
1111011110001011
1111110100110100
1111111100011011
1111111111101110
10000
1001
11101
1111111010010011
10000110111
1111110111
1010101010
1010011011
1100101011
1011001
1111111010011010
1111111000011101
101000
10101100
110101010
10111110
1111110110100010
1111110001010000
1000111010
1110000
1011000000
11011010
1111101100
1111110100101001
1111100111011000
10000
10110110
1011000
1111111111000000
100
10010101
1111111100001101
11000011100
10110100010
11100010
111100001
1101001
1010110
10010100
1111110000011001
101100110
1111111000100101
1100101111
1111111001100001
1111110010101110
1110000101
10100100001
11101
11110101000
100111010
1111111101010010
1111101010101010
1111101110100111
1111111101101011
1111100
101000
1111111111011101
10
1001101
10100101
10000011011
1010100101
10011011
1111110101101100
1001011010
1111111011010001
10010011
1111100111100010
1111110111001111
1111111010111100
101000011
1111101001000011
1111101111110100
10011111
1100000111
11100101000
1011110110
1111111101111001
1111111001010000
1111101101110000
1111101001110101
1111111111010110
111111
1111111111100000
100010
1111111111100011
1
1010110
1100001
101010010
100100101
1111110111100011
11011111
10100011
1111111110100110
1111101111101011
111010100
1100101111
1010010111
1111101001110000
1111111111001111
11111010100
110110101
11000000101
100010100
1010
1101100110
1111101011100010
1111101110111001
1111111111101100
11000110
1111111111110100
10
1111111111101010
1111111111111010
1111111101100110
1111111111101000
1011010
1011100110
10001100110
10101100101
1111111101111110
1111110100110000
1111110111010100
1100110
1111111001110111
11010101
1111110010100110
1101111
1100100110
1010111100
11100110
101010001
1000001100
1111000001
1111110000000101
1111110010000101
1111111100010001
11001011
110000
1111111111010000
0
1000
1111111101010010
100011100
1111111011110111
10101110100
10001111000
111000010
10110
1111111010100011
1111100010011101
1111111011110010
1111100111101100
1010100001
1010011110
1111111011001111
110100110
110100
1111110011011010
1111101001111111
1111110110100101
1111110100010010
1111110011010110
1111101011111001
1111111100001110
1001010
1010
1101
1111111110111100
1111111111110111
1111111110000100
111100111
1111110011001010
110000
111110100
101100011
11111001
1111110111001001
1111011110111001
1111001101100100
1111100111011001
10000101011
11011100
1111101110011111
1111111000010010
1111101110001110
1111101111110110
1111101100100011
1111101111110111
1111101000111100
1111101111101011
1111101110111110
1111111101101010
1000011
10010
100
11101
1111111110011110
1111111100011000
100100000
1111110100011001
1111110101000011
1111111111111100
1000000011
1111110010001110
1111011110111011
1111100100100101
1111101101111010
1111111000000101
10110101111
1101001000
11111001
1111111001100001
1111110100110100
10010000101
1111110001011100
1111101111100000
1111100110010100
1111111100111010
1111111100100010
1111111101111100
110011
100010
11000
100011
1010
1111111100001000
1111
1111110111010111
1111110010010100
1111110001011100
1111110110010000
1111101000000010
1111011100001101
1111101110110100
1111111011101011
1011100100
11100000100
1110010110
10101110110
10101100010
1000111110
101011001
1111111011100000
1111110110000110
1111110011111101
11010001
1001110011
1010101
101101
10001
1111111111000101
1111111111101011
10011
1111111100100110
1111111100111011
1111110110010110
1111110001000001
1111100100001100
1111101010100001
1111101010100010
1111101100001011
1111101100001000
101111000
10101001
1110111101
110100010
1110001101
1111111011110101
1111111110100110
110011111
1010
1111110111000011
1111110110100000
10000100
1000101100
10110111
1111111110111110
1111111111110111
1111111111110001
100000
111
1111111010110001
1111111100000001
1111111000011011
1111110010100111
1111100111101011
1111100111101101
1111101100011100
1111111001011000
1111111100101101
1110010100
1000101111
1111111111011011
1111111110101110
1111111000100010
1111111101110101
101100000
1011000
1000110101
1111110110110100
1111111111101001
1101100
100100001
1101010
1111111111100111
110
101110
1101
1111111111110001
1111111101011110
1111111110101100
1111111011001010
1111110101110010
1111101001010001
1111011100001010
1111101011001010
1111110000100001
1111101011110100
1111101111
10111000
111110011
10000000111
1111110010110010
1001
1111111101011001
110011000
1111111110100101
10000
1000000
1111111001100101
1111111111001110
1111111111011100
1010
1100
1111111111001110
1111111111111010
101000
1111111111101000
10101100
111
1111111011001100
1111110110010100
1111110100100100
1111110101101100
1111110101110010
1111111100101110
1111110110001001
1111110011100010
1111111101011011
1001010100
1111111000011110
1000101100
110001111
110110001
10010001001
1010010111
100011111
1111111010011100
1111111010100110
1011
1111111111000011
1111111110110110
1111111111110110
1111111111100101
1111111111011010
10100
1
10011111
1100000
111001
1101011
10110011
1111111100100000
1111111011000110
1110011
101001
11011010111
10000011100
1001000110
110011101
101001111
1010110111
10001100000
1001100000
10101111
1111111001111011
1111111100000001
1111111111011000
1111111111010001
101001
110010
100000
10011
101
1111111111101010
1100
11010111
111111011
1010010000
1001100101
100101011
1111111010110101
1111111001010101
1111111111011001
10110001111
10010110110
1001100000
1000011110
110100100
100001011
111010000
1100001110
111011011
100101
10000
1111111111101100
1011
101001
1111111111010010
1111111111111010
100
110
1111111111011001
11101
101111
1111100
10010011
110011
10100100
10000000
1000110
10010001
10011110
11011000
1000001
10001010
101001101
100000010
1001100
10101100
10101111
1111111111100001
10100
1111111111101001
1111111111111011
11000
