1011
1111111111100100
1111111111001100
1111111111110000
1111111111101111
1111111111111110
11110
1111111111000101
0
1111111111110011
1111111111010110
1111111111010011
1111111111111001
1111111110110111
1111111111000111
1111111111111111
11011
110111
10110
1111111111001101
1110
101010
100110
1111111111111100
10010
1111111111011010
1000100
10001
111
1111111111111110
1010
11101
1111111111110001
1111111111110110
1111111111101110
1111111111100110
1111111111100110
1011
1111111111001100
1111111111100110
1111111111110001
100
1111111111111110
1111111111001001
1111111110011000
1111111111010110
10011
1111111111010111
1111111110110101
1111111110111110
1111111111011011
100111
0
10101
1111111111100110
110011
1110
11100
10110
1111111111101010
1111111111010111
1111111111011111
1111111111100100
1111111111101011
1111111111110101
1111111111000011
1001110
1111010
1010010
1110011
1110101
1011011
1111000
111100
10101
1111111111010001
1111111101110000
1111111011111010
1111111111101110
1111111110111110
1111111111100011
1111111111110110
11001
1111111111110100
100001
11000
11111
111
101
100011
110
10100
1111111111111000
1011000
110100
1111111111111101
1111111100010010
110000010
1100110110
1001101101
1100100011
1110010000
1000010101
1010001
1111111101011010
1111111111010101
10011
10011010
10100111
1111111100110011
1111111111110000
1111111111011111
1111111111011100
1111111110111010
1111
11100
1111111111110101
1111111111001001
1100100
100010011
1110101
101001100
110101010
1001010
11111011
1100010110
1110001101
1111001101
1010001110
1011101010
11111101
1111111100000010
1111111110000011
1011101
101111001
1111111010111101
1111111110000111
1111111111000100
111
101000
1111111111011011
10010
1111111110010010
1111111111110111
1111111100000110
1111111010000001
10100000
100011001
100111110
1000010001
10110100110
10101010000
11010010010
11010100110
11010101101
10101001111
11000101010
100001010001
101000011001
100100110001
10000111100
1001111011
100000011
1101011
1111111111011100
1111111111010011
1111111110111011
11111
1111111111100011
1111111111111000
1000100
100111
1111111011101000
1111111001001010
10100010
111100100
10010001010
110110001
100110111
1111111011101001
10110100
100100000
1000011111
11111100000
101100101101
11001100001
10000100010
10001010010
10000010011
1111011110
1100111111
10000101011
1111110100011100
1111111101101101
1111111100000001
1111111111001001
10001
100111
1111111111011101
1111111101001111
1111111101000010
11111110
1111111110001110
1111111111001100
1100001011
1011100000
1111110111011010
110001100
1111110101011111
10101100
1111111001010101
1111111001000010
1111101111011101
1111110101101010
1111101110110010
1111111101010010
1111101101110111
1111110110001010
1111111100111010
100010011
100010100
101001010
1111111110011000
0
1010111
1111111111000010
1111111111000101
1111111111111101
100001010
110100110
100110000
1000101
1111111010000110
1111111001001100
111101111
11000000
10010000
1100011000
1010000
1111110010111100
1111011111100101
1111010111101101
1111101001111101
1111111010001111
1111101010001100
1111101111101011
1111110011000001
1111111111010111
100101100
11101110
100001000
1111111111010000
1100
1111111101001100
1011
1111111111110101
1111111110100001
10000100
1111110111000000
11001110
110100101
100000011
1110011110
0
1111110110011111
1111110100110011
1111011101100001
1111011100011011
1111010011110000
1111010101110011
1111011110100100
1111101001100001
1111111001111100
1111111001001010
1111110111000010
1110100011
1111111001111011
1111110110111100
1111111000111101
1111111010000111
1111111111010000
1111111101100010
1111111100111000
1111111100000011
1111111011010001
111001001
1111111101001010
100001100
110111111
11100011
1111110100101111
1111110110101101
1000110110
1111101101100110
1111110110000011
1111101100100010
1111100001010101
1111110001011100
1111101001100110
1111101001001100
1111101100000000
1111011111001001
1111100111011111
1111110111000010
1111101101011001
1111101000011111
1111111000011101
1111111110111000
110101
1111111111010011
1111110111110000
1111110110110010
1111111001110101
10011111
1000000001
1111111011000110
1111111110010100
110101000
110111111
1111101000001001
10011100111
1000101010
101111100
1111110110000110
1101101011
10010101001
1010011100
111000011
1111111010011010
1111011101110111
1111100010111100
1111101000101001
1111110000010100
1111111000000100
1111111110100100
1111111111010011
11000
1111111110010001
1111111100010111
1111110111100011
1111110100010001
1111111011000111
1100011
1111101101011011
1111111110011110
1111111110000010
1111111110011000
1111111010100001
1100000011
10101010
1111110000101011
1111111001110101
11110011011
11011010011
1110100011
101001111
1101010001
1100010001
1011001101
1110000110
1110100011
11
1111111101110101
1111111111111101
110
1111111111000010
1111111100010010
1111111110111001
1111111101000101
1111110000111000
1111110001111101
1111111100010010
1010011000
111100
1111111100001101
1011111010
1111111110000101
1111111001010101
1111101011101101
1001001000
1010001101
11000000111
1110110101
10110101010
10000001001
1111110111010100
1010001001
10101001101
1011010011
1111111111010101
1111111111100010
1010001
1111111111100101
1111111111111111
1111111011101111
1111111101100010
1111111101000010
1111110111000011
1111110110001011
101110010
10000001011
101011101
1111111100110001
1101000100
1100011101
1001010101
111001111
10010001011
1001000110
10000101110
101001100
1001000001
1111111111100111
1111111101101101
101101011
100110010
1011011111
101100100
10010010
0
1111111111011110
10110
1111111111010010
10011101
1111111101111101
1111111110100000
1111110110101011
1111111011001001
110010010
101101001
100011010
101000001
100100110
1011101101
1000011101
100111001
10101101111
10001011
1111101110011111
1111111111111101
1101010000
101100
1010011001
1111000101
11000110110
1101101001
101100110
10101010
1110
111011
1111111111100011
1000000000
111100101
1111111100010000
11000
110011011
1111110001011011
1111111010000110
1111111111110110
1110101001
1000001001
1111110011
11010011011
10101111110
1111111111011011
1000110001
101011101
1100110110
11101100001
10011110001
10011000110
10111011111
11000011001
1100000111
111010
10110
1111111111111010
101000
1001101
1001100010
10001111101
1111111111111000
100010101
1111111111110100
1111110110001001
1111110111110000
1111110110110010
11011011
11000011
10101010001
1111110010
1111111011101100
1111101111111100
1111110000001110
1000101
1001110001
1111110110110101
110111100
1111111000111010
1001110
1000110110
100
1111111100110100
110001
1111111110111111
110101
1001000
1101111010
10011001110
111111100
11000100000
110101
10111
1111111111101101
1110111001
1010110111
1111111010101100
1111101101000101
1111110101100101
1111111111101001
101000010
1111111010000101
1010010010
11011001
1111111110101001
10110010111
110000001
1101011100
1100001100
1111111111001000
1111111101110110
110011
1111111111011110
11011
1111111111001100
10001000100
10110101101
1000001001
1000010110
1111111101110000
1111110000111100
100010100
1111110111111000
1111111100011000
1111110100001100
1111110110000011
101000010
1011110001
11000001010
1111111110101110
1111111111001010
11000000
1010101100
1101000100
1001000101
1011111001
100000111
1111111101110101
110100
1011
1111111111001100
0
1110010
10010100110
100101011000
10110011000
1000001
100111111
1111111110000001
1111111010010100
101011
1111111000001110
1111111010001011
110010111
1111011110
1100100110
1110100101
110111100
10100110001
1110000100
10100001101
1110011010
1001011100
101001111
110101
1111111101001110
1100
1111111111011100
10101
10100
10010000
1100001001
10101001000
1101111011
101110111
1001111011
10010101011
1111111011100110
1111111010000001
1001111000
1111110010101000
11001111
1111111010000001
111000000
11110101111
111101111
1110111
110001101
1111111110110010
100011100
1001100001
11111111
1111111111110011
1111111111100010
1111111111010100
1111111111111001
1010
10101
1000000
1101111
1101001
10010000
1001001001
1011000
100110001
1111111011111101
1111111110001010
1100111100
1111110010110010
10101
1111110000110010
1111111110100101
1011110101
1111111001101000
11001001
1101010111
10100
1111101
1111000
1111111110011110
1111111101010100
1111111111110000
1111111111001101
1111111111100100
11000
10011
1111011
11000
1111111101111001
1111111100111101
1100011100
1111010
11111010
1111110001001100
100001001
110001
10010111
1011111111
10000011111
111111011
1111111110010000
1101100011
10111001110
1111011010
111101100
111100100
1000110
10010
1111111101001101
110011
1111111111010000
10011
110101
110110
1111111111111111
111100
101101100
1111111010011001
10000000110
1000001111
110110011
10001001010
10010011010
1111111100101111
100000110
100010000
1111100010
1111111100001001
101001
1010001
10000101001
1111111110
11111000
101000100
1110001
1111111101111000
1111111100110110
1000010
10110
1111111111101100
100001
10010
110100
11101
10011100
111010
1001101001
1111111110100011
1111110110010001
1111111010101101
1101001101
1111111001010001
1111101001100100
1111101000100111
1111110111111110
1111110111001110
1111101111100001
1111110111101110
1111111111111000
1111111110111011
1111111001100100
1111111001110011
1111111011100110
1111111101111010
1111111100110110
10100
1111111111011101
100010
1111111111100110
10001
1111111111110001
1111111111100110
1111111111110101
110000
1111111110111011
1111111110100010
1111111100111011
1111111110010011
11010110
1111111100100100
1111111010101111
1111110011110101
1111110111000010
1111110101000000
1111110101110001
1111110100100000
1111110101011011
1111110001001110
1111110101110001
1111111011111011
1111111100101111
11000
1001
1010
11001
0
1111111111010001
101110
100111
1111111111100110
11010
1111111111101010
1111111111010111
1111111110011101
1111111110011011
1111111110110101
1111111011010000
1111111101010000
1111111101110111
1111111101011011
1111111101110001
101001
1111111101111001
1111111111001001
1111111111001000
1111111101011111
1111111111110010
10111
1111111111110000
0
101111
1111111111111001
100
1111111111110100
