1111111111001010
101
1111111111101110
1111111111110001
110
1101
11101
1111111111111101
0
10001
11110
1111111111111010
1111111111001000
100001
1111111111110000
10111
1111111111111100
1111111111111110
11000
1000100
11
1111111111101101
1111111111010110
1111111111110111
1111111111011101
1111111111010010
1111111111110100
1111111111110001
1111111111110101
111010
1111111111100011
1111111111001101
100111
1101
1111111111111001
1111111111110011
1111111111111111
101011
100000
1111111111010110
1011010
101010
110000
1011110
1000011
1100101
11010
10
10000
1100
11000
1111111111011101
111000
111
101010
10100
111010
1111111111111111
1111111110111110
1111111111001100
1111111110111110
1111111111101011
110000
1011001
1110111
110101
100
11101
11111
111011
11001111
101011
110001
10000010
1011
100011
1111111110000001
1010
10001101
11000
1111111111101011
1111111111101010
1111111111101101
10
10111
111
1111111111011101
1111111110111101
11000
1111111110101110
1111111111000010
1111111111011001
1111111110101000
1111111011111110
10000011
10000110
1111111101101000
1111111101100110
1111111011001111
1111110111001100
1111111011000010
1111111011100100
1111110111011001
10101000
100010000
11110001
1111001
1111111111110011
1011
110010
1111111111110101
1111111111100110
11010
1111111111111100
1111111111101100
1111
1111111111111011
1111111110011011
1111111111000011
1111111111000101
1110100
111100100
1001011000
1010100001
1100110101
10100101
1111111011111001
1111111010111010
1000100
1111111111000111
1111111110001000
1000111110
10000001001
1011001001
100101110
11011110
1111111111011101
1111111101100110
1111111111010111
1111111111100100
11001
11001
1111111111011010
1111111111111000
100101
110101001
111000011
1011110011
1101101011
10100011111
11010000101
1110001011
1111111000001101
1111100000010000
1111011100011011
1111010010110110
1111101001110011
1001001001
1101101111
1111101000
1100001001
10010111
1111111011100001
110101001
1100000
1111111101111010
1111111110100011
11001
1010
101110
1111111111111100
1001000
100010110
1111010111
1100010111
10110100001
1011101010
1111000011
1111111011110001
1111111001101010
1111110011010101
1111010011111010
1110111010100001
1111000011010110
1111111001001011
101111101
101110010
1000111
1111111
10000110000
1111111101011111
1001010101
11101100
1101011
10001010
1111111111110010
10101
1111111111101001
1001
11111000
1010101
110011100
110110111
10100010111
1010011
10110110000
10010010
1111000111
1111111101110110
1111010100111110
1111000001111110
1111101100000111
1100111110
1110001001
1110011100
11001100100
111010011
110011111
11110101
1001101100
11011111
1110111
111101000
1100
11000
1101001
10011001
100101100
1000001
1000010000
100001
1110110010
10010101110
10001000010
11000111010
11000101000
1111111111001101
1111101000111110
1111001001011001
1111101110101010
11111011
10000010010
1010101111
110100110
10000
10111001
101001100
101010101
1011111111
1100100110
1111111111011110
1111111110110001
1111111111111000
1110010
1101101
101000
111110001
10000011
100111010
1100
1000011100
1111100011
100001100111
10011011011
1111111101100110
1111001100010010
1111000100110110
111100100
100101111101
1000011010
101010110
1111111000001101
10001110110
1111000001
1111110101000110
1111111000010111
1001011010
1001111
1111111101100010
1111111111101001
11101
111110
1111100
100011
111101000
111100011
1111110101011100
1111111010011001
1011010101
1010011001
11001000111
11110101000
1111111010001000
1110101010000010
1110110111101001
1101010111
10100000
10010110101
1111111010110111
1111111000010001
1111111100001011
11111001
1111111010100010
1111110000011110
1101010
100000000
1111111111001010
1111111111101011
11010
101110
1110011
10010111
1111111110011111
10
10111101
1111111010001100
1000001
1001101001
11101001111
11001101100
1111101110100101
1110111010000101
1111011010100010
1111111010000000
10010001100
1111110111001010
110010010
1111100101011011
1111110110001110
101110111
1111110111101110
1111110011010001
1111111000101101
1110101
1111111101111100
1000001
101111
1000011
10100010
1000000
1111110000010011
1111111100000000
10001110001
11010110
110001001
1001101100
11101101110
11010000101
1111100110011000
1111010101110001
1111101011101100
1111101001
101110111
1010001
10010101001
1111101110011001
1100010010
1010011111
1111111110000110
1111111001101010
1111111100101100
110100
1111111111110100
1111111111110101
1111111111101000
10000
101110
1111111111111000
1111111000000111
100100011
10101100011
10001101111
10100000110
11111000
101000011
1111111100111110
1111011110000001
1111101010101100
1111111110000001
1000
1111110000001110
101010100
1100000000
1111111000001100
1000011
10001100
1101110001
1011110111
1010000000
110100
1111111101111011
1111111110100110
100001
1111111111011001
110110
1111001
100111111
10101100010
1111111011110000
1101000100
1000100001
10010000111
1111111001110000
1111111101111110
1111101111010101
1111101011010000
1111110001011011
1111111110011011
1111110001110110
1111111111001100
1110011101
110110000
1001
100001
10011110011
1111100110
10111011011
1111111010111011
1111111101111011
11100
1111111111010110
1111111111001011
11110100
110010001
101000001
1111001001
1011011100
10000001010
1111111101101011
100110111
11100
1111101011010001
1111110011100100
100101101
1111110111100000
1111111011000011
1111111111011001
101000
1111111110010001
1111101110111000
1111110101111101
1000111101
1011101100
1101011001
1111111101111010
1111110110101111
1111111101000011
1111111111111110
1111111111001100
1111111111101111
1000100
10000
1111110011100010
1000110
1111110010
1001111110
111100100
1011111
1111110110100001
1111101101110001
1111111100101010
1111110101000011
1111111100010101
1111111100011111
1111110110111010
1111101100010100
1111111110100011
1111111011011000
10001010
10110000100
101010100
1111111101101111
1111111001101000
1111111101010000
1111111011100010
1111111111110101
1111111111110110
1111111111010101
10
1111111000110000
1111111000101100
1111111111110101
1111111110001000
1111101110001010
1111111001000011
1111110111101001
1111101010110101
1111101011101111
1111101010001100
1111100111001011
1111111100111111
1111110000101100
1111111000011010
1111110011111110
1111111101100110
1111110011010101
1100101100
10101111010
1010110000
1000011000
100111010
1111111110110111
1111111110011010
1111111110111111
100100
1111111111101110
1111111111010001
1111111000010101
1111110110000110
1111111010000110
1111110011000110
1111110101101100
1111111100010000
10010100111
1111111111111100
1111111101000010
1111110111110001
1111110110011000
1001001111
1111110000111100
1111110011101111
1111110111110100
1111110110001010
1010110
10001011100
10001110000
1011000101
1101101
100111101
1111111101011111
1111111111010110
110100
11001
10100
1111111111100110
1111111110001101
1111110101010000
1111111011110011
1111111101010101
1111111110101011
1111110111110010
1111111010011000
10100101
1111111110000111
1111101110011111
1111101111010011
1100010110
1111111000000000
1111101101101101
1000000111
1111101110001101
1001101
10110101100
10110100001
101110011
1111110001011100
1111111010000100
1111111011111010
1111111111001011
0
1111
1111111111100011
1111111111011000
1111111110001010
1111111000111010
1111101101101111
1111110111111110
1111110101010010
1111110101010001
1111111010111101
1111110100100011
1111101011010101
1000101100
10111111010
100000000
1101000110
10111101
10110011000
1110110
110011101
10101110
1111110111111000
1111111100001001
1111101001111111
1111110001011011
1111111011011000
1111111111100110
1111111111001111
1111111111101100
1111111111110110
1111111111000100
1010001
1001100
1111111101101110
1111111100101001
1111110101110101
1101101
1111111001111110
1111110001001011
1010011
1111111100110100
110010101
1111111100010011
11010100
1111111011111010
10000010001
100101000
1000101100
10010000100
101001010
1111111111110010
1111110000101001
1111110010010101
1111111101011010
10001
1111111111101011
10
1001100
1111111111001110
101111
110000
100010010
10010000
1111110101001011
1111111101101010
10010000
1111110001101011
1111110001011001
1111100101001110
110100110
100001110
1011010
1111111101100100
1111110101100111
111001111
10100010001
100100101
10110010
1111111010110110
1111101111100001
1111110000100011
1111111010110010
100001
1111111110101101
1010
1111111111101011
1111111110011110
11000
1001010
101101101
10011101
1111111111011100
1111110100101000
1111110100110011
1101011
1111110100111110
1111111010111000
110010110
1100101
1111111011110000
100010100
1000101
1101100011
1101110111
11010001
1111111000110000
1111101010001101
1111101111100100
1111110100000011
1111111101010111
1111111111110011
100010
110000
100111
1111111111101001
1111111111010111
1111111111011111
100011010
11100110
100001001
1111111001000010
1111101111010000
1111111110111010
1111111100010100
1111111001110000
10101011110
1000011
1011010
10000010011
1110111011
1111111110110011
1111111110101111
1111110000111000
1111110110100101
1111101101001111
1111110001110000
1111111011110101
1111111110001100
1111111111001100
111
1111111111110111
1111111111100110
1111111111101011
0
1010111
1111111110010000
1111111011111000
1111111010110011
1111111100111010
1111111010110011
1111110010000100
1111111111101100
111110001
1010100010
1000001101
10101000111
1010010110
101011111
11011
1111101001101100
1111100111101100
1111110110011000
1111111001110110
1111111101111010
110100
1110
1111111111100100
101110
1111111111110000
1111111111110000
1111111111111010
0
1111111111110001
1111111110011111
1111111101110110
1111111111100101
1111100
100011111
1111110101011101
1111110010010101
1111110110001100
1111110001101001
1111110001011111
1111111101000001
1111110110010001
1111101110010101
1111110001010010
1111111001000011
1111110110011111
1111111000010111
1111111100011000
1111111111100100
1
1111111111011011
11
101001
1111111111101111
1011001
101001
1111111111010111
1011100
1111111111110010
10000
1111111111110001
1111111111100110
1000000
100110
11110
1111111111100011
100000
1111111111110010
1111111111101001
101001
1111111111111100
1111111100101100
1111111110001001
1111111111000001
1111111111000100
110
101110
111110
100000
1111111111011101
1111111111111011
