10110
1111111111111110
100
10101
1001
1000
10000
101
1111111111011000
10110
1111111111111111
1111111111111110
101001
1110
10001
1111111111111110
1010
1010
1111111111110010
11
1110
1111111111111100
1111111111110111
1100
1111111111100001
1111111111101101
1001
10111
1111111111100010
101000
11010
11111
10011
1111111111010110
1010110
1110001
10101111
111111
1000011
1111000
11011111
11000110
11010100
101011010
11011100
10011000
1110110
11010001
11101010
10000101
110000
100101
1101
10100
100110
100010
1111111111111011
101
10101
1
10001
11111
1010001
11001111
110011101
100011111
110101101
1111000111
1010010010
1110111001
1000101101
10001110010
10011000000
1101001000
1100010001
1111110000
1010000101
1000010010
100101010
1001010
1111111110001110
1111111111010011
1010
100001
1111111111101011
1010000
1111111111011111
11
1011111
1111111111111001
111110011
1000000110
1100100011
10100111001
1011110110
1111111011001011
1111110110101011
1001100100
110011101
1000011011
111010011
10010010101
11110100100
101001100011
1111100001
111010011
1111111110110000
1111111101011000
1111111110000100
1111111101111100
1111111111011110
1111111111101100
1111111111101001
1111111111101111
1111111111010111
10000
10010100
1111111111011111
1101000
11010000
10001100
110011
1111111111011101
1111101111010111
1111101110110101
10011001
1000011101
10010001
1111110110001100
1111111011000100
1111111100111011
10100010111
1111111111001000
1111110010011011
1111101010000010
1111110011110011
1111110100101100
1111111101000000
1011
1111111111110110
100
1111111111111000
11000
1111111101110000
101011101
10111111
101010110
1111111110111000
1111111111011101
101000
10110
1111110101010011
11001000
1100111111
1111111000001100
1111111010011010
1111111000001110
101111010
110000
10101100
1111110111100001
1111101011111001
1111100110101001
1111110001110010
1111110100100011
1111111001001101
1111111111011111
110100
101
11100
10001
1111111100111100
10101011
1111111111000101
10101011
1111111010110101
1111111011001100
110001101
1111111010010111
11011010100
101010100
101001011
1111111110111011
1010100100
10011000100
100011111
10101111
1111100111001111
1111010001101000
1111011010010110
1111100000100000
1111101100001111
1111110111000111
1111111011001001
1111111110011111
1111111110101011
11111
101010
1111111111101000
1111111101000100
11000
100110
1111111000001011
101111101
1111111100100001
101100010
100101110
1001000
10010000011
1111110000111011
1111111010000110
100101111
1111111100111111
1111110001011011
1111011111101111
1111000010000100
1111000100000011
1111001111010011
1111010101011100
1111101001100000
1111110100010100
1111110110111100
1111111100110001
1111111110100101
101000
1101100
101111
1111111110101001
101000101
1101101
1111111000000011
1011111001
1011001
1111111110011101
1111110011010010
1111101100110110
1111110110100100
1111110001010000
1111010111111101
1111010110111110
1111011010010110
1111001101000010
1111001010001100
1111100010000010
1111100111110011
1111100001100000
1111100110000000
1111101001001101
1111101011000101
1111110000011011
1111110101110010
1111111001101011
110
1001100
1010000
1111111100110100
101101111
1111111101100001
1111110011000111
100110110
1101010110
1111110110000100
1111111000000011
1111111011001001
1111111011001110
1111101011000100
110001110
1111101100011101
1111011001111001
1111100101000000
1111101101001010
1111101000000000
101111100
1111111101001111
1111110100000100
1111110110100010
1111110011010101
1111101110110110
1111110101011110
1001111
1111111111011110
1100100
1111
1111111101000001
111000011
10000000
1111111001011111
1111111111111001
10010011010
111100111
1111100
1111111110101111
1111110010011001
10010110000
1111111110000111
1111101011110001
1111101100110100
1111111010010100
1111111111110011
1111100111011111
111010010
1111111000100100
110010010
110010011
101
1111101101001101
1111111011011100
1111111111101001
10110
1010101
111101111
101011011
10110010100
10111000001
1111110011010100
1111110110110110
1111111101111100
1111111110010101
1111111010001010
1101100111
1000010011
100101011001
100011110011
1111110000101001
10110000010
1011010010
10011000110
1111110110
111011001
1011011011
10000010101
1100010
1111111111001100
1111110001011001
1111111000000010
1111111110100001
1111111111100100
1001000
101000111
1000111111
10001100101
1100110000
1111110111011100
110100111
1101010010
1111111000110000
1111111001011101
10101100001
1010010111
1011110
11111000100
1000010101
100100001111
10001000001
11000011010
1011101000
1110110010
1000110001
10001001111
10011001100
10110001
1111111011011010
1111111101100100
101
110010
110111
100001001
110000011
1101011110
10001100001
1011111111
1111111000100010
1111110011110001
1111110100111000
1111111101111110
1111111111000111
100010011
1111110011101000
111000101
10001001111
11111100
1111110101010101
10101100111
100101011
110110010
11001100101
1110000000
100011000110
111000000
1111111000001111
1111111100110000
1111111111000111
1111111111110000
101000
10001111
111100011
1001001
1001
111001010
1111101101111000
10110001
1110010100
10010010
111010111
1111111101100111
1111110111111100
1011100010
1010010100
100100010
1111101101010011
10100101001
1111111010000111
11111100111
10001000111
10011100010
11011110011
1111111100100111
1111111000010111
1111111101110110
1010
10011
1111111111010100
1001110
10001110
1111110011010110
1111110101110110
111111010
111101
1111111100101101
1111110111000110
1111111011101111
1111101111000100
1111011011011011
110011111
11011010111
1111111101111000
1111110111001000
1111110011001111
1100011
110111011
11101010110
11011101
111011100
10011000
1000101
101001001
1111111100100001
1111111111101111
101101
100101
100101
1111111110111100
1111110101001001
1111111011001111
1010111101
100011110
1111111011111011
11011010
10001001000
1111111111101011
1111011101011100
1111111011111101
11101100100
1111111101100111
1111111001011110
1111101000111100
1111111111110010
100101110
1111111001001001
1000100000
1100101
1111110111100111
1000000110
10001100011
1111111111011101
1111111111000010
111
1111111111101111
11110
1111111101001101
1111110101101011
1111111100110010
100001110
1111110110111111
11000000
1111110100101111
1001011111
1000110101
1111100110100011
11111100
1010110111
1111111110111100
1111111110100100
1111110100100111
1111111010010111
1111110111100010
1111110101001000
1101111100
101010010
1111110011011101
100000101
110001011
1111111101111111
1111111111001110
10101
110
100010
1111111101101000
1111111100000111
111010111
1111101111111001
1111110011111111
1100011001
1111100100001100
1111111010100101
1111101011000010
1111110110100101
1110010
1111111000
10101011101
1000001011
11010100001
100111
110100010
1111101111100001
101011011
11001
11001000
1111111010111000
1000001
1111111111011111
1111111111101010
1110
1
10000110
1111111111110100
1111111110110001
111011001
1111110101001001
1111110011110111
1111111011110100
1111111000111100
100101100
1111111010010011
1111110110000010
10001110110
10011000111
1000101111
1001101
10000010111
1111111100011111
1010111000
100111000
1111111100011110
1111110101101010
1101110
1111111100010101
1111111101000110
1111111111010111
1111111111100011
1101
1111111111111101
1001000
111001
111111
11100
1111111000001110
1111101010001111
1111110000111011
11000011
1011110110
1101000
1100110
1111000000
11100111111
10011110110
1010010
10001000011
10000100010
1111111110110001
110001011
1000001101
1111111110001101
10100001
10100101
1111111110101100
111101
1111111111110110
1111111111100001
101010
1111111111101100
1111111110001011
1111111010100000
1111111011011101
11111110
1111111001101010
1000100011
1111111001001001
1010100011
1111110010000000
1111110010101100
1000111001
1100010101
1100100000
111101011
1111010000
1001101101
1111111011011101
10110100
1111111001100101
1111110110010001
1111110100111100
1111111001010100
111110
1000010
1111111111101110
1111111111110111
10101
1111111111100110
1111111101110100
1111111011101110
1111111110000000
1111111100000010
111111110
1011110110
100101011
1000010011
1111100111001011
1111111001100110
1111101110111000
1111101101110111
101101010
1111111000000000
1111111111001001
1111110110010011
1111101101101011
1111101110101010
1111100011100100
1111101011000001
1111110000001101
1111111000001000
1111111111000111
11111
10110
11
1111111111110011
1111111111100101
1111111110111010
1111111101001001
1111111101111001
1111111110111100
1111111010100101
1111110011000010
1111111011100000
1111110011011000
1111011111001101
1111110011111111
1111101100101001
1111101010010101
1111110101111101
1111101111110111
1111100110000110
1111101010100010
1111111000000001
1111111101001010
1111101110100001
1111110001000101
1111111001011100
1111111010000110
11010
10011
101001
1000
110
100011
1111111111011100
10111
1100001
1011011
1111111010011010
1111111011001010
1001
1000010
1111110001110010
1111110100011010
1111110101100101
1111111110001110
1111111011111110
1111110011100001
1111111111110111
1111111011000110
1111111111100101
1111111010110010
1111110111010110
1111111101001100
1101
11000
101010
1111111111101101
110
11011
10010
1111111111111111
10110
11110
1111111111110010
1111111110111111
1111111111111111
1111111100000000
1111111011101000
1111111010000001
1111111100010010
1111111101000011
1111111101010001
1101100
1111110100011111
101011
10100001
1001110
101010011
101110001
10011111
101000110
1101011
1111111111001000
1111111111100111
1111111111110110
1111111111010110
100100
11
1111111111111010
1111111111001111
1111111111000011
1111111111111100
1111111111011110
1111111111101010
1111111110101111
1111111110011000
1111111111011110
100100
11011
110110001
1011001
1111111111000010
1011110
1111111111101011
101010
110101010
110110000
11001011
1111
0
100001
110
101
10001
10010
100
1111111111001100
101010
11100
1111111110111100
11011
10
1111111111010111
10100
11101101
10110001
1000110
1111111111101011
1111111111111111
1111111110100011
110011
1010
111
1110101
111100
1111111111111101
1000100
1111111111010001
1111111111100011
10110
101011
11
