100110
111100
0
1110
10
111110
1111
1111111111000001
1111111111111001
1111111111110010
111011
10111
1111111111110111
1111111111111110
10011
1111111111110111
1111111111011000
1111111111011010
111
1
111
1011
1
1111111111010101
110111
1000
10110
1110
1111111111011100
1111111110100010
10010
10001
1110
1010111
0
1111111111101101
1111111111100000
10000
1100
1111111111001000
1111111101101111
1111111110110000
1111111111111001
1111111111100110
1111111110010100
1111111110111010
1111111111100110
1111111111110111
1111111111001101
1111111111111000
1111111111110111
1111111111111010
1110110
101010
1111111111101001
110
1111111111001000
0
1111111111101111
1111111111111101
1111111111110111
1111111111110001
1111111111100010
1111111111011101
1111111111000000
1111111110000010
1111111011001110
1111110110110011
1111111001010101
1111111000101111
1111110110100111
1111110111001010
1111111011011010
1111111001111111
1111111011011001
1111111011010100
1111111001011110
1111111011011111
1111111110010111
1111111101011111
1111111110101111
1111111111011111
111110
1000000
1111111111111101
1111111111111011
101010
1111111111111010
0
1111111110010100
1111111101110101
1111111111010100
10001011
1111110111001100
1111111011010001
1111110111110101
1111110111100011
1111110100000001
1111110110000011
10000
1111111111010001
1111111101101111
1111111100010000
1111101011000110
1111101111100101
1111110111000101
1111110110010110
1111110110001110
1111111000010110
1111111111000110
1111111111111100
111010
101100
1000
11001
1111111111111111
1111111110110000
1111111110000010
10100
110000010
11001111
1111111101111011
1111111101110100
1111111101101100
1111111011010011
1100011
111011001
10000000110
1100000110
1111110111000101
1111111010110110
1111101111011001
1011000
10100010
1111111110100110
1111110111001000
1111110011110100
11110
101101
1111111110111000
1111111111111100
11100
0
110101
1111111111101010
10001000
111001
100101
1111110000010010
1111110110111111
1111110011110100
10000111001
111100111
100011110110
11111001
11100010
11100000101
10010001111
10111101110
1111111111
1110101101
1101000111
101100100
1111110101011100
1111110111111110
1111111111011010
1111111101001111
1111111111101000
1111111111100101
101000
1111111110110100
10011001
1111111111001101
1111110011110011
1111110100011111
1111111010000000
1111111001101000
1010100
100010110101
101011111011
100101111111
11011111100
10100000101
1010011011
11000011101
11100000000
100100101101
11000011100
11001111110
11100001100
100100010
1111110010100001
1111111001010110
1001010
1111111110110110
1111111111010111
1111111111110110
110
1111111111011111
101111111
1111111011011100
1111100100110010
1111110111010010
1111111000111111
1111111110011101
1111111101101010
11001001101
11111001001
100100110001
10000110111
1111011101
10011000111
100011101010
11000001001
11111000100
10110100010
11001111111
11000001011
100001101
101111111
1111110101100110
1111111100110110
1111111101010011
1111111111010011
100
1111111110011101
1111111110011110
1010
1111111010001000
1111110110101010
1111111110001110
1111110111111000
1010010011
1000100010
1011011
11001001101
11001001110
11001111010
1111000111
11011000011
110011001001
11111101100
100000010001
11100110001
1111111111101010
1100111010
10110001
101100
1111110111111010
1111111011010111
10010100
10
1111111111111101
1111111110100111
1111111101010010
1101101
1111111111110001
10000111
10010000100
1111111111011011
1000110110
1101001010
100011010010
1111000110
100010011001
100011011001
110110011
1111110001
1010010011
1011000000
10001110110
1000110100
1111110011100001
1111110110100110
1101000101
1111111110110001
100001000
1001111000
101001010
10010001
10
1111111110101101
1111111101010110
10011100
1001010010
1100001110
10111111110
1111111110111010
110110001
1111111111010010
10100011101
1010100110
10010010000
11010010011
10101011110
1111100011011101
110000001
1111110011001010
1111101111100000
1111110011110110
1111101101010111
11010110
1111111100110100
1101010100
11101110
1110101111
10001110
11001
1100
1111111111001001
1111111100111010
1111111111010101
1110001110
1001011101
10100100011
1101001101
1111111110000001
1111100010001001
1111110100101100
1111111011111100
1010111011
10100010000
1010
1111101101001001
1111111101110110
10110001110
10000001001
1111111001111110
10111111
110111
1000111
10110111
10011001
1011010011
110110010
101111
1111111111111110
11
1111111101001110
1111111001010110
10100011111
1001000010
1000000011
110010011
1111101100001100
1111111111011001
1111101111010001
1111100100001110
1111110001111110
1111100101000001
1111111000110110
1111111000100011
1111111011100101
1001000100
10100111001
10000
110010111
11110110
1111110011110001
1111111101011101
1111110001100011
10110100
100010110
1111111111110010
110000
1111111111111100
1111111111110011
1111111101001101
1010110111
1111111011101111
1111101101110001
1111111110010100
1111111000111101
1111111000110001
1111101001000010
1111101001000000
1111100110010110
1111101111110111
101110111
1111110001110111
1111101011101100
1111111100111100
1111110110011001
1111111000010100
1111110110010101
1111110111101100
1111101100100101
1111100000010111
1111101101110010
1111111101110100
10011010
1111111110110100
100010
1111111111010111
101010
1111111111010010
101001111
1111101111001101
1111110101111101
1111101111010110
1111101011011110
1111101101100010
1111110110010101
1111110000111111
1111011011001100
1111111000110011
101001101
1111110111110100
1111110010101110
1111101111001111
1111100101101111
1111110001011010
1111101100010110
1111101110111001
1111011000010100
1111100110110110
1111101010111001
1111111101001001
10001111
1111111111010111
110011
100110
1111111111010001
1111111101100100
1001110110
1111111110100001
1111111000100101
1111101111101111
1111101011100110
1111111100000010
1111111011101111
1111111111010011
1111101010111101
1111110110000010
1111101100000110
1111101101101110
1111110101100011
1111110101110111
1111110001010110
1111100000001111
1111111001100100
1111101101010011
1111100110000000
1111101101011001
1111101111010010
1111110010101110
1100101
1111111111001010
1111111111101100
1111111110111100
1111111111110110
1111111111110010
11100110
100100001
1111111100100010
1111111010011010
1001110100
111111100
1111111100000000
1111110011010000
1111101100110011
1111110100000100
1111110011001101
1111100000000001
1111101110111101
1111101011110100
1111101101000111
1111111001011101
1111110010001111
1111101001111011
1111110110100010
1111110101010111
1111111000111001
1111110000010001
1111111111111101
101011
1111111110011110
1111111111110011
1111111110110110
1010110
100011
1110110
1111110010001101
1111110011100110
1111110111111000
1111111111011010
11110000
1111110010000101
1101000101
1111111110111111
1111111110101100
111111
10011110
1111111001110011
1111110000101010
1010101001
1111111011110110
10000001
1100110100
111010100
101011
1111110100101001
110111
1111111111001100
0
1111111111100110
1111111111011111
111000
1110
11001100
11101000
1100001
10110011
1011101100
1111111011010101
11100100
1111100101001010
1111110111111010
1111111001000110
10100011
1111110000110001
1111111111100111
1111111001010010
10101010110
10110011001
11001100100
10000101100
1100001
1111111010001111
1111111111110010
10011100
11
1111111111111100
110111
1110
10001001
10001000011
1110010111
111100010
1000001001
1111110100
110101
11110111
1111111011111001
1111110011001111
1111111010111000
1111110001001000
1111111010001111
1001101100
110110001
1111110001011010
101100000100
10100001010
11111100011
11000001001
1000101000
111011001
100110101
1111111111011101
111100
111
101000
1100
101000111
11000001010
10011100001
11001110011
1011100101
10001010011
11101111
1111111100110011
1111111000100011
1111101101110001
1111111010110010
11011111
110000100
1101010100
11111010
110111
110010010001
11011000010
100100010010
11100100111
10101110110
10010111110
1010010000
1111111111101010
101001
1111111111111011
1111111111110001
1000
11010111
1100110011
1111101101
10010011010
10100001011
11110
1111111011001000
1001000001
1111100110100010
1111101010111110
1111110001100010
1111110101101001
100101100
1111101111010101
1111111100110101
11110011
10011101001
11000100101
11100110101
10001011101
1110111001
10001100110
100000010
1111111111001010
11010
1111111111110101
11010
1111111111110111
1010011
11101110
1011111110
10001101100
1111100000
10101111101
10010001
1111111101100111
10001011001
1101110000
1111111100100001
1110011110
10000110
10010001
10010101101
1011101011
1000010
1011000001
10001101001
1010101110
1111101001
1010101000
10110000
1111111111111110
1111111111010001
1111111111110011
1111111111111110
1111111111101101
11100
1
1001110111
1010111001
1110011100
11001101001
10111110101
10001011111
100101101100
10001010001
11101001101
10110110
11000110001
10011001000
11000101111
1011010010
1111111110100110
100011000
10000000
100100111
101101001
1100000011
111111
1100
11000
1000
1111111111100100
1111111110100001
1111111111110111
101111000
1000011011
1110011110
11000010011
11110011100
11000001000
1110111001
1110001
100011011
10000100010
1111101100101111
1111010101
1111111001101111
1111111110100010
101011111
1111111000111001
111100111
101110
1111111111011111
11011
1111111110000100
1111111111010110
1111111111100011
111
1111111111100111
1110
1111111111010011
1111111111101010
11101001
1001111001
1010111101
10011010101
11000100111
11110010110
100000011110
1100111101
10001100101
10000011110
1010011000
110111001
10001110110
11111000101
1101110110
10000111100
110000001
10110001
11111
1111111011110001
1111111111010111
1111111111001001
100101
0
101
100
10100
1011
1001111
100110000
1001010010
1011001110
1111100110
10111011001
11111000110
11010100100
100001000011
11111011000
101100001100
100110001000
11010001101
11101011111
11111100001
10100000100
1100100110
1011110010
101100110
110110
1111111111111001
1111111111110101
11101
0
1100
1111111111100000
1111111111101111
100010
11110
1111111111011010
11
11100100
11110111
1001101
100010110
100001110
1100101010
110101010
111110000
100000011
10010101
10111101
101000000
101001100
1111111111010011
101000
11100
1001
10111
101
1111111111110111
1110
