1111111111111111
1111111111111101
1111111111010010
1111111111110010
1111111111110101
111101
110111
100100
0
1010
1111111111100110
1111111111111100
101100
1111111111001001
1010
1111111111100100
1111111111011100
1111111111001100
1111111111100110
10011
1111111111110110
1000
1110
110
100111
1111111111111101
100100
1111111111110010
1111111111001110
101
1111111111111000
1111111111010001
10100
1111111111111011
101000
1100001
1110100
1110
1011001
10000011
1010000
1011011
1111111111111110
10011111
11011001
10010001
1001
1111111111100111
101110
111110
1111111111110101
101110
10000
10010
111001
101111
1111111111110101
1111111111111111
11111
1111111111100000
10000
1111111111100100
1101111
100010010
100101110
100010101
101010001
101110110
10100011
1111111111100101
101100010
10111
1111111011100001
1111111011011001
1011000
11010
11001010
11000011
1100000
100110
111010
110011
10110
1111111111111000
10011
101101
10111
11001
110110
1111111110101010
1110001
100001111
101100011
1000110010
111110011
110010110
100010
1111111100100001
1111111110001111
100100
1111111000011110
1111111100111101
101111011
110101001
101000101
1100001110
1001110010
1001101100
101111100
1111111111110010
11010
1101
11110
1101
1111111111111110
10110
1100100
1111111101010101
1001110
101001000
100101001
1000100010
110010000
11110100
1111111111011001
1111111000000010
1111111011111100
1111110111110111
1111111010110010
11
1111110000111011
1111111000010111
1111111001111010
1111111101000111
11000001
1100101011
1000101101
1110101
1011000
111111
1111111111111000
1010110
1011
1111111111101001
101100
1111110110110000
1111111001101101
1111111100000011
101101100
10011111
1011010100
10011110001
1011010010
1111111100110111
110101000
10110101
1111111111010000
1010010001
1111110110111111
1111111010110010
1111110111010111
1111111100010010
1111111011100000
1111111001011011
1111111110111001
100010111
10111101
11110
1111111111111111
10000
101001
1111111110111100
1111111110110010
1111110001001011
1111101000111100
1111111100110011
1101101010
100000001
1111111111000001
10001111
1111111011000011
1010110
1111110101010110
110101000
1111010001
1010001101
1111101101101001
1111111001000101
1111110010001001
1111110010111111
11000010
1111111111101111
1111111001001111
10110100
1111111111001101
1100111
1111111111101101
1111111111001010
111101
1111111111101010
1111111010101000
1111110000001010
1111101110110111
1111101000001100
101000010
1111111101001010
10100111110
1111011011
1111100111001001
1111111001001101
1111110100011000
10001111110
1111110110100101
1111111101001100
1111111000001010
1111110111111110
1111110110010011
1111111011100010
1111111101000001
1111110111110101
101000111
100001111
1111111110100101
1100011
100110
1111111101010100
1111111110100110
1111111110011001
1111111000001111
1111101010011110
1111110000101111
1111101110111111
1111110111011001
1011110010
101100100
1010001
1111101110100010
1111111110010100
1100001100
10011
10010100000
100110110
1111110111010011
1111110111111101
1111110110111110
11100001
110110
111011111
1001101011
1000011
1111111110010000
1111111111101101
1001
1111111100000110
1111111101100100
1111110111001000
1111110001001000
1111110001110101
1111111010110011
1000010010
1111111110011000
111001000
10100001101
1000010101
1111110000100001
1111101000011011
1111111010001111
10100101001
1111110100110001
1111110001111001
1111101111001100
1111110010010101
100001100
1111111010000000
1001101
1101101001
1001110111
1000010
1111111110000100
1111111011001111
11111
1111111100101010
1111111100001011
1111110101110110
1111111010011011
1111111010111011
1001100
11100110011
10101101100
1110011011
10111001
1001010111
1111110110110010
1111000011111101
101101001
110100110
1111101011010101
1111111110001110
10100010
1111111010101100
10100100
1111111110101110
111010011
10011001111
1100000000
1111111110101110
1111111110110001
1111111110110110
101110
1111111101011010
1111110010000110
1111110001111111
1111110000101101
1111111000100111
1010010011
1111111100101100
110100111
1111111001101111
10000011000
10111100101
1111111011100011
1111001001000101
1111111000101100
1111100010111100
1010110
101101111
1111110100110000
111011
111001011
1101010010
10111010100
11011111010
10011101101
10000010
10001001
1111111111100000
0
1111111111001001
1111110101111111
1111111010010110
1111111000101100
1111111010010111
100011110
1111110010110100
1111101001010011
1111110011000101
11101000001
100101011001
1100110010
1111110101000100
1111100011111110
1111011010110100
1111110011100100
1101111111
1111101110001111
100001010
110110000
11000100101
10001011111
100100001010
1101101100
1111110111110001
1111111010100010
1111111101010100
110101
10100
1111111001010100
1111111111010000
11100110
1111111100100010
1111110001000000
10110110101
10000011110
10011011110
1110110001
100100000011
110110010010
11011110101
1111011101101110
1111111000000011
1111110001011110
1111100111110000
1111110001010001
110100110
1111111000010000
100101110
111100111
10000000110
1001111
1111110111100100
1111111100000011
101011
11100
1111111111001001
1111111010101101
1111111111101110
1111111111011101
101101000
10100010011
10100101111
10000001010
100000101101
100110101110
101010111000
101011000000
10011100101
1111100010000011
1111111001110010
1111110001111101
1111111001001000
1111110010001110
1111011011110100
1111111101110011
100111101
11000010
1111111000111001
1000111
1111111111110100
1111111110110010
110001
111000
1111111110110111
1111111100011001
110100011
1011101001
11001001000
11010000111
100011101000
101010100101
101010101110
100110110100
10101011001
1100111000
1111111110110110
1111111110110101
1111101110010000
1111111101101001
100100110
1111111000001101
1111101100100110
1111101101111010
1111110111000010
1111111100111001
1011011001
100010110
110101100
1000100
10000
1111111111111010
11001
1111111110001100
100000100
10101000011
100101001000
11001110110
11000000001
11111110000
1111001100
100110010010
100000010101
1111110101010100
1111101110010100
1111111001100001
11011000
1110011
10100101
1111111000001001
1111010100001101
1111110100000000
1111101110110110
1111110010110000
1111111110011011
1111111101111111
110011101
1111111110100110
10011
100110
1111111111100101
1111111111001111
100111
1100110000
10111001011
10101001101
10010100001
10011010100
11110010111
100010101011
101001000
1111111000000100
1111101010000101
1111111000100111
1111111011101111
10001111101
1000111
1111111100001010
1111110101011011
1111111000011101
1111100011001101
1111101010101000
1111101110001100
1111110010010111
1111111101011010
1111111011101010
111111
1111111111101000
1111111111011110
1111111111100110
1111111000001010
1000000
1000001011
1110111011
1101001100
1111111011000111
11000101
10001110
1111101111011000
1111111100111000
1111110001000010
1111111111010101
1111111011001101
100111100
1111111110010100
1111101011000101
1001000011
11011111
1111101001110010
1111101000001110
1111110000001101
1111110011111110
1111111110100100
1111111100001011
1100
11
1111111111100001
1111111111011000
1111111100010101
1111111101111011
100101001
1111111010101010
1111110100111110
11001110
1111110111011110
1111111001001011
11001001
111000010
1111110000011100
1111111100010110
101101101
1111110000100010
1111111101000101
1010100011
10010101000
111111011
11011010
10010
1111111110000010
1111111110101111
1111011
1111111110101010
100100
11001
1111111111101010
1111111111000100
1111111011010000
1111111011000111
11010
1111110010000111
1111110010101001
1111110100111011
1111101100101101
1111111101011011
1111111111010001
1111110110001001
1111110100011010
1111111001101100
1111111110001001
11001110
1111111011010010
1000110010
110100001
1111111101001110
100100
1111111011101001
1111110111110000
111110
11100111
1111111111000110
1111111111111101
0
1000011
1111111111110110
1111111010101111
1111111100001001
1111111111011000
100100
1111111000110100
1111110011100001
1111111000011110
100001001
1111111101100011
1111110111010101
101000010
1001110
1111111000100010
1111111000010111
111001001
1111101110001101
1111110011001011
1111110111011010
110001000
111010010
1111111010110001
1111111100101101
101010
1010101
1100
1111111111111100
10001
110
1111111101010001
1111110011000000
1111110110000010
101101100
1111111111100110
1111111100011011
1111111000000011
1111111101000001
1111110010000111
1111111011001100
1111100011
1011100001
1111111011010110
100000100
1111111100111011
1111111101101010
1111101011111001
1111110011100000
10010100110
1101011011
100100010
1111111101001101
1111111111000110
10001
1110
1111111111111000
101010
1000110
1111111111001110
1111111010111110
1111110011111111
1111111000010101
111011
10111100101
10010101
1111111101100100
1111110111101010
1111111011100011
1110001001
10001011011
1111111110000101
1011110011
1101011
1111111110111011
1111111001011010
110101
10000000011
1110110001
1011111010
1111111111001111
1111111110011111
1111111111100011
10010
111000
1010
1111111111100010
1111111110100100
110110
1111111010100110
1111111010010110
1111111101000011
111100
1111111110100000
101011000
111110010
1100011001
1111110000011011
1111100101100000
1111111010000000
10111110101
1111111101011001
1000000110
10010000110
10010000100
101001000
100101000
101000101
110000
10111
1111111111100001
1111111111100001
10
100011
1111111111110101
1111111111000011
1111111110010010
1111111100000100
101101000
10000111
1111110001000111
1111101001001101
1111101011000111
1111110101101110
1111011100011010
1111110011101011
111111000
1111010011
1010100101
101110101
10001001
1011010000
10011100010
1111001101
1101001
1111111110101010
1111111110111011
1111111111100100
1111111111111110
11111
1111111111011110
1111
101100
1111111111100011
100001110
10011010
1111111111110010
1111111111100000
1111110101110001
1111110110111101
1111111110001011
1111111101000111
10001110
1111111100101100
1110001000
1110111011
101110000
110010110
1100011
1111111000011101
100001100
1010110111
11100010
1001
1111111111111010
10111
10010
1111111111001110
1111111110101100
1111111111001001
100011
1000000
1111111110100110
1111111111101110
1111111111001100
1110001
1011100
100010
111011
11011110
110110110
1111111110001111
1111111111010111
1001111
1111111110001101
1111111101011011
10001001
1111111110010110
101
10001011
10111010
100010
111001
1111111111000111
1111
1
