1111111111100010
10
1111111111110001
1111111111101111
0
101
1011
1101
1111111111011000
1111111111101101
10101
1111111111001111
1111111111010110
1
1111111111110011
1111111111100010
1111111111000110
1111111111110011
110
1111111111111001
1111111111111000
101101
1111111111111100
1111111111101011
1111111111100101
1111111111010101
10111
1111111111101101
100010
1111111111110010
1000
1111111111101001
11111
110001
1111111111110111
1111111111010100
11101
1111111111111111
11110
1111111111100011
11100
1111111111110000
1
1111111111110000
111000
1111111111001110
101011
11000
1111111111111110
1111111111011110
100011
101101
11
10000
1111111111011110
1111111111100000
1111111111111000
1111111111111010
1111111111110101
1111111111111111
101010
1111111111111011
10000
1001
1111111110110011
1111111101001100
1111111110011101
1111111111000000
1111111101000001
1111111110000100
1111111011101001
1111111011011001
1111111101011000
1111111111101110
1111111101010011
1111111101011100
1111111111101000
1101
1111111111010110
1111111111110000
0
10100
100110
1111111111111101
110000
1111111111111010
1111111111101111
11110
1111111111000011
1111111110111110
1111111111111001
1111111101100011
1111110111100111
1111110101001001
1111110011110011
1111110011100101
1111101101111010
1111101011010100
1111101110000101
1111111010101111
11001
1111111111000100
1111110110011001
1111111000001000
1111111011101111
1111111010010101
1111111010001110
1111111101100011
1111111110011111
110100
110100
1111111111111000
1011
1111111111010100
1111111110110000
110010
1111111111001001
1111111110011001
1111111011001101
1111110011011110
1111101101100100
1111110001001101
1111110111100100
1111111100010000
1111111110011010
111110011
1111010
101011010
1111111100010010
10101011
100000011
1111111101001010
1111111111010111
1111111110110100
1111111101101111
1111111101001010
1111111010101100
1111111110000111
1001110
1111111111001001
111
100000
11101
1111111101011110
1111111100100000
1111111111101110
1111111111010110
1111111011010000
1001000111
111110000
1000011000
1111111000011011
1111110111010100
1111101111
1011111010
1111110011111100
1111110101011101
111000000
1100100100
101101001
1111111111001111
1000000011
100000011
100001
1111111101001010
10011
1111111111011111
10110
1111111110111001
0
1111111110100101
1111111110101101
1111111110011100
1101111
100010110
111110110
1011000111
1111111010011110
1111111100110101
10100001
10000111101
1111111101011101
1111111110111111
1111011011111000
1111101110000101
1100010000
1101000100
1111111110111111
1111110110011111
100010001000
1000001111
1111111110110001
1111111100101110
1111111110010101
1111111110111000
1111111111111001
1111111111000110
100001
101101
1111101
1111111100000000
1111111001001110
1111010100
1101001001
1111110111000101
111100011
1001100100
1111111101001001
110010011
1000000011
1111110101010001
1111010110110001
1111111000101001
1111111100011011
11010110001
100111011
1111111000000100
1110110
110110011
10100111
1111111111101011
11110011
1111111110101001
110011
11110
111111
10101110
10101110
1111111111101011
1111111001110100
1111111011011001
1011010011
10110000001
11011100011
11001101011
1111111011110101
101000001100
1011100010
1111111010011010
1111110100101111
1111111000111001
1001010101
101110100
11010100
1111000111
11011
10010110000
1100001111
11001111
11001010
1111111010110111
1111111110011101
1
10100110
11010100
101100111
1001011111
1011001
100001110
1110110010
1111110010111000
10010111110
11110011
1111010
1101110101
1101010110
1110010000
1111111101111101
101011011
110111010
11000101110
1111010110
1000011110
1111001010
1011010011
1010001010
11001010
1111111100011011
1111111010110001
1111111111111010
100000
1000000
10111011
111011000
1101001000
1111101110
10001001111
1111111011111001
1111110110010100
1111111001000111
1110001110
11101010101
11010011001
111011100100
1011101
11110011
100001011
11010100111
10011101101
100011111
1101100010
10111011011
111011101
1111111100000000
110
1111111110111011
101
100
101100
1101
1101100
1010010010
111100100
11010110
1010111011
1111111100111111
1111110010100011
11001011110
1010010010
10111011100
101000000100
1111111111001110
1111001110100000
1111110001101100
100100110
100001010001
11000010111
10000011000
110011001
10010100000
111001110
1111111000110010
1010011
110011
101010
1111111111110110
1111111111111001
1011011
10001110
101011100
1111111101110101
1111111
101000
110111
1100100100
11011010011
1011
101001111
10101100111
1111001110001110
1110100111111011
1111100001000001
1111111000110001
1111110101011011
1010101011
1111110110000011
1111111000000100
1111111011101110
1000101001
1111101111001111
10111110
11101111
11111
1111111111101001
1111111111010010
1111100
11111110
10101000
1111101001011001
1111111010110010
1111111110010101
10100100
1001101011
101100
1111111101110101
1111111111100000
1111100011100110
1110110110111111
1111010101101110
1110111101100101
1111101101100100
1111110011111101
1111100111100010
1111011100010000
1111111011110110
1111110110010011
1111110011001001
1111101100100001
11010100
1111000
10111
1111111111011101
1111111111000011
1111111111100101
11100110
11011
1111110011110111
101111110
111000
1111010
10100000
1111110100101011
10111000100
1111110101011001
1111011011001110
1111000011000111
1111111001010000
1111100111010011
1111100010001101
1111100010001111
1111011110011000
1111101100110000
1111101001101100
1111100100001100
1111110001110101
1111111100001111
111100100
101111100
1011101
111101
110001
1101
10101011
1111111101110111
10001
1111111011110101
10111011
11001011101
1111110010110010
1111101011010011
1111111001011011
1111100001001011
1111001011110100
1111100010111001
1111100001100100
1111101101011101
1111010001101101
1111100101101000
1111010111100000
1111100011011101
1111101001001011
1111110011011000
1111111011110000
110011100
1011011000
1011000100
11001000
1111111111111111
1111111111101000
1111111111101101
1111111111001000
1111111010100010
100001
1111101001000000
1111101110110110
1101110
1111110101100111
1111101110011100
1111111110001011
1111011101010100
1111011011011000
1111101000101011
1111101110010000
1101111
1111101100000110
1111110111000110
1111100110101111
1111111000010111
1111101110111100
1101101
10100
1111111011001011
101101001
1000011001
100001010
10101
1111111111100011
1111111111001000
1111111110000100
1111110111001100
1111111100001100
1111111100011101
1111110000011010
1111100011110110
1111110001100001
1111101001001100
1111110011000001
1111110011010011
1111101011010110
1111100111100100
1111111110101111
1111110100101110
11111001
1111100
11000001
1111110011101101
1001011110
1111111111011111
100101001
1111111101100100
10110000
101011100
1101101
1111111111011111
1111111110101111
1111111111110000
1111111111111000
1111110110000000
1111111001100010
1111111110110110
1111110110000001
1111110110000111
1111110001101010
111111
1000011
1111110010110111
1111110001111101
1111101100101000
1111111010010010
1111101110001010
1111110101000000
1011000
10011111100
1111111000111101
1111110111011101
111001111
1100
1111111001011001
10011101
11111101
1001100
111000
1111
1111111111111111
101001
1111111000001110
1111111011111010
1111111001100011
1101010110
101101100
1111101010110100
1111101101001011
1111111010101010
100000011
1111100111010110
1111101101000000
1111110001111010
1111100101100111
1111111001100100
1010100101
1111111110000011
1111110110010000
101000011
1011010010
1110100
1111110110100011
1111111110100111
11110
1111111111110111
1111111111111101
1111111111011111
1111111111010111
1100101
1111111111110111
10111001
1111110011000110
11000100
11100011001
10010000110
1001
1111101111110111
10000111110
111010000
1111111001
101001010
10010100000
1111111000011100
1111110101110111
1001101000
101111110
110010111
101010100
10111
1111111001101010
1111111100011000
1111111100110010
1110
11100
1111111111001000
10110
11010011
1111111111111110
1100111010
1111110111001001
1111110100010110
11001111100
101000000011
10000001001
1001010010
100010100011
1100110100
10010110011
1011001100
10110010010
10101
1011110011
111000
1111111111011001
110110
1000000101
10000010
1011111111
10011010
100001
1101
1101
101
110000
10000011
1111111110001111
1001010010
1000000001
10000100100
10111101101
10110001101
100001001110
1110100100
100111111
111111011
1100011100
1111111100000101
10011110001
1111001110
1011011101
1111111110100101
1111111111001110
1111110
1000000010
10101101
111101100
1100101
1111111111111100
1010
111001
1111111111100001
110011
1111111111010011
1111111100011111
1111111110110011
101011101
11000000110
101100100
1111101101110110
1100010100
1011101010
11111101100
1011101111
1111111011010111
1111111111110011
110101111
1111101
1011111101
10001101001
111100000
1101000
1010010101
1111111011011100
1111111110111101
1011001
1001000
1010
1111111111110010
101001
1111111111101111
1111111111101101
101111
101010000
1111011101
11010110010
1111110010
1100000
1111101011000111
1111111011100001
1000100111
111011
1111111110111001
1101110011
1010010011
1001111001
10111110010
10000001001
1111111011000100
1111110001011110
100111000
1111111100101000
1111111010110000
10001111
1101010
1111111111110110
111
111010
1111111111100110
110011
10000101
1100001110
101100001
101100001
11000100
1111111111101000
1111111101110000
1111111101001001
110101111
10000110011
110110101
1100110111
1011010110
110000111
1010010101
10101111000
10111101
1111110100101001
1111111110100111
1110
1111111100111001
1111111111111111
1100
11
1111111111111111
110101
1111111111101101
10010
11011
1111111011001011
1111110101010010
1111110110000011
1111111000111010
1111111011101000
10100000
1111111111100001
10111101
101111110
1111111011010101
1111111110010100
1111111111110000
110110000
100111111
10000110010
10101011000
10000010
1111111100001000
100101
1111111111000001
1111111111101010
1111111111110111
1111111111001111
110001
1111111110111000
1001
111
1111111111111000
10
1001
100101
1111111111111100
111
1010100
101011110
1010101
1111111100100001
10111000
11000010
1111111001100101
1111111011100101
1111111110000111
1111110110101111
111111
10011000
1000010
111001
1111111111101100
1111
1111111111101110
1101
1111111111100100
