101000
1111111111010010
10001
1100
101011
11100
1111111111101111
10111
1111111111110011
11111
0
1111111111101110
1111111111111000
1011
1001
111000
1111
111
11000
1111111111010011
1111111111110010
1111111111100011
11011
101100
1111111111111101
1111111111011011
1011
1111111111011010
0
100100
1111111111110101
1111111111111100
1111111111110111
101111
11011
110011
111
10110
111010
1111111111111011
1111111111001011
1111111111001111
1011
1111111111100000
1111111111101011
111111
1001
1111111110111000
1111111110101000
1111111111001111
110110
1111111111100101
1111111111111100
100011
111100
11001
101000
1111111111110011
1101
1111111111001100
110101
1111111111101100
10110
11100
1111001
11000001
10100011
11111010
10110110
11100001
1001000100
110101101
1011100
1111111111111001
101001
110101
1111111110101000
1111111101001111
1111111111001110
1111111110101111
1111111110101110
10011
0
1111111111111101
1111111111011001
100
1111111111110110
100011
1111111110111001
1011111
1110
11101
110011011
1100100000
1011100000
1010111101
10101010110
11110011011
11001101100
111110011
10001101
1111111101100110
1111111000111011
1111111111110001
1111110110000011
1111110110101110
1111110010010000
1111110000101101
1111110111000111
10110011
1111111111100001
101100
11001
11101
110111
1111111111111111
100001
110111
10100101
11111100
110000001
1011001010
1000001010
1101100000
10001010010
1000000101
11001000
11011001
1111111100101011
1111110111100001
1010000
11001011
1111110110110010
1111110101101001
1111110011111111
1111111100100001
11010110
11111110
1010100
1111111111101010
1111111111011001
111
1111111111101101
1011
1111111111110010
11110001
1001010100
1111001000
10110100010
1110100100
10100101010
10010100111
10000011011
111010001
111000000
101011001
1111001100
11000110
1111110111101001
1111111010010000
1110011010
10101
1000110100
10000100000
1010110111
111111010
100001
10111
1111111110110001
1111111111101110
1111111111100101
1111111101001000
1111111100100010
1110101
1000001100
10011001101
10100110101
10111010100
11101001000
100110001
1101000011
1111111001100110
1011110001
1101001100
10001000010
1010111100
10111011
10101001100
1000110001
1000101101
1001110010
1111111111
10101101111
1010101101
11110110
1111111110110011
11001
1000101
111110
1111111110000101
1111111010100100
1111111011101110
1111111101010111
10111100
10011011000
10011111001
10010110
10011100111
10111101110
1111110101
11000100101
10001110010
11010011100
100000000110
10101110101
1000100101
1010010110
10100000
1011010111
1110111111
1110010
11101010
11001100
1000
11000
111101
1111111111010111
1111111100011110
1111111100000110
1111111010110000
1111101100010101
1100010
1111011100
1100111111
10011101001
11001000100
111101101
10011110001
101000110000
11011110111
10010000000
1100101110
101000001
100101000
1000110111
1111110000011101
110011001
10000100000
1001000
1111111101011111
10001111
1001
101
1111111111111101
1111111110100000
1111111001010010
1111111000101100
1111110101111001
1111101110011101
1111110011011000
1111111011100000
100100100
11000100
1111101111011011
1111110110001100
1111100110111000
1111101001100100
1111110011010011
1111100100001111
1111110101110101
1111111110100001
1111110000010000
1111101111000100
1111101010111010
1010010
1111111000110010
1111110111010111
1111111111111100
1111111111111110
101001
1111111111110100
10000
1111111110101010
1111110111101010
1111110101100110
1111110011010110
1111101001000001
1111101011101101
1111100010001111
1111011110010010
1111010100000011
1111001010011110
1110110000101100
1110110110010101
1111000011010101
1111011101101110
1111100100010100
1111100101111001
1111100000010101
1111010001101010
1111101011011001
1111101110100011
1111101100110001
1111100111001101
1111111001010011
1111101
11101
11101
0
111010
1111111110011100
1111111001000001
1111110011100101
1111101000111010
1111101001111110
1111010001101011
1111000100010110
1110110101110011
1111000101101000
1111010001100101
1111000110001000
1111011110101001
1111100110111100
1111101010010000
1111101111110011
1111101010001100
1111100111011101
1111101000101011
1111101111111101
1111101001000101
1111110000010101
1111110001100001
1111110101111000
1111111110111010
1111111111110110
1111111111111000
10010
1001000
1111111111010111
1111110111111110
1111101100010011
1111100100010011
1111011100110111
1111001100111001
1111001111100101
1111001110011100
1111110111010010
101101101
1110000011
1111001100
1111111001001110
1111111111111101
110011111
1111110111001011
111111100
1111101101110101
1111100111111100
1111110010000110
1111101001111010
1111110000000010
1111111000101000
1111111111001100
1101
1111111111011101
1111111111111001
1111111111011101
1111111110110011
1111111101011111
1111101111000000
1111110000001110
1111100110110010
1111110001100111
1111111001110110
1111111110100101
11110011010
1101111000
1000001000
1110110111
1001010000
101101001
11001010
110011101
1111110010110011
1111101110111001
1111110000110001
1111110101010000
1111110010000101
1111110100001000
1111111000111101
111110
1100
100011
10
10110
101110
1111111101001010
1111111010111000
1111111100000000
1000000001
11011111001
10011100011
10110010110
1110000010
1010001000
11011011
10100111
100001000
111001001
1111111001000000
1111111101111000
1111111010
1111111111101111
101
1111111100010100
1111101111011000
1111110100110101
1111111011101100
10000110
11011110
1111111111101000
1111111111110101
100111
1111111111111110
1010001
1011101
1001100100
10101110100
10011011101
101100011
100000110
1010101101
1111110010001101
1111110011100100
1111111111110011
1111110101000111
11000010
1111111000001111
1001001
1111111001101111
1111101101111111
1111111110011010
1111111011010001
1111101001000110
1111110011010100
1111111111100001
11010101
100000111
1111111111101101
1111111111011110
100000
10010
110000110
110110101
1010100111
1000110101
100100000
11011001
1111111010100001
1000100000
1111111000010010
1001101011
101101011
1010
1101001111
11010100
1111111110110011
1111111011011101
1111110111000110
11111011
1000000111
1111101111001011
1111110101010000
100000011
101111000
101001010
100111
1000
1111111111010110
1010100
111100100
1100101111
110100110
1111111101000101
1111111100000100
111001101
1111111100001001
1111111101001000
1100111
100101101
1111110010000100
1111111011101110
10100100101
1111111111000110
1011110
1110000
1111110011100111
1111101111011101
1111110111001011
1111110001010000
1111110010110010
111010001
1100100001
100111101
101100
1000
1111111111111011
1111111111101000
1000100011
10001111111
1011110010
1111111111001001
1111110
1111111110001010
1111111001111100
11001001
1111110010000000
10010000
1111110011001100
1111101110110111
1111110100111110
1111111111100000
1100000
1111111110100010
1100110011
1111111110000100
1111111110111010
1011001
110010010
10010000010
1010000101
10100011
100101
11110
1111111111101001
10111
100011101
10000100101
1101101001
1100110110
1111111
1111110101011111
1111111010101111
1000111100
10000111
101001001
1011110011
1111111100000111
1001101010
1101110
101000101
1010001100
1000001010
1110000011
1111111111100010
1111110111010110
1000111011
1111111101
110100001
1110110
10110
100000
110010
101010
101011010
110110110
1111111111111100
1001011000
1000000101
1110010
1111101
1001001110
1101110111
111101010
1000011000
1010110101
10001011101
1111111111110011
111100010
1111110111000010
1111111111110100
1001010001
101100011
11111101
100101011
100011000
100110110
100010
1111111111110110
110100
1110
110011
1101100
10010001
1111111010101011
1111111000000111
100111011
1111111100101011
1111111100100001
110000010
1111111010110010
1011000001
1000010110
100101100
1111111000100101
1111110101101011
1011001100
1111111011000110
110010001
100011101
1000011100
1101011
1110011100
110100000
101111010
1
11001
1111
1111111110011101
10001
1010
1000011100
100010101
1111110100000101
110
10110110
1101111110
1111110101100001
1111111111000010
1110000010
101111111
100010110
1111110110001111
100011010
1111111011000011
1111101100011101
100011101
1111110010
1010110000
1000110010
10001011001
101001011
110010110
10010
1111111111000101
1111111111001000
10111
1111111111100011
1111111111010111
1001011110
1001010110
1000001100
10000111111
1111111110110111
1110011111
1111111000010100
1100010110
1111111101110011
1101101
1111110111111111
1101110001
11110010
1111101110011011
1111101000001101
1111111100110001
1010001100
1010111001
1011110010
110000010
11001011
100001101
10
11011
110
10
1111
1111111111101100
111000011
1110111101
1100101101
10011010011
1101000000
1010
1111110110101111
1111111110010111
1011011010
10000100
100010000
1111111010010101
1111101101100000
10100010
1111111100001100
1111101100111000
1111110110001000
1111111111010001
1000101
1111111010010110
1001101
1001100
1001
0
1000100
1111111111100100
11
1001101
100010101
11101010
1111111101111001
11110
1111111101010011
1000001100
1111111111000101
1111111111110001
1111111110100111
1111110101101111
100111010
110011010
1111111111110100
1111111111101001
1111111011101110
1111110100001110
1111110100101110
1111110110010000
1111111101110110
1111111111011101
1111111110100011
1111111111101000
1001
1111111111100000
100
10101
1111111111100101
1111111111001100
1
1111111111000111
1111111110110000
10000110
1100100
1111111110010110
1100010
11011110
1111111110101001
100111011
110001101
101100001
100110
1111111111001000
1111111110100100
11000011
1110010
1011000
11010
1111111111100101
10
1010
111
10101
1111111111111001
11
1111111111111000
0
1111111111100001
1111111111001010
111
1111111111010001
1101
1111111111111001
10
1111111111110000
1010
1111111111100000
101
1111111111101010
111111
1111111111010010
1111111111110011
1111111111010010
1111111111101101
11010
10110
1111111111100110
1111111111010100
1111
111
10100
