1101111101
1111110011110001
1111111100101111
1000100101000
1111100010110010
1111100000100010
1110011001100
1111011000101000
1110011001101011
1110101010011000
1111011011110100
101100100100
1110100000001101
1111110111100
1111010101000011
10000110
1111000100001010
1001011001
110010000
1111010010011010
1110110101101010
10000100011111
111111100
1010101000100
1111110000000100
1110010110010000
10000010010
1100011000011
1110010000000010
1101101010001
