1110010011010
110100100111
11010100101
1110011011101010
1111111001000110
1111011001101100
10101001111
1111111111111001
1111100111100011
1111100000000110
1001000011101
10100101101001
1111110111000001
1111110110111010
1101000010100
10001110001
11101111001
110111100011
1110011011001010
1110000000011001
101010000100
1111010011010011
110110001001
1011010111
1110111011010101
1011011001010
1111000110101010
11001011001110
1111010000100001
1110111100100111
