1111100110101
1111101101000101
1100000011101
1000011100000
1111010111101001
1111011011111011
1011111110111
1000000111010
10011110110
1010011001101
1010001000101
1011110110010
111100000010
111110100110
1110110111001010
1111000010011101
1111101100011110
1111110001011
1110010001001110
1111011000010110
11110011011
11101011011
1110010011000000
1111101011001010
11000100000
11011110
1110110101001001
1101001110100
1110110100110011
1111100000111110
