1111101000011111
101011101111
1000011101001
1101000011101010
1101010010
1111101100110011
1111011011111110
1010110110110
110101011000
101110010010
1010101001101
11101001101
1010001100110
1111011101000000
101000101001
1111100010101110
10000010111
10000001001110
1110111101111110
1111100111000000
1101110001011
1100110010001000
10100101
1110100001001011
1110011010011100
10010000011011
1111111100110000
110101111000
110101010100
1110111101000100
