1110101010001110
101101000100
1110111101000100
1111110100110000
10000110000011
1111011011000111
1110111011011
11010000110
11110
110000100000
100101001110
1111000001010000
1111101000011100
1011110100101
101111110111
1111001010000011
1110010001101111
1110111001100
101010100110
10000111110010
1101110101110100
1110101011110000
1110000001
1111110110010011
1111001110011001
1111001001001110
1110110001100000
1110001111100010
1111110000100100
1110110111100010
