1111110010111010
1110101100101000
1111001000111
11000100110001
1110011000101000
1100101101111
1101110101100100
1111000001001010
1111001000111001
10010110000011
1110000100011010
1111001101011001
110010010111
10110000011
1111110111111100
1111011000010111
1111010001001100
1110111010000001
1111111101001001
1111110001000011
1000011110101
1010010100010
1110110001011000
1000110001001
1111111000000100
1111101000011110
11111100101
1111110110110100
1110110000101101
1111001110011011
