1010011000001
1110110000111111
1100001100
11100010111
1110000110010001
100000011101
1110111001100111
1111010111001110
1111101111001110
1111011010110011
1111000111111010
110001101001
1101010111
1110101001111111
1111111001011110
1011011000011
1101111000001
1110100000100110
1111010011100001
1101111011111010
10000010010
1011000000111
1111110010110100
1111110101101010
10001100110101
1111111111111111
110000110111
1011010010101
100100100000
101100010101
