1001010110001
1001110111110
1111010100000111
1110110100101101
1011010101010
1110110110001111
1111001100101010
1001100101111
1111111110010001
11001100001
1101100100000
100010111011
1111011011100000
1110111101111001
1111100000010010
1111110011101101
1010000101
1000010101110
11111110
101011000001
1001000001110
1110111011101100
1111100010110111
1111010101000011
1011011111110
110010010000
1111010010100001
1111110011011101
110100000100
1111100110010011
