1110000111011110
10111110000010
1101000011101001
1100001101001010
100101111011
1001101100011
1110011010100101
1111011101110001
11000111011110
1110111001000000
1100010011111000
1011111010100010
11110010101000
1111110011010010
110000000101
110100101111
1101000101001000
1111010111001101
1111000111100011
1110100000101111
