1010011
1111111101011101
1111111011010100
10001
110001
1111111101101010
100001011
10001
100011110
1001110
1111111101111000
1111111100110001
1111110111010110
1111101001101100
1111101001100100
1111110101110111
1111111110100001
100010110
10011110
100010001
101000101
100100110
1111111111000001
1111111101000111
1111111100101100
11010010
1111111110110100
10101100
1111111111111100
1111111111110011
1111111011000100
1111111011001001
101110010
100110101
1111001111011100
1111001011110010
1111011101000101
1111110010101110
1111011110100110
1111110000010011
1111101100110100
1111001111000010
1111010111010001
1111111000101101
1111001000100000
1110101111111100
1111101001010111
1111000000111111
1110101100001101
1111001000001100
1111011001000010
1111100011010010
1111111110110010
1111111111001000
1111111100100001
1111111101101110
1111111110101110
1111111011010001
1111110001001111
1111100101011001
1111010111011000
1111101001100101
1100111
1111010100000100
1111111000110001
1110111111110010
1110101000101010
1110111111101010
1111010000100001
1111010101010001
1111000100011011
1111001011101011
1111011001010000
1111010011100111
1111001000110011
1111000101100111
1111000011001101
1110101111011110
1110111100101110
1111011010111011
1111010111010100
1111011111111100
11011100
1111111100011101
1111111100011010
11001111
1111110110010010
1111010100111000
1111101010100111
1111101111000101
1111010011000000
1111011010110011
1111100010010101
1111000001100010
1111010111000100
1111001
1111101111101000
1111001000000001
1111011111011100
1111100111011011
1110111001100011
1111011001110001
1111010001110100
1111000111010110
1111100010110010
1111000001101000
1110110000011000
1110110011100101
1110110011010110
1111101010000011
1111111111001101
11000010
1111111101011111
110111011
1111110101011111
11110110110
11001101
100100001
1111110100101100
1111010111101111
1111010111010110
1111000011111100
1110110110001010
1111011100001110
1111101100001010
1111011111010111
1111100000100010
1111111111011001
1111101101011011
1111100111010011
1111101110000010
1111101111001000
1111000101001101
1111000011001110
1111000000010100
1111010011111000
1111011110110100
1111011111011000
1111110100000110
1111100100110011
101010001
1111111111110111
1111011110010110
1111100011001011
1111010010001111
1111111101111101
10010
100101101
1001000100
101110110
1111110010010010
1111101011100000
1111100010000001
1111010001011100
1111100110011001
1111110110000101
1111110011110110
1111011110100111
1111001101101010
1111000111010011
1111001101010001
1111001000111011
1111011101001101
1111101001110101
1111010111001100
1111100101100011
1111111000010010
1111101111101011
111000
1111110000111110
101101000011
11111111
1111110010101011
100011100010
1111111001010111
11110
1111111101010111
1111110101000100
1111101111001010
1111100111101010
1111101001011000
1111100101010101
1111110011001010
1111100101101010
1111100101111101
1111100110000010
1111110011111011
1100001010
1111110000110100
1111111110010010
1111111010100001
11000000111
1111110111100101
10111101110
10001100101
1111011101100011
1001101100
10000011010
10100101011
10000111
111111000
1111111101001011
1111111000110111
1111111110010011
1001100
1111111100010110
1111110010100000
1111110110011110
1111100100100001
1111101010000011
1111110000000110
1111111011011100
10111010001
10111110011
100000111000
100110110110
100001010110
10110000
1001011100
100010110101
111011010
11000110101
10001111100
1111100110110001
1111101100011000
1111110010101011
11001100101
1111111111001100
1111111010000101
1111110010
100011101
100001101
101101100
1111110101101100
1111100001000101
1111111101011001
1111100111101110
1111110100010100
1101011010
100100110001
100001111011
100100000101
100100010100
11000110000
10111111111
10010100000
1111101110110010
100101000010
1111111110001100
1011010
1111100101001011
1111100110101101
10001010000
10100010101
1111111011010101
10011101111
1010111100
100111100
111011111
1111111111100010
1111111100101001
1111101100010010
1111101000011011
1111110110011110
1110101111
11010010110
11101000010
101101000101
100010101010
100111100011
11000100100
1100100010
11000001
1101101011
10001101001
1111111101
1111111000110001
100000010111
1111111111010110
11101100110
1110000010
100010010
10011111
1011111110
10000010000
1111111001101000
1111111001011110
1111110010101001
1111101001001010
1111110111110111
1111100111001111
1111111100111111
100100010
10011111111
11101
10100101111
10111111000
11010010101
11001101001
1110001101
1100101101
10100110011
101100010
1111101111100101
1111110011101101
1110111110
1100000111
10001111001
11101110000
10100110001
1000001101001
1101100110
1111110101000001
1111111111100101
1111110010101100
1111011110110000
1111111100100111
1111110111001001
1111110001001010
10001000
1011010001
1111101011101101
1111111011001101
100111000
10000110011
1100101100
10010000100
1001101101
100001001100
100000000111
10000100
1111101110011111
1111101001010110
1111110011010101
11100101
1111000011
11111100000
110001010101
1000010111000
100101000100
1111010101111111
1111100110001011
1111111010011000
1111101001000011
1111110111000011
1111111001001111
11000000
1111111111000001
1111111010011011
1111110101011101
1111110111001110
11001000111
10011110011
1111111110011010
1100110001
1101000111
10101111000
1101110110
10111011011
1111100011000011
1111001110100101
1111110010110011
11010000010
11010100001
1111111001001000
10111001100
110101010001
110100000
1111111100000011
1111111000100110
1111111010000000
111010010
1010011
10001011
1111111111110100
1111111111111100
10000101
10101110000
10000000111
11111101110
1001001101
1111111101110111
1100010110
1111101110010111
1001110011
10110100
1111110111000001
1111011101101100
1111101110011110
1111111000101100
1111110011011000
1111010110101001
11001011000
11111010001
100010100110
1011011101
1010100000
1111101011010000
1111110011010111
10111111000
1111111100101001
10110101101
11100000
1111111010110100
1011010001
10100011011
10011000110
10000100110
10011011010
1010110110
11101100
10010100110
1010101101
1111111001110111
1111100100101010
1111100001001110
1111101011010101
1111110000000010
1111010110110010
1111011010111100
11100101101
10001010010
1111111110011011
1010010100
100010001001
1111111011101001
1101100110
11010010111
1100100011
11011101001
100001001111
11000011101
1100010100
1111111010101001
111000001
100111010
10000101110
111010101
111010000
1111101000001101
1111110111001001
1111100100101111
100001100
1111111001100011
101011101
1111100100111001
1111101010000000
1111100011111001
10100010110
1111101101101101
1111011101001000
1111111100110111
101001011001
100110111100
11111001110
100010111110
101100100110
110001111000
11100011111
11110100111
10010111000
110001011
11001011
1111111110010000
101100010
100001111
1111110100100000
1111100101001110
1111101100011101
1111111011100011
1111110010011111
1111101110010111
1111110100010101
1111011011110010
1111000110000000
100011001
1111111010110011
10011111001
1111101111001001
11010000
101011100011
11010100000
111011100
1001011010
1101111101
10001110011
11100110011
10100010100
1101111010
11110111010
11011101110
110010010
1011010000
10110000011
110010111
1111101001111011
1111111001000101
1111110100010001
1111111110110010
1111111000100010
1111111000001001
1011101111
101001010
1111111101101111
1111011110000100
11011000011
11000100
1100011
10010011001
100011111001
1111110111110001
1111111010111000
1111111011100010
1111110100010001
1001010110
11011100110
10010100110
11010111010
11000011011
1110010000
10010011111
10001110
100010011
10100001
10011011101
100110001
1111101010011011
1111011101101010
1111000101101010
1111110101000011
100100010010
1111111110101001
10110
11000111001
101110010
100101100
111000101
10000010000
1111111010011001
1111100101000001
1111100011011110
1111010011010100
1111011100001000
1111100111100110
1111100010100011
1111101110011110
1110011000
1101011101
1111111101100100
1111110010100000
10010010
10000011000
1101111000
100011
1111100111100111
1110111101101000
1111000001100100
100100000
1111101000101010
11111101110
1111111110101100
10000000001
1111100111011000
1111101000010000
1111110001110010
1111110110001111
1111101101011010
1111110100001000
1111101010111101
1111011110010110
1111010100010010
1111010111111100
1111011111100001
1111101100001011
1111111110110100
1111111101010010
1111110100100000
1111111001101111
1111110110111010
101111111
1111110011001011
1111111010010010
1111101001111111
1111100101100100
1111010011111010
1111011000101100
1111111110010011
10011100111
1010100010
101011010
1111101011010101
1111100101011101
1111000001010011
1111111011010100
1111110100101101
1111101110001111
1111100110110011
1111110001000110
1111011100100010
1111010010111011
1111100000101101
1111011100010101
1111101011101110
1111110101101111
1111110001101100
1111111000011001
1111110111101111
1111111011001110
1111110110000011
101000100
1111110101111011
1111011000011101
1111101000100111
1001111101
1111111100000001
10101100001
1010001
1000011100
1111100011101011
1111110111100000
1111010110111110
1111101101111011
1111111010010110
1111110101110010
1111100001101001
1111101000110100
1111101111101110
1111010111011011
1111100100011111
1111100011010011
1111101111100001
1111110000101110
1111110000001111
1111111001000111
1111110000111010
1010100001
10001
1111110100001100
1111110110100111
1111100001000111
1111111111101011
1111110010001101
101010110000
10101011110
1111111110100011
1111111111011100
1111111011001010
1111111000100010
1111111010001101
1111110100111000
1111000100
1101011110
1111111011111111
1001011001
101101000
1111110001110101
1111011100100001
1111001110001001
1111100000110111
1111100010010101
1111011010001011
1111100001010100
1111100000000101
1111101101110111
1111100111100000
1111101101010100
1111100100011101
1111011100110110
1111101110010011
1111110001011011
111011000010
11101111
1111111011011100
1111111110111001
10100010110
11000000100
1001110111110
100111110010
1001111011
1000001110
1111111111011010
1111111001100111
1111110001111001
1111111010000011
1111011110100101
1111011110000001
1111011010100101
1111000001010000
1111011000111010
1111101000011100
1111100110110001
1111100110000010
1111100011110000
1111011111110000
1111100001100101
1111111101010001
1110110001
1111111111100100
1111101000100110
10011001
1111111011111010
100100101
1111110010111010
11100101000
1111110111
1001100010
1001110010
10011111100
10110100111
1101001011
1111100010001101
1111101011110000
1111110111111000
1111110111000100
1111100100111011
1111110001111101
1001100011
10001001
1111110100101100
1111110011100101
1111101100110111
100101010
100100110100
11100000110
11100100000
1111110010100010
1111100010000011
1111111100111010
1111111101100001
1111111110100111
1111111110110001
1111101100100001
1111010101100110
1111101001011001
1111111110000100
111011010
101001001010
110101000
1111111001101010
100000001001
1000100111
1101000001
10001111011
101000101000
1011010111
1001110011
10010110110
101010011111
11001001100
1101010110
101001011001
1111111111011000
1111101111001100
100111
101001110
1111111100001011
1101011
10100101
1111111010111001
1111111101001010
10101111101
100110111010
10000110101
110100111010
111111010000
1011011111011
1010101010110
1000000000011
111011111000
1111011011101
111100010010
1111110010110001
10010110101
11111111110
10010001101
1111111010111010
100100010010
10101110100
1100110110
100000000
10111
1100001
11000001
101011001
