1111111011100011
101001000
1111111110001000
1111111101111001
100010000
10111101
100110001
1111111011000000
11110010
101000110
10011011
1111111010110100
10111010
10001011
11101010
10111011
1111111100101111
1111111111001100
1111111110100011
101011100
1111111100100111
1111111111011100
101000000
100110
1111111101010001
1111111011100101
1111111111101010
1111111100101010
100010000
11111
101010001
1111111110101100
1000
1001101111
11101101000
11011101011
11010110001
110000110010
110111000010
1000110101
111011101
1111111111101001
1111110110101101
1111011111111101
1111011110000000
1111101111101110
10010100101
111111110
1001101011
11100111001
11001111101
10110101101
1111111010110110
1111111101000111
1101000
101011011
1011111
10010100
100001000
1111100001101111
1111100001001100
11010100111
100110101100
1111101110110011
1111000111
1110000001110
111011000101
111001110110
101110110011
101011001000
1000100101111
11101110110
1010111011
110110100011
100100111111
100010101100
100001101100
11110010011
100011111010
11001100101
1011
100111000
100100011
10100111
1111111010111000
1111111110001000
1111101011111110
1111011100000110
1111101001001011
110010010101
111101110111
1111110111000011
100000101001
10110101101
111111100000
1100101011001
1011100111101
101110001000
10101101001
11011011011
10000011000
110010010
1111101011000100
1111110111010100
1111111100000010
110101110011
1000001111111
111001000101
100011100000
1111110000111010
1111111010110110
1001110
1111111111011101
1111111111011000
1111100100100111
1111100000100101
11010101111
10000111110
1010001001110
110100000
1101100111
10001101
1111100011111111
1
1010100010
11001001
10001000110
11100001010
1101010010
10111001110
1010101110
1111100010000110
1111110101000000
1111011101000111
1111110011110011
11100000001
100101011110
1110101110
1111100001101110
1111111011100011
11001110
100000110
1111110110010001
111101010
10001110010
100111110000
101110110110
110000111000
100001011001
100101111101
100101011100
101101010000
10101011100
101110101
111000011110
101000010000
11001000100
111001011100
10001000001
1111110111101100
11010000000
10001010100
11000100110
111001110101
1010101111101
100101011010
10001100
11100010110
1111111111011001
110111000
1111110111101111
1111011001110011
1111011010101101
1011101001
1111011110
110110100100
110011011110
100000110101
100100101011
10001010100
10110101110
100110000110
1100010110011
1011101001110
1001110101011
1011101110011
111011000011
111010
11000110100
100011010
1001011100
100110100111
11111000001
1111110111000011
110010001001
1111111100011010
1111111001110110
1111011001011001
1111100001000010
1111001000011011
1111010111111010
10111101
1111110111001011
1111111100000001
1110100001
10100101111
10101111110
10011110111
11011100101
1000010001010
1001001001110
1100101111010
1100111010010
1010110111100
101100101001
11000011011
10000000000
1111111011010100
1000111001
1101100110
1000010110
11011111
111101111110
1111110111111010
1111110001000000
1111011000000011
1111111100100011
1111101110011101
1111101111010011
1111100001010010
1111010010011001
1111101001100111
1111111101101000
11001001001
111101111
10001000100
100000010011
11111111101
100100101001
111001010010
111101001011
110001100011
11000000100
10100101101
1100000111
1011000111
100100101
1111100111001111
10101111
11011110110
1100000000
1001110
1111110111011100
1111010100000101
1111100110
1111111011101111
1111101110100100
1111010001110101
1111010001001101
1111101111101011
10001001010
10000000000
10011001
110000001
1111110101000011
1111100000100100
1111100101000111
1001111
10010101101
11101100011
11000100011
11010000001
1100001010
1111101111101101
1111011101100001
1111111001001011
1111111011111010
11110000011
100110010100
1111101011100001
1111110100010110
1111001101101110
1111011001110001
1111110011101101
100000
1111000110111110
1111011111000001
1111111000111111
101010110
1111101100010001
1111111010001000
1111011101011011
1111101001011111
1111001101011111
1111010000010000
1111100101000000
1010010100
11011011000
10001101010
1111111000101011
1111111101100010
1111101010011101
1111100100000010
1111111001011000
1111000101
11001111011
110100011000
1111011101000011
1111110011000000
1111110010101001
1111101111010011
1111000001111101
1111110110001010
1111100100001111
1101100100
10101000
1111100101100011
1111100000001110
1111011001111111
1111101101001101
1111101111101110
1111000100010011
1111000010010011
1111100001000110
1111111111
10101111001
110000010
1111110101101111
1111101011011110
1111111000111111
1010110101
1010
100100101010
1000100010111
100111001110
1111100011000001
1111110001100110
1111010010100101
1111100101101110
1111011111101001
1111011101010111
1111110100010001
101001100
1111101101110100
1111101000100100
1111100100111110
111010001
1100001000
1001110100
1111110010001100
1111010010010001
1111110011000001
1000010000
10000101001
1111111011100000
111100001
1111111011011011
1111110000001100
1111110011000100
101011001
100000100011
10000100
1111110000110000
1111011101111000
10101001110
1111011100110010
1111101011100110
1111101110010010
1111011111111010
1111100010111100
1111101111101100
1010010110
1111111111001111
1010111111
100000110010
10110010010
100010101111
101100011
1111110100101101
11001011011
11001011010
10100111011
1111101111
1111111111110101
1111100110110100
1111000001011000
1111110011011100
1110000011
101010010100
10001101111
10011011
1111111000011001
1001011101
1111110100011001
1111011110101110
1111110001000001
1111100101011001
1111111101101010
1111111101000101
11101111001
1010011
10111100101
101011111000
101100011101
100101011100
1111111011001111
1111110100001110
10011010111
101000010010
101001011110
100100011
1111101001010110
1111001010100111
1111100101010110
10001011101
1111110111111000
1111110011010001
1111111000101110
1111001100000101
1111101111100100
1111110100111100
10100011
10011111011
1111110011011110
1111111000101111
11001
10111101
100010101111
10110100101
11000111101
1001011101101
110010110101
11111011100
1111010110010100
1111001101011111
11011
110011011001
100110010010
11011010
1111101010001010
1111000111101010
1111110011110101
1001111111
1111110101010011
1111110000010000
1111111111000111
1111100001000000
11101111011
1111100110100101
1111110011111011
1001100010
1111111111011000
1111011110011001
101110001
1111111000110010
1111111000011000
100110000
100001110000
1000000011111
101101111101
1000011101
1111101010110100
1111000100001001
1111110000110101
10110000010
10101010010
1111111111011110
1111100001001110
1111111001110111
11100111
1111111111010111
1111111001011100
1111110100000110
101010001001
1111101111101111
1111111111011001
111011
1111100100100000
101101
1111011101111101
1111110011100010
1011011
1010010000
10110101
11000100110
101111111111
101111100000
1100101110
1111110110111110
1111001100000101
1110111000101101
1111100011110010
1000001011
1011100110
1001111000
1110001110
10001111
1111110010001111
1111011111100110
1111101001000000
1111101011101011
1111010001110110
1111101010101010
1110101110
1111100111101111
1111101111001101
1111101000001000
1111111010101101
1111111100000101
11100
11110010
11111111110
110010111010
100010011111
101101110110
100000101100
1000011101
1111010101101100
1111010000011000
1111110100011011
11111001001
10111001101
10100110100
10100000011
1111111101101110
1111110011001101
11111001111
100011111101
10101010000
1111001111111111
1111101010010000
1100001101
1111111010110001
1111100010001000
1111011101011110
10111111001
1111100100101101
1011000111
10001100001
100111000010
110100001100
10101111100
11010110111
11011000110
1111111000101010
1111011010100011
1111101010001111
1111111000111000
1111111101101010
10001000110
111100110000
1000111100111
1000110100101
1100011000110
1110110101010
1000110000000
110001111111
1000111010
1111110111010111
1111110011010101
1111111011011101
1111111001011010
1111101000100010
100111000
1111110001001001
11011001000
101001001110
1001100001111
10111011011
1111111110110001
1011001011
10110111
1111101100011001
1111111110101101
1111101001100100
1111101011111000
1111110011110010
111001101
100000001111
111001110111
1001110001110
1100101011000
1010010100111
1001111000110
10000101111
11001110000
1111100101111101
1111110001011100
1111110010001101
1111110110100111
1111101101100111
1110101100
10100011000
1001010101011
110111000110
111011001111
101100100111
1010110
10100101110
1000111001
10101110010
110001011
1111000
1111101001000100
1111100110100110
1111110000010011
1111101101110000
1111011011010001
1010010111
1001001000101
1100011011111
1011111001000
1110111101
110100011
1111011110110011
10111000
1111111000000000
1111111000111011
1111101110010101
10010010111
11001010011
111111001010
110011010000
1111100101
1001001001
1111110011110110
10001011101
10000100100
1000010010
10101101011
10110
1111110101111011
1111111011100000
1111100000101001
1111010110011011
1111011101000010
1111111000101101
111100111000
1100001001011
110110111111
10110100
1111111101001000
1111101110101111
101010
100111011
1111111100110111
10001001111
10000111001
10010101000
11111011
1111101011111101
1111110000010101
1111110110010000
1111111001001101
101101110
1111011110
110100010
1110011011
11010001111
10101110101
1111111101110010
1111010100110000
1111101110001100
1111110111101100
110001000
1000000011101
11111011110
1101011000
1111110011000010
11010011111
1111011101001110
1111111110100011
100100111
1
1111101111000101
1111101000101010
101100011
1111110100101010
1111100000101101
1111110000101110
11100010011
110001111011
10001110100
10101100100
11111111110
1011100100
11010110110
110011001011
11011110100
1111111111001010
11000000
1111110000111001
1111101000010011
11100000000
1000001110101
10110010000
11111110111
10100111011
1111100010001111
1111111101001001
1111111111001101
1011
1111100110
1111101010111101
10001110110
1111111011101111
1111110101111000
1111100111100100
110000110
11010000100
10011000011
1010011101
1111101111100100
1111101001110000
1111011000010100
100101100
1111111001000010
101110000001
111110101010
110110001
1111111000101110
101110100100
100010011001
100001101001
1111111111000010
1111000
1111111111001110
100010101
10010110
1111111111011011
10010000
1111110001100101
101010000011
10101111
10111001
1111101000001001
110101010
10111111100
11000001010
1011000111
11011110010
1111011100010010
1111110000000001
1000100110
10001100100
11111101100
11111100001
1010001011
1111111000010111
100110011110
1111110011010111
1111110101000111
100011101010
11010011
110001
1111111011001000
1111111011110101
101010111
10101
1111111111000100
1111101111001000
1111101011101110
10101011001
1000111101
10000011100
1111010001
1111110001111111
100000000011
100000100000
1111011010000011
1111011011010010
10001111100
1111110101010100
1111011101111011
1111101110000100
1111110110101101
101000101111
10110101000
11100011
1111101101111111
1111111110101001
1111111111100110
1110011
1110101
