1111111111011000
1111111110100100
1111111011100011
1111111101011010
1111111100111110
1111111111001110
111100
1011000
1110110
101101
1111111111010010
10111101
1111111110011000
1111111011110100
1111111110101111
100011110
1111111011100011
1100101
1111111100100000
1111111110110000
1000000
10000101
1111111011000001
0
1111111110111110
11110011
10010011
1111111011000111
1111111110110010
1111111101011101
1111111111111010
1111111100110101
10010001
1111111111001111
1011111101
1100000000
10011100101
11100000010
11101110101
100010101011
101100001110
11001010110
1111011101111010
1111010001110100
1111010111010101
1111110011000001
1100101110
1110000111
11011110110
10011100111
1101111100
1001101111
11001110
1111111101000111
1111111111100001
1111111111101010
11100
11100100
1111111011011011
10001010
1100001101
1111111110000100
1111110001110000
1111111001110101
101110010110
100010000001
1101100010
11001001110
100101011001
1111100001011101
1111011000111000
1111011010011101
1111011100010011
11000001110
1011101011
11011010101
111010101
111101110100
10100011000
100011101101
10001011111
1111110111010000
1100001
101010000
10011111
1111111111110011
1111100100111001
1111110010001011
10100100
100101101000
110111001100
1111111000110001
11000110111
101000101
11111010010
11100010100
100010000
11010101
10000011110
1110000110
110100111
10101000100
1111101110000011
1111100110
110111110
111110111
1010000101
1111110111100001
1111111011101010
1111110110001101
10000101111
1111111101110111
1111111010100101
10011011
1111100111001101
1111110110101101
1101000001
101110000000
111001100111
10011010100
1111101010100001
1111110110011101
1111111100101110
10111010101
101111000000
10111011110
1000111110
1111110100001001
1111110010100110
1111110110111011
1111101100000001
1111101000000010
1111100011011111
1111100011000010
1111101101111100
1111100010100001
10011111001
110011111000
11011111101
100001011111
1111111111101110
1111101
1111111110110001
100110011
11110010110
101100010011
101010000111
110011101110
101101110000
111110000111
1001010111110
1001000001111
1000100101001
100010001101
11001110111
111101101
100001010100
1
100000001001
1011101011
11000
110001001
1111101111111000
1100010100
100010100010
11110101010
100000100000
100101100000
10111001
1110011010
11011010100
100101111000
101100111
101011010101
101000101101
11011010011
110010001100
100111111110
101111010001
1011011011
101001
1111110111111010
1111100100001110
1111110000010000
1111111000110000
1111110011100010
10111010011
1100011100
10001110011
1111101010110101
1111101011
100101100
11011100100
1100010111
1010101111
1100010011
1111111001100110
1111111010110100
11111011001
1001011101
1111111010000111
100110111101
101100100000
100010000111
100111111100
1011001001
1111111010101000
1111101100110000
1111011110110000
1111011001101111
1111011110111011
1111101110001001
1111101010110000
1001001011
11111011111
1111110100000000
1111111011111010
10011110100
11110101010
1111111101111100
11000100010
1111111011111101
10110100100
100100111000
11001011111
1111101111110001
1000101101
1111011001110100
1111101000111100
101100110000
100000000001
101101
10001110001
101001011
1111101100110101
1111011110011001
1111010110111000
1111101101011111
1111101101100111
1111110011000011
10001000100
101110100
10101011
101111000
10100000
11101110101
11000111111
1110000011
111111110101
100010100011
1001001101
10101011010
1101110011
1111100001111101
1111101110
1111100000111111
11100011000
11011011011
111100010111
10110000001
100100011010
1101010011
1111101100001100
1111110111010110
1111101000001101
1111101010010000
1111010010111111
1111010010001001
1001011010
10110101010
11010110110
10110100
101101100
11110000
1111011110011100
1111110111101101
100110000101
10111001011
1111111100110101
1111010101110110
10000100010
1111111001111001
1111110010100001
0
10111010000
11010100100
111011010101
1000111111
100110111011
1010000101
111001011
1101110
1111110101111100
1111011010100101
1110110011100000
1110111011110101
1111011101100001
10001000001
10001011001
10100111110
11111010100
1101101000
1111101000100011
10011000111
110011001110
1000011
1100111011
1111000101010011
1111101011010101
11011011100
1111011110011100
1111100000011011
1111111111100011
1101100100
101010000001
100100100011
11001010100
1000000
1111110110011111
1111110110001100
1111011101000111
1111001011001011
1111000001001001
1110101111011110
1111010100100000
1111111000001010
1111110100110100
10001001100
10011010010
11101100110
1111100110010101
110110000
110101110010
101101001110
1111111011101111
1111000100001001
1111110110011111
1111101001101100
1111011100011011
100100100
1111111001001100
101101111
11000000011
10000000011
1111111111000110
1000100100
1110010011
1010000000
1111111010010100
1111110101111111
1111010011001000
1111000011001101
1111011000111011
1111111001010000
1111110100100101
110101110101
101011110100
11101010001
1111111111011011
11010
10000000100
11011110001
1110110000
1111011101011000
111010000
10000010101
1111010111000001
10010000100
11110111011
10110111001
1111001010
1111110001011100
101111101
1111010111
11000100011
11000011011
1101110011
1111100101000000
1111001100100111
1111011100011001
1111101110010110
1111111000000111
11000111001
1011001010101
100010010011
1111111001100111
1111101100000010
1111110000111011
1111111110100001
1111111100001000
101011000000
101001001101
110010100
10001101111
1111110000000101
1111111111010000
1111111111001100
10010111000
1010100001
10100111
11111010
1111111110001111
10001001001
101101000011
10000010110
1111101000000111
1111011100110100
1111100100110001
1111111000000110
1111111111010010
1110010101
1001010101000
11101010111
1111111001100100
1111111011000100
1111110111110110
1111111001111111
1100
1111110110100000
10101110001
1111111000010101
11011110
100110010110
1111100111100110
11011111111
110000011011
101001101100
101011110000
1111111001010110
100101000000
1111011111
11101100
11000010111
1111110100101011
1111101100001011
1111101000001010
1111110011011110
100001110
11011010101
1101010001110
1011011010111
10000110011
1111111000101001
100100010100
101011001011
1111111111111110
1111100111101101
100110110101
1111100000111000
1111111001100010
100101011010
1111110101110101
10110110111
101110000000
100111100000
11001010101
1010111111
11001110100
1000100
1001000101
100000011000
100011000
1111101011001100
1111110111011011
1111101111000001
110110100111
1000101010010
110110001000
110000011111
1111110111101010
10001111000
100111101011
10001001100
111000101111
111110010001
111000110100
1111111011110110
1111100111100101
1111011011111100
1011011011
1000111001
10111001110
100010100111
100111010001
11101100110
10111111100
10100110101
110100010010
11010000011
1111110100111011
1111110011111001
1111111010101010
10110100010
101010000111
110101011000
100100110010
10110010110
1111111001011000
1011101001
10100001101
100011110
1111111100111011
100111000000
110111010110
1111101010010000
1111101101111010
1111010010101010
100110001110
1101010011101
1010110101011
1001110101111
1010001010001
1010000010
1111110111000001
10000000011
100101100001
10111101111
1111111011011100
1111111100000111
11010011010
100101011101
1111101111000011
10000
1111111011000110
1111110011011110
1111111111101110
11110001111
10010000001
100011110000
1111011110111101
1111111011100101
1011100
1111111101010010
1111100100011110
1111011010011000
100010000010
101001101010
1100010010110
11010101001
10100100
111001100
1001101
1000111010
1001001000
100101010
111011
1100111001
100111100011
1101110
1111111000010010
100100001000
1100011101
1001010110
1101100101
1001000001
10111001010
10110101
1111011011101111
11011100000
1111110001011111
11111010
1111110001100000
1111111011101100
1110100111
11010110111
11010000100
110100000
1111111100011100
1111110101011011
1111110001010101
100010010
1111111011010100
1111111111110000
10000000000
1001111100
100001001101
1111101101111010
1111011111001000
1111111011110011
10101000101
11011011011
1111111011110111
1111011101111101
100010000100
1111110011001000
1111100111100011
10101101
1111100111111101
1111111100000101
1111011001001000
1111100110011000
1111111001110000
1111111001110101
10001001
1111111101100001
10010110100
1111110110110000
1111110111001101
1111110001011100
11000000
10101101000
11111110000
1110111010
10010100
1111101010101111
1111101100101110
1111111100001101
1111110110111111
11001101
1111111100001000
1111110110011010
101001011000
1111100010000010
1111010000100101
1101010010
101010
1111110111101100
1111110011011011
11000001110
10110101100
1111101110000100
1111110111000000
10111111010
11000001101
10010100101
1111111100001100
1111100100
101101000100
101111111111
100010110000
1111110011101101
101101100
1111111110111111
1111110110000011
1111110011001011
1111111111000100
1111110010001001
10011100011
10001000001
1111111110100110
1111011101010001
1011110110
1111101011000010
1111111100101001
1111111100100010
1111111010101111
101011111001
100011010001
10001010110
1111101111010111
1111111100101000
100111001
10111101001
100001000
100000011100
101000111000
1110000011
11001001111
11000100001
10000011101
1111110010100000
1111110110101001
11010111101
10101001011
10100100101
100001111101
110001000
10000110110
100000111
101100100000
1111100110001011
1111111110011001
11001101
1111111100001010
11111011101
101101101001
1111101111111111
1111110110001100
1111101011110000
1100011
10110111100
11010101001
1011011110
11100111011
111011001110
101101000101
111010001011
111000011000
110001011101
11011011100
100000111
10101011
1101011101
10001010101
1110101101
1111110011001010
1111111001101111
101100011000
1111101101110001
100110101
110101
11111010
1100110100
1111100010100111
1111000010110110
1111011111001001
10000
1111100011110001
110000001
10111001010
11111011011
10010001111
101011100010
100110110111
10111011101
110001101000
11001000010
10100011011
111000101
1111111001010100
11100000
1000000
1111110100010110
10110100001
10010100010
10111001
10001010010
1111111011100100
1111111100011101
1111111110010110
1111111100101011
1111100101011110
1111110010010001
1111000111000100
1111001010101101
1111110011011110
1111011110000110
1110110011000000
1111100101011010
1111101110111100
1110110111011011
1111100000011010
1111100011001000
1111101111100001
11011010101
100110100010
1100111100
1111110000
10011010
1111111001111000
1111100010001111
1111100100000110
1111111100110000
10111101000
101011111
1111111110111100
1111000
10011101
1111111101111111
10011011
100101111100
101000111110
10110000101
100011101100
101011011001
111100010
1111001100010100
1111011111010001
1111110001010011
1111001111101000
1111001011000100
1111001101100000
1110101110100111
1110011110000110
1111000100010110
1111100100011000
1111111111100000
1111101101001001
1111110110001001
100101000
10111011
1111111111101010
101000111
1111111011010010
