10011100
10111010
1111111111000011
1111111011001011
1111111011010001
1111111100011101
101000010
100011111
100101101
1111111111101101
101000111
10010001
1111111101000010
11011010
11110101
1001010
1111111010111111
100010001
1111111011000100
100011
101001001
1111111111011101
11100111
11101010
1111111011111110
1111111110010111
1111111011001110
1111111101110011
1111111
1111111100111111
10011101
1111111111110000
1111110100001001
1111110011000001
1111110011100001
1111101011001101
1111110001110000
1111100011010101
1111110001001101
1111110010100011
1111100000100001
1111111110000110
111010100111
100001000001
1111101100001111
1110111101011000
1111011010000011
1111011111011110
1111010101101011
1111100001111000
1111110001101101
1111111001001111
1111111111100011
1111111100000111
1111111011010110
100010110
1111111100011000
1111111011001101
110100111
1111011110101101
1111011111111101
1111100001010000
1111010011111000
1111000101011000
1110111110010010
1110010110101000
1101111000000100
1110011000100110
1110011001001101
1110101100101100
1111010001110000
1111111100000010
11100011101
1001010111
100011100
1111100111000111
11010111
1111100011110010
1111110000110001
1111101011111010
1111101000110010
1001111111
100010
1111111010101010
1000010
1111111101110000
10001101000
1111110000111110
1111110111000111
1111101111111100
1111011111101100
10010000000
1111010011001111
1111011010100001
1111011011001100
1111011111001010
1111011011001011
1111010110111001
1111100001100110
1111101011001110
1111110011111011
100010101
1101000101
1111111111010001
10111011101
11001011111
110111001
10000101000
1111110100010111
1010001101
1001100110
1110011
101000111
10000100100
1111111110101010
1010011010
10110010010
10100110100
100011011100
1111110101100101
11110101001
10111100100
11001011
100000101100
10011101010
11011101010
100100001010
11100011101
100100001100
11000111101
11101010001
1111110111011010
1111110101100110
110100101
1111110011100001
101001100
110010100
10011111011
100110111101
1111101100111110
1001110
100111001
1111100011100111
101010011001
11001010
10010111110
10101010010
100100100011
110111010011
1000111111101
10111110000
110010011111
10011100111
11111110
1111111101011101
10001111000
100010011000
10101110100
1111110111011001
1111111010000100
1111111000110010
1111110010101101
10110101
111101101
1111111111111010
11010011010
10110100101
1111101010100100
1111111011101110
10000110000
1111111011011100
1111111000011010
1111101111100011
10000010000
1011000111
11100000010
100101000111
1011101111110
1000010101000
10110001110
100110000
1111111011111011
1111111110011101
10111000001
11101000000
11110111110
11001011101
10100001111
1010011001
1101000101
1101011001
111100011
1111111101100010
1111100010010001
100000001110
1111111110111111
11001000
10011001100
1111011110100100
1111110011
1111101100100010
100100100001
100001111101
100110000011
100111000001
101010001010
100110001110
1101010
1101111000
1111111000011100
1111110010111100
11111011100
100111010111
11011111101
111111010
101100010111
10110110011
10110100001
10001100111
110110001
1111111110010001
1111110100101001
10010010101
1111101111001000
1111011101110011
1111110010100011
1111001100110111
1011100
11010110110
111010101010
10111110101
1110000001
11110100100
10100100001
11100000111
10110001101
1111111101110001
1111111010111100
1111110111101111
10011110011
11110110100
11110110100
100100001001
100011000101
11110000
1111110111111011
10100110011
1111110010001010
10001111100
1111111100010000
11101101101
1010101011
1111101001010101
1011101001
1111110011010000
1101000010
1010101110
11011110000
11110101010
10100111101
0
1110010100
101101101101
1000011000
1111101001010011
1111101011000101
1111110010000100
111110000
11001111000
100100101011
1011100110
1010001001
1111111100001011
1111110000010010
10101010001
1001000111
100001101101
100010011100
1110011000
10100000
1111101100001101
1111111110010001
1111111101000010
111111011
11001001
1111111110110000
100010011
10011110111
11001110
10010011001
10001110110
1111101000010101
1111101000010010
1111100011111101
1111111000000000
100000000
10000110000
10001111011
10011001100
1111110010111100
1111110101010000
1111111100011111
1111111101000110
1011100
1111111000001110
1011100111
1111100011011110
101111101000
1111111011101110
1111011100101010
100111000100
11011100111
1010001000
1100010100
1111101110100101
100010
111001000
1111110111100101
1111101100111011
1111100100110111
1111100000110001
1111100010000100
1111100010
11011010011
1100010110
10001101100
1011111011
1111101001101010
1101111110
1111111011010001
1111111111000100
1000011000
10010101101
10000000
11110110010
100000110111
1111111111001100
1111110010101100
101110010001
100000001111
11100010101
100111001110
10110001
1111111000011100
1111101000110000
1111011000010110
1111010010101101
1111010000101011
1111001111011110
1111100011101000
10000111
11001011111
10011011101
11111111110
10000010
1111110010010011
1010101110
10100111011
1111111001100101
10100001011
1111100111
1111110010100111
1111101010
1000001000
111110110
1111110101100001
11001011101
11010100000
11001111100
1111110011110011
1111110011001100
1111110111011101
1111110011000010
1111100101100101
1111010110011100
1111010101111110
1111010101000101
100111101
100100110010
11011010011
1000010001
1111111111000111
1111110100000100
1101000
100111001001
11110101110
1010110111
1111111010111110
1111011001010001
1111110111010111
1111111100010100
1111100111101011
1111111011100110
110110010
1010010110
1011101100
110111101010
1111101110000101
1111101100011100
1111110100010101
1111101100101001
1111101000011110
1111011010110011
1111011010101101
1111101011110111
1111100100
100100010011
11001111010
1111111011101111
1111101111100111
111000111
11100001111
10110110000
10111011111
1111110101111010
1111111010010111
1111101001110010
1111111111000101
111101000
1111011000111011
101111111
1011000101
1111101111101011
1111110101001110
11001001101
111000111
1011000110
1111111100
1111110111000101
1111100000101100
1111010101001011
1111110010100100
1111111100011101
11010110010
101111000101
11100011001
1111110111010100
1111100011111000
111000010
1111000111
1110110100
110001010
1111110100110001
1111101100011011
1111011111000110
1111110011000000
10001111100
1111100000001000
10110001101
11110011101
1111111101111100
1111111000101111
1111101101111001
11100010100
100101011111
10110011
1111111100110110
1111101000011011
1111100001010000
1111011110100110
10011110110
110100011001
100001111000
1011110
1111111110100011
1111011001100011
1111010111011000
1111111010010011
1111111010101000
1111110101101100
1111010010001010
1111000101101111
1111011101001101
1111011001100111
1001100111
1111011001000011
1010
100111101001
1111110010011010
1111110110100000
1111110000100010
1111111000010001
1101100101
1111111110111011
1111101101000010
1111100000111101
1111010111101001
1111011100110011
10111001001
100111110001
10101101000
1111101110010001
1111110010010001
1111101001000100
1111011011010101
1111111101110011
1111110011010010
1111111010111111
1111001010101010
1111100111100000
1111101110101000
1111111111100111
100010110111
1110111111001101
100011000101
10100101101
101110010110
1111100111011100
1111011111100010
1111110101011111
1111110110011100
1111110010101100
1111101110101000
1111110111111000
1111100001100010
1111101110111010
101000110
1010011011
1111111101100000
1111100111111011
1111100101100001
1111101111101010
1111101101111110
1111111010000011
1111101011110110
1111110110010001
1111001001101011
1111100111100011
1111010111000000
1111101110001000
100011111001
1111100001011000
111001011
1111111010001001
11110111101
1111100001110100
1111011110111100
11000100
1111111000111011
1111111000110011
1111111011100110
1111110111100000
1111011101111000
1111100001101011
1111101110001011
11101100
1001011
1111100110111110
1111101001011011
1111010100110110
1111101100000001
1111110100001001
1111101000110101
1111101111111000
1111100101110001
1111110000110111
110010
1000101000
1111001001010011
1111101110010001
1111111101100111
1111100010001101
1111110110010101
1111110010111110
1111100010101110
1111111100011000
101010011
1011110
101010000
1111111010100000
1111101100010010
1111110110110010
110001111
11101110101
10101001101
1000011010
1001101100
111000111
1111000101
1111111110101110
0
1111110110001001
1111110001101100
1111111001110110
1111111010010010
1111110111110100
1111011001010111
100000101000
101111111
1111110110101010
1111111101001011
1111110110001000
1111101010001000
1111110101110111
1111111000000010
1111110110001110
1011001
1111111010011001
1010000000
1010000110
1010000011
10000001001
100011110111
100000110111
1111010110
10010010011
1100110101
1111010110
1111101111110010
1111111000111000
111001
100101110
100010111001
1111101111010111
1111001100110011
10010010011
110010
1010001001
1111101000011010
1111111011110000
1111110110100110
11011001
1111110000000011
1111111010011010
1111110010101110
1111101110110100
1111101110110100
1111111111101011
1111111110110000
10011111101
110001111110
1011110001
1100100110
11000111
10100000000
1111111100001000
100001010101
1111110000101000
11010100100
110010010100
1110101011
1101010100
1111001110110010
10010011100
1111111110000010
101011001
1110100110
1111110001010011
1111110010001001
1111110011111100
1111101100100101
1111111000011110
1111010110000111
1111100011000110
1111001110010011
1111101110010000
1000110111
11111011100
100101000110
100001010111
10010001111
11010111001
1001101001
1000110110
101001111111
10001011
1110111010
11000110111
11000110100
1011011101
1111110000101011
11101010
1101010
1111111110010010
101100101111
10100011110
10110000110
100110
100011100001
10010101101
1111101110010001
1111100110011101
1111110001100101
1111110010111010
1101011011
101110010010
101000111011
1001001011101
1001001100001
101111010001
10110001100
101100110010
1101111100
1111100110110111
1111110001110111
100010011000
11000000011
1111011110000100
1111110110011110
1111111100111000
1111111010101011
1111111011011110
1111011001
10101101010
111010010000
101110101111
110011111011
110111110010
1100000110111
1011101010111
1011001001011
1010010011001
1101001001101
1110011000100
10001100011001
1110101111000
10011010001001
10100011111101
1110100101000
111001101111
11101011111
100011100010
1111111101101011
101001101
1111110001011010
1111101011111101
1111101001011001
11110001
1010011
1111111110010011
1011110
10100100101
110100110100
100100100010
111011101101
1001101000000
1011111110101
1010010001110
1100000101110
1001100110010
110011101010
110010100111
1011100101001
1001100100000
110101111110
111010010100
1010101011011
1110011000
10101000011
10100100100
101100111
100010101111
100110111
1111110001001110
1111111111001100
11001110
101001100
1111111111010010
1111111100001001
10001010
1111100000000001
1111001101111110
11010100001
11011101111
11011000010
11111111001
110110100101
101010011010
111000110001
110010110100
1000100111100
1000110100110
111101110100
111001010001
111010100011
101001011010
1100101011
1101011111
1111111001011111
1111111010101010
10000100
1111111111111001
1111111101111001
1111111111111100
