100010011011
100110110001
11000001001
1000100010111
111011000000
1111100110110010
10110000000
1111111100101010
1010001100
1111010110000011
1110110111000101
10001111011
1000011110011
1111110011111101
1110100101101110
1111100101000000
1111100000011100
1111110101100001
1000110110101
11101101
1111101001100110
1100000100
1001111100110
1111110111001011
1110111101110101
10101111010001
110000011011
1111110001100000
1111110110101011
1110001111001001
