100110000000
10100011001110
1111000110111100
11110010010
1111111110111011
10100010100
1111100110001010
10000100010
1111111001101001
101010010100
10101010110
1011101111001
10000100000
1110110101111011
1110101011001001
1111001001101111
1001101011111
1100110
111010001
11000000110
1100101010101
1011010101001
1101010101
1110101100011100
1010100010110
11111101101
10000000100
1111111010100010
11101010
1111111001000111
