1111100010001011
1110001011010
1111110000011010
1111110111011110
1111001001001000
111010110010
10010101
1000100000011
1111010001010000
1110100101111110
1111010100101000
101100100001
10111000001
10111000111
1110101111100000
1111110001110100
1111000011011011
10111101100
1111111000010011
1111110100111111
1111001100100100
1001101110100
101010010100
1111111100010111
111011101000
1011001000011
1111101011011000
100011100101
1101011001
1010011110101
