110110111001
1110101110110101
11110111001
1111111000011101
1001001001010
10100000001
1000100110011
1010001
1111001011011010
1110010010010010
1110010111011011
1111111111101101
111111110111
101011001010
11101011111
111111000010
101110000010
1111111110110100
1111100111101010
1110100100001101
1111000010101101
1111001000111100
1000011010111
11111001110
1111111001100110
1001110110101
1110001010101001
111111001110
11001000000
101011000010
