1110110111001111
1111011000100000
11101100
101001001
1111110101110101
1111010100100111
1111010000101000
1111110010110010
110111100000
1101000001000
100001001011
1111100000110010
1111000111110100
1111110110000111
100101011010
10011111101
1000011111
1111110111110100
1111111111100110
101001111011
1101110100011
1110110111111000
1110110111000001
1111100101110110
1110101011011101
1110110110001101
100111100001
1111011000110000
1111010101101100
1110110001000110
