1111110000000011
1000000101111
1111000010001100
110111000101
10011000010
1111011000001100
111110011010
1110100001000010
1110011001100111
1111100111011010
1011001111001
1100
1000110111010
1110111001111
1001100111111
1010001000010
1010101110
1110101111101000
1111100111101110
1111000001100100
1110110111
1111100001001111
1110111101011001
10001110000101
110101001001
1010100100
1111010100110101
1111100011001110
1111010000010100
101010111
