1111000000111011
1111111010100010
11001111110
1111111010000010
1111100011001001
10000110111011
1111111100111000
1111010110100101
100010110000
10100000110011
1111110101111100
1110101001000111
1111011000100110
1111010111000011
1111010111110110
1101001000010010
11010110110
11100101001
10001110110100
10110001011010
1111111010111000
110111100000
1001110111010
1111010100000011
1001011010111
10010000010
11111001101
1110100001001010
1111111000001110
1111001101010111
