101101011101
1111010000100000
1110100110111110
1111000000001101
101111000111
1111001101001101
1111011110
1110011001110101
1110100010000111
1001001111010
1111111010011011
1111110011111010
1100110001011
1000001111000
1000000111011
1101101101100100
1111010101100001
1110010110000
11011011011
10100010
1111000001110001
1110010110001110
1110010000111011
1101001101001
100101001110
1111110100011000
1111101100000101
1100111100110
100100000110
1001111001011
