1101011111111
1110101111111000
10001010101
1101110110
11000001
111101010110
1110101110010000
10001101011101
1000111000010
1000000001010
1110111111011111
11011011101
1110110111000011
1111000100100001
110011010101
1101110000011011
1010100010001
11000010010
1110110000101110
1010111010000
10000111100101
11011101110
1110001
1111101010101100
100100001001
1111110110101001
1110100010011000
1011010100111
1110111110010111
110101001011
