1111111111100101
1111111111110110
1111111111100011
1111111111111001
101011
10
101
10001
1111111111011100
1111111111101110
111111
1111111111110011
1100111
1111111111101101
1111111111110000
1
1101
111
11011
1111111111100001
111100
100101
11
1101
1111111111111100
1111111111110110
1111111111110010
1111111111101010
10100
10011
1111111111110000
1111111111001111
1111111111010101
1111111111111101
1111111111110001
1111
110000
1011
1011
11100
1000110
11110
1111111111111100
1111111111111101
1110001
10110
1111111111100111
1111111111000110
101010
10101
1111
1111111111100110
1111111111001011
110
110110
1111111111110000
100
1111111111101010
1111111111111000
1111111110111110
101101
1111111111110110
11000
1010
10101000
100111100
100100011
11011001
100101111
1111111110000010
100110100
1111111011001111
1111111000110100
1111111101101011
1111111101000001
1111111101001100
101101110
100011011
101110
1000110
1101100
1111111111111001
101000
1111111111101100
1100
110001
111000
1111111111101010
1111111111011110
1111111111011010
1111111111111001
1111111110111101
1111110101001011
1111110100011001
1111110010011110
111110101
1111111111001010
1111110000011011
1111110110001011
1111110100101100
1111110100001100
1111111110110010
1111111000101101
1000011
1111111001011011
11101101
10110011
100000
1111111110100010
1
1111111111100101
1111111111111100
1111111111001010
1111111111111001
101110
1111111111111000
10100
1111111111101111
1111111010111011
1111110010001001
1111101010110010
1111101011111010
1111111100110000
110010010
1111111011001001
11001101
1001000001
1111101101101110
1111101000010010
1111110110101111
1111110011111011
110010011
101101100
1111111000101000
1111111011010101
1111110111101011
1111110000110000
1111111011001001
10001
1110
101011
11010
1
1111111100110101
1111111100110011
1111111101101111
1111111011110011
1111110110000110
10111000
1111110011010010
100011100
1111111111010101
111001011
1111111101101110
1111111100010000
1111110000100111
1111110001011101
1111111011001010
1111110001001000
101010111
10000000000
1011101011
1111111101110001
1111111111100101
1111111001010111
1111111110110100
111000
1111111110110010
0
1111111111101011
0
1111111010010101
1111111001110100
1111110111100101
1000010110
10000011101
1000111
1111110101110001
1111111101010110
10000101
1011
10010110
1111111111100101
11100010
1111110100100101
1111101110001100
1111110100000111
1000000110
1001000
10000110
1111111011000100
1111111111110100
1111111000001001
1111111001111100
1111111000100101
1111111110100100
1111111111110011
1111111111111001
10011101
1111111100100101
1010011
1011011
1011111110
10000001111
1001001111
1111111101010111
1111110110101111
1000100000
1111110100101000
110100111
1111101010011110
1111110111011001
101
1111101100010101
1010110001
1000101
1111111011001101
10110110001
1111110000101100
1111110000011000
1111101
10101110
1111111001110011
1111111111100000
1111111111101001
111011
11010101
110110
110100000
11111101
1001011111
10101101111
1110010111
1111111100010000
1111111000101010
1111110111000010
10001001000
1110101011
1111111100010110
1111111100001101
1010001110
1010100101
1001101
1001001110
1111111110000111
1111111000111111
1111101100111011
1111110010001100
1111110100001001
1111111001111010
1111111101101000
1111111111100011
111
1000
11001111
11111101
111100001
1011100111
1010101101
1011010011
101010010
110000010
1111111001000010
1111110001111001
1111111111101110
1001000011
10110000
1111110111010000
1111111100000011
11110111
1101000111
1101100110
11101100001
1001101110
1111110101010001
1111111001011010
1111110000011000
1111110000110110
1111111101110011
1111111111101100
1111111111110100
1111111111101011
10000001
11001110
111101011
1100110110
10010001010
1101100111
1111110111110000
1111110111100101
111101100
1111101110011001
1111101011110001
1111110001110111
1111100000101111
1111100100000100
1111101101100100
100111001
11001001010
11000100
1111011
110001111
1111111110111101
1111111010000010
1111110011000000
1111101110010000
1111111011010110
10100
1111111111100001
110111
1111111111001100
10110001
100100000
1100110111
11011011100
10101111110
1111111011010111
1110111110
110001100
1111110010101010
1111110011101001
1000001010
1111100011100011
1111110010110110
1111110010101100
1111100111010111
1111101110101001
101100011
1111111110100101
1110110010
10110011100
101100000
1000011011
1111111100010011
1111111101101110
1101
1111111111111000
1111111111101111
110001
1111111111101011
11001000
1110100101
11100011111
10111001111
1000000001
1010001010
101111
1111101000001100
11011001
1001110111
1111110000111010
1111111011011011
1111101111000010
1111111001111110
1111101011111011
1111111101110110
1111000101
11100011011
11011111010
10110100111
11010111101
10101111
1001
10111
1001
1111111111111101
10000000
10101
100110000
10110110111
101001101111
100011110111
10010011010
11010000011
1010001010
1111110101000010
1111101111000111
1111110001111101
1111100111100111
1111110001101011
1111101011000100
1010011
1010110010
1111111001000101
1011
1001001111
10101001000
10110100111
10100011001
100011111
10100010
10000110
1111111111110100
1
10111
111
101100110
10100111110
110000000000
110010001001
110101101111
101010000100
100000101110
1111111110101001
1111100010110000
1111110101010111
1111110001110111
1111110110010101
1101110010
1000100011
1100100010
10001001
1111110100011001
100000111
101001000
1001110111
100000010
10000
1111001
10111
1111111111011000
1111111111011010
1111111110101001
101011000
1111111011010010
11001111
10100001100
10101011100
101111001000
1001101100111
1010000111111
1000011010011
100110000
1010010110
1111111100101111
1100000111
111101011
1111111110101100
111110111
1111111100000101
1111101001110111
1111111111101111
1111110110111010
1111110101100100
1111111111001111
1001001
1111100
1000001
1010111
1111111111110000
1111111111100100
10100011
1111101100101010
1111101111101000
1111110101100010
1100100001
10111111011
111100100101
1010111000101
1011001000001
111001100110
11101111101
1111111110101101
1111111101001000
1010110110
1111111110000011
100011100
1111111010111011
1111101011100101
1100110
1111110111101011
1111110011100010
1111011
101101000
10001100
1111111111110100
101
1100
1000111
1111111101001101
1111101101110111
1111101001011001
1111100111110000
0
1111111011111100
1011011000
11010011101
101011010111
110001010100
10111011110
1111111111000111
110
1111111110000010
1111110100101001
1111101101
1111111110001100
101010100
101110101
1000
1111101100100111
1110011
111010000
10111001
101011
11011
1111111111011110
10010
1111111100010010
1111110100111100
1111101010100011
1111100100100001
1111101100110011
1111100000110001
1111011101011011
1111110101100001
1001001100
11110010010
1101001111
1111110100011001
100110111
110100010
1111110101111010
10011101
1011
1111111101001110
1010001111
10010110000
101111100
1001
100110011
110101
1111111110100100
1111111111010100
1111111111111111
1111111110111100
1111111110001110
11101111
1111101101011001
1111011111101000
1111101011001001
1111100111011011
11001101
1111110011010110
1111110111000010
1111111101001010
1111111100001101
1111110010101101
111001010
1111110110111110
10001101100
110
100000010
1000000101
1010000000
10011010100
1111111111000001
1111111001010010
1111111110011001
1001011
1111111111001001
100001
101101
11000001
1011111010
1100010001
1111110111001000
1111101110110111
1000011101
1111110001000011
1111111100011101
1111111110010101
110000100
1100101111
1011011010
1111111000001110
10100011111
1111111111111010
1110010001
1100101011
1001000
1111111111000010
1000101001
1001000110
11001101
1111111011111010
1001100
100011
1111111111101111
1010111
1010010
1100101110
1101001100
1101000110
1111111010000011
10101101
1010010010
1111110000001001
1100001110
1111110111111001
1111111010000101
1111111001101111
1111110110101100
1111111011001000
1111111000011111
101001110
100101110
1111110111011011
101000010
1111110000110100
110001001
1111100010
1011110011
11100001
110001
10100
1111111110100110
101110
10100
1000101001
1100111011
11110000110
10001110010
10110010011
11000000111
101000110
1000111000
11
1111111001001011
100111110
1010010101
1111111000101010
1111110111111111
1111111100001010
111110101
1100001001
1011010010
1010010001
110101111
1001011011
100000100
100000110
100010001
1000
110010
101011
1111111111110111
100100
1111111110001111
101101101
10111000
1000110110
1010100010
1000000100
100000010
100001010
11011001
1111110100101011
1001010000
1111111011011000
1000010001
11011101011
101100000
1111110110110011
1001111110
10001111011
1101001111
1000001101
111000
1111111111111001
100
1111111111001011
1111111111111111
1111111110110110
10
11101
1111111111101110
110011
1111111110010001
100000101
1111111010010010
1111111111100100
111010001
1000100011
1110101011
1010110000
1011001000
1001000
1110110011
101101101
1011001110
1011101000
1011011100
100011101
1111010110
100100011
1111111110101111
1001
11001
1111111111101100
101001
111
0
1111111111101111
1111111111100011
101000
1111111100011010
1111111010101110
1111110101101101
1111101100011001
1111110011111011
1111111110110111
1001011110
1111111111010010
1111111001101011
1111111111100010
10110000111
10011101
1100010
10001110000
101000011
1111111110101000
10011
1111111110000100
1111111111000110
1111111111101001
1111111111100110
1101
111
1111111111010101
10000
11010
1001
1111111111100001
1111111011101111
1111111011111001
1111111100000001
1111111110011010
1111111100001001
1111111110000111
1111111000011000
1111111001000001
11000011
1111111110001010
1111110110100000
1111111001111100
1111111100101011
100101110
10000001
100000
1111111111100111
1101
100
1111111111000111
1111111111101110
101001
1111111111101011
0
1111111111010111
1111111111111011
11
101011
11
0
1111111111010010
11
100011
100001011
10110000
111100
11000
1111111110100100
1111111110011000
1111111110011011
10101
111000
1011110
101010
1111111111100001
1101
100
1111111111100000
101000
100101
1110
