1111111111010000
111111
0
1111111111010011
1111111111000110
101100
1101
100011
1111111111101011
1111111111110100
1000
10110
0
1010100
0
11101
1111111111001111
1111111111110011
111
101000
1111111111111101
1111111111111101
1111111111110001
1111111111110100
1111111111010111
1111111111001010
11111
1110
1100
1001
1111111111100000
10010
1111111111101111
1111111111000110
10010110
101011100
11001110
1011101
1010000
10001001
1000010
1101100
1111110
100001
1111111100110001
1111111110111011
11011
11111
11101
11110
101101
1001010
1111111111110010
1111111110011111
1111111111100100
1111111111001100
1111111111110110
1111111111110001
10
1111111111100100
11010
110101
10110110
1001100101
1010001101
1011101010
10000111100
10000111111
1110011000
11000001001
1111001000
1101101100
1010100010
101010010
10010101
100001001
111011011
110000110
1101001
1010101
11110
111101
10001
1111111111011111
1
1111111111110100
1
1111111111010101
1001001
10101100
1100000101
1011110011
1000101010
10001011001
1011011010
10001001
1111111110010000
100000001
1111111010111111
1111110110100010
1111110111010100
1000000011
10011101
101110100
1111110110111111
1111110111111101
1111111011111011
1111111111111111
110000100
1111111111011000
1111111111100011
1111111111111011
1111111111011100
10011
0
100001
1001011
1011010
1111000
1111111111110111
1111111100001110
1111111001010110
1111111011111111
1111100111101000
1111101110110001
100100001
1111111010111001
100011
110101110
1111111111000010
1111110001100011
111101111
100110110
1111111101111001
11111100
100100001
1111111010100111
1111111001111010
1111111101010100
1111111111111010
101101
1111111111011011
101101
1111111101011011
1111100
1111111011100111
1111111101011011
1101010
101100001
1111110010000110
1111101110000011
1111010111110100
1111110101110110
1111111101010000
1111111110110100
11001000111
110111101
1011001111
100011001
100010100010
11001011011
10110011000
1100101100
10001110111
1110101110
1111111110001100
1001111
1011000
10
100100
1111111110110000
1111111000010111
1111111101110110
1111101101001010
1111110101011100
1111111101011101
1111100110011011
1111011111011001
1111100101010001
1111110111011111
1111111001011111
1111100111110110
1111101011011010
10
110011111
1111100011101111
110001010
1001001111
111
1111110101010000
1111111010100000
1111110100000110
1111111011000010
1111111110111000
1111111011110011
10010
1111111111100100
10
1111111110101100
1111110110010101
1111110101100110
1111101110011100
1111110000101110
1111111011010111
1111101001111011
1111010010101100
1111101110001010
1111110010011010
10001000
1111111000000010
101011110
1111110101111001
10010000001
1111111110101111
1111110110000110
1111110001010001
1111110100010011
1111101010001100
1111111111100011
1111100100101010
1111101111111101
1111111010110100
1111111100101001
11000
111010
1111111111110010
1111111110110100
1111110110111000
1111110001110011
1111110000101111
1111111010101001
1111111100101101
1111101000011100
1111100001101100
1111110110111110
1001010010
10111110101
10110101000
1011010100
1000110000
1111110001011110
1111110111111011
1111011100011110
1111110111110001
1111110011100001
1111101100100000
1111101001000000
1111011100010111
1111011111010011
1111110101111101
1111111100111111
1111111111100001
1111111111011000
1110
1111111101111001
1111111011101000
1111110100110111
1111101110110001
1111110101000011
1111111010010110
1111101110111010
1111100111111111
1111101100101110
1111101111101111
1100110
1111111010100001
1111111101110000
100000100
1111101101101010
1111100100100100
1111011101110100
1111011101010100
1111100001100010
1111100001110100
1111100110111101
1111011001001110
1111100001011001
1111101110111100
1111110110001001
1111111101010111
11110
1010
1111111110001101
1111110100100110
1111110100000111
1100
1111111000111011
1111110001111101
1111110010101111
1111100101111100
1111101001010110
1111111000001101
101110
1111111101011001
1111110111100000
1111111101101111
1111111010001011
1111101000101111
1111100100111111
1111100110101011
1111101101011101
1111100001001000
1111011011110111
1111011010111111
1111011101011010
1111101001101001
1111111000110101
1111111101011010
1111111111111011
1111111111101100
1111111111010100
1111111010110100
1111111001100001
1111111111110001
1111101111011100
1111111000101000
1111110101010110
1111100011110000
1111011101011111
1111100001110101
1111111110011100
1111110111000111
10100101
10000110011
10110001111
1111011100110011
1111110100001010
1111110000111111
1111110000001000
1111110010000110
1111101010011110
1111101101111011
1111100011010011
1111110101011010
1111111001100011
1111111110111000
1111111111110011
110100
1111111110110010
1111111111011101
1111111100110111
1111110111001100
1111101100100010
1101111
1000000111
1111110101101001
1111110010010001
11000101
1111110110101101
1111100101100111
1111011110
1111100001
101111101
1111101100010101
1111101110111111
1111110010110000
10010111
1111111100101011
1010100
101011001
1111111001101100
1111111000001000
1111110100101111
1111111110111000
1111111111111100
11000
1111111111101110
110100
1111111100001010
1111111101001001
1111111101010001
1111111010011011
100000
1111111100101001
1111111101011011
1111111100011110
1111101111111111
1100111111
10101011001
110011111
10010001110
1111111000001001
1111101011010001
1111111101001001
1111110100011111
1111110010010111
1111110101110101
11011101100
1111111001101100
1111111000011111
1111111101000100
10110111
1111111111110010
100000
1011001
101010100
1101011
110101001
1100010111
1111111011010000
110111101
101101001
1111011011
1111111011101001
110100010
1001100011
1010101000
10010111
10100001010
1111010110011111
1111110110000000
1111110010001011
1111111001111001
1111110100001011
1000100000
10011110010
1111111101101110
1001110110
100011000
1000011
1111111111111110
111011
1101111
111011011
100001101
100110110
1011101000
10000101011
10001100111
10011001101
1111111100010111
110010011
101001001
100001000110
111010011
1111111010000000
1110011
1111110100110011
1111100111111100
111001110
101001110
1001101000
1101010110
111000111
11011010
10111000010
10100001
1010010
1111111111110000
1111111111110110
101010
100111110
11000001
111001001
10110010011
11001101101
1111111110010111
100011000
100001000
11001101111
1111111001110101
1111100111
10100011100
1001010110
10000011110
1111101111011111
10001000
111110101
1111111001111011
10000111
100011
1001111001
1111110111
11100000110
1001000101
1111111111100110
1111111111110111
110010
1110011
1111111101011010
100011
1111111101110100
1110100
1111111111001000
1111111110110011
1000100
10010011010
111101000
1001001110
1111110100100000
11011110100
11110111101
1000100
1111100110100100
1011101100
1101110100
1010001100
1010101100
10011111
101101
1111111111110100
1011101110
11111
1111111110101010
1111111111111110
1111111111111001
1111111110100111
1111111101001001
10110110
1111110010110110
1111110110100101
1111111100011111
11100001001
10001101100
1011010000
1111101111100000
11110100001
1000110010
10011111000
1101011100
1111111010100001
1111111010101010
10111100
110001011
1100011110
11001110010
1111111100011101
1001011101
110011010
1010100010
1000011
11001011
0
1111111111111000
1010100
1111111101101010
1111111101010011
1111101100011011
1111110011010000
10111011
1111111110100010
100100111001
1000101110
11011001010
110001001
1111110101001111
1111110111100010
100010000111
10000101000
1111111
1111110101111010
1111111001001100
1010101101
10111001011
1001010110
1010011011
1100001100
111011110
10110111
110001
110101
1111111111011100
1111111111101000
1111111101001001
10100001
1111110010111001
1111110110100100
1001100011
1010001
1001010100
1010000001
11101111111
110010001
1111011001110000
1111111101110010
10010000110
11111110
1000001001
10101010101
1111111010000010
1010000001
101000111
1111110
1000001110
1100100110
11111000
1110001
100010
1111111111110100
111000
1111111110000010
1111111100010010
1111111011001111
1111111110111011
1111111010101101
1111110011
10000010110
1110001011
1010110100
1111111101010011
1101000001
1111111100000101
101000101
1111110010001010
111000001
1000101110
11010
1111111011010111
101111011
1111111011111011
1111111101011010
1001010
101110111
1111111
100111
10001
1111111111110000
1111111111111010
1111111110100111
1001
10011
10011011101
1111111101110011
1111010
1111110110
1111111011000100
1111111111100010
1111111100111001
1111111010111011
101100111
101111111
100001000
1111100101
11000000001
10100101001
110100110
11010000110
1000001000
1111110000000011
1111110110011100
1111111111110100
1000
11101
110101
11
1111111111010101
1000001
1111111100011010
1111111011100011
1000100
1010110000
1111111000001110
1111110100001000
1111111010000001
1111101110101001
1111101000111010
101110000
1111110011100001
1111110001010111
1111111101101100
1010110
1111111110011100
1000011
1101011001
10010100100
1111111101101110
1111111010000000
1111111001101010
1111111100010110
1111111110101001
101011
0
1111111111001110
1111111111111110
101010
1111111100101000
1111111100111000
1111111011110110
1011100
1111111011100010
1111110011010001
1111111111111111
1111111001000111
1111110100110100
1111101100011001
1111010011110010
1111011010001001
1111101100001001
1111011010001001
1111101000010100
1111110110110000
1111111110110011
1111111100111110
1111111110110100
1111111011110101
1111111101101011
100110
110000
1001010
1111111111100011
1111111111000111
1111111111001100
1100
11110
1111111111000011
1111111110111011
1111111010011110
1111111010011111
1111110101010000
1111110000010110
1111101011001010
1111110001110101
1111101101011111
1111011101100011
1111011110111011
1111011101011000
1111010001010101
1111011100111000
1111101000010111
1111100111011010
1111110101010010
1111111010101000
1111111101111011
0
1111111111100001
101010
11100
1000
111
1111111111110010
10100
1111111111001000
1111111111110110
1001
1111111111001000
1111111111101001
1000
1111111111011010
1111111011000001
1111111010011011
1111110101101001
1111110010000010
1111101111001101
1111110111000100
1111111100010101
1111111010101111
1111111000110001
1111111011100001
1111111100100111
1111111101100001
1111111110010010
1111111111101101
1111111111010000
1111111111110110
100
10
10000
1111111111101010
11000
1010000
1111111111111011
10011
1111111111010001
1111111111101001
1111111111111111
110
1111111111111001
1001
1111111111111001
1111111110110000
1111111101000111
10100
1111111110111110
1111111111010000
1111111110111110
1111111111100100
1111111111010110
110101
1110
1111111111111111
10010
1111111111111000
1111111111111010
1111111111001001
