1111111111011001
1111111111011011
1111111111111110
100001
1101
1111111111110111
1111111111011011
1000110
1111111111111110
1111111111100000
1111111111011100
1111111111011111
1000000
0
1111111111110110
100
1010110
1111111111101101
1111111111010010
1111111110111000
11011
100
110001
1111111111010001
1111111111111011
1111111111110001
10011
110001
1111111111010001
10110
11101
1111111111111011
1111111111111001
1111111111011000
1111111111100011
1111111111010000
1011
1101
1111111111010000
1111111111100010
1111111111001010
1111111111100100
1111111111000000
1111111101100011
1111111010111110
1111111110011101
111
1111111111111100
1110
1111111111101110
1111111111100000
1111111111011010
11000
1111111111110011
110011
1111111111111011
1111111111100100
10100
1111111111100110
1111111111101010
110
1111111111101101
10100
1111111111011101
1111111111001111
1111111110011010
1111111101001110
1111111011100001
1111111011001111
1111111001111111
1111111000111111
1111111011010100
1111111001001111
1111111101010110
100
1111111110110100
1111111111000101
1111111110110000
0
11
1111111111100111
1111111111101100
1111111111110101
1111111111010111
10011
10010
1111111111100110
1111111111100010
11000
10000
1111111110101011
1111111101011000
1111111000010111
1111110100110000
1111110110010001
1111110110000101
1111101111100100
1111101000111110
1111101011101111
1000010111
10111010
11110011
111000001
1111111100100101
1111111010100001
1111111110100110
1001100
1111101
1111111101101011
1111111111000011
1111111111100011
1111111110101101
111000
10110
1111111111101011
1111111111101100
1111111111101101
1111111111000110
1111111111000011
1111111100110100
1111111000111010
1111110110110111
1111110101100110
1111111110000001
101101010
1111111100000110
1111111110010110
111011011
11110010001
11010010100
1110011110
110010101
1010000000
1110100111
10000010000
1111111111100010
1111111001111000
1111111110100110
11011
1111111111001101
1111111111100110
1010
1111111111110011
110111
1111111110110111
1111111111000001
1110000
111000100
1111111101010010
1101010111
1111111111010000
11110000
1000001000
1110101
1011110100
1111111010010011
1000110000
101011110
1111111010110001
1111111110011100
1111111100111010
1000111001
10101010110
111000001
101010
1111111111000110
1111111100101001
1111111110010110
1001
1111111111111101
1111111110100111
10100001
1111111111010110
1111111101000101
1111111110001110
1111111110100110
1110101010
10010001000
10001101011
10011110
1011000111
1101001
1111110111111010
1111111010000101
1111111001101001
1101110
1111111110111010
100011000
1010101010
110101
10000110101
10100111010
1000000111
1100110
100011
110
10
10
1111111111010100
100000100
1111111111100110
1111111100000011
1111111110100101
1001110000
1010010101
10011000100
10011011110
1111111100100011
10001010011
11000000011
1111111010110111
1010011100
10101011011
1111111011100010
1000000011
1000011001
100111001
1111111010001111
1011110011
1110010000
1111110101111111
1111111011110111
10101000
10110
1111111111001101
10001
1111111111011100
100100010
10000001
11001111
101100101
10101001100
1000011110
110101000
11
10110100100
1011101101
10011000010
10001101
1111011011
110000011
1111111101100110
11011111110
1111010110
1111111000110111
1111101011010001
1001111000
10000100
1100111
111101111
1000100001
11110000
1000001
1110
1000001
1111111110010111
10110
11011011
1010001001
1000001011
1001010110
101110100
1111110110100101
101111110
1001100110
111100000
101011101
10001011
1111110101101011
1111111001101110
1111110110101100
1100101111
101101010
10111100
1111101010
1100110110
1101111111
1111111111
101110010
100010
1110
11010
1010010
1111111111001011
1100001011
100010111
1111111111001001
1111111101101010
101111110
0
1110010110
1111100000
1011101000
1111111100111110
1111111110000010
1111111110110000
100101110
100011100
1000010
10000110011
1001101110
1111111110101010
10011000011
10101110111
1010000100
1001011000
1101000
1111111111100111
1111111111101110
1111111111100011
100110
1001101011
10010011100
1111011100
1101001
10011101
1111111110010111
1110110110
1110010100
1000111100
1101011101
1111111110101010
10001111101
1111010001
11001011101
11100100
10000001101
1111110110101000
100101
1111111101001011
1001100010
10100011100
1010100000
1100000001
1000111011
100101
110100
1111111111111001
1000000
1011101101
10000001100
101101101
11001101
10100110111
1111110100110111
1110
11101011
1111110111000011
1111111100000111
10000111111
10011000100
1110110111
101011000
111100001
11000001
10110111
1111111111001001
1000111
1000100011
10101000101
1000011100
1000101100
111100010
1111111111110101
111
1111111111101001
100110
111011110
1001010111
111001
11001010
110100100
1111110001111110
1111111111100110
1111101000111000
10110000
11011110
10001111
10001100101
1111001111
111111001
1111111101100101
1000000011
10111010
11000001110
1111111100011111
11001111
1111111110011011
1111111110011111
11010010
10010101
1111111111101010
101101
1111111111101100
1111111111011101
100011001
111000001
1101011101
101001101
10100111
10001101
1111110110011101
1111111101011101
11011000
1111111101000111
1010001111
10011010101
1111111100111101
101000110
1100000000
1111111100000011
1010110000
1111111001110001
1111110001110101
1111111010010111
1111111100100001
100111110
10010001
0
1111111111010110
1111111111110000
1000
111100
101110010
1111111110001010
110100110
1100010001
10001110110
1101111100
10001101000
10010
10001110010
1111011
11011000
10100011010
101101010
10110011
11110010
1111111111011011
1111111111010001
1111110001101001
1111101111100101
1100010
1111111101110010
1111111111111101
100111101
100001111
1111111111110001
111
1111111111110110
100101
11001111
1111110110000010
1111110111100001
10101001
110101101
1110111
10101011110
1101101010
1100100000
10101011110
10100000001
110110101
10101101110
1001101110
1111110101111100
1111111001000101
1111110100001000
1111100110001110
1111101100110011
1111101101011000
1111110001010010
1111111100010011
1111111110100101
10101110
111
1111111111100111
1111111111100110
10110
1111111100011001
1111110111100100
1111110000100100
1111110100101010
1111110000010000
1111101011110010
1101100
1011111000
10101001011
11100100110
100101101111
10111000011
1101011110
1111110101111011
1111100011001010
1111111001011011
1111101010001110
1111110100101110
1001010
1111101111001100
1111110001110110
110001000
1111111111010101
10001000
1111111111111110
1111111111101001
100111
1111100
1111110111111111
1111110101101111
1111101010100000
1111101101101111
1111110101001010
1111010110010110
1111100111101001
1111100101111000
1111101111101010
1111101100000000
1111101111101000
1111110100011001
1111010101001011
1111011100101111
1111011101010111
1111011011010100
1111100111101000
1111111100011111
1111101110010110
1111100000010001
1111101000001111
1111110110100000
1111111110011001
11001001
111110
1111111111110110
1111111111111011
1010
1111110111101111
1111111101000010
1111100100010111
1111101011011101
1111101100000011
1111011111001100
1111101001010010
1111011001010111
1110111111000011
1110111000100000
1111011001100001
1111010000001100
1111011001111100
1111100100100110
1111011111010110
1111011000001110
1111011001110101
1111100010100111
1111100100100001
1111100010011111
1111101001100100
1111111010011010
11011011
1111111111000101
1111111111110100
100001
1111111110111110
0
1111110110010001
1111110011011010
1111101100100111
1111110000000101
1111110010011110
1111110111010101
1111100111110100
1111100011011010
1111101100010111
1111100111011110
1111100001000010
1111011010011011
1111111010001111
1111101101000000
1111101111000101
1111111010001000
1111111000000011
1111111011000001
11010000
1111111101101010
1111110010011011
1101
1101101
11110
100
1010
0
1111111110100100
1111110011000100
1111110011100001
1111111111101100
111001111
1111111000110110
1111111101010011
1111111101011110
10000010
11000000
1100011000
111000000
1111110011001101
1111111101000111
1111101110010011
1111111001000010
100100010
1111111100000011
1111001011
1110100110
10101000
1111110101010111
1010001
1000011
1111111111001101
1111111111011010
1111111111101100
1111111111110001
1111111111110100
1111111010001101
1111110101101100
1111111111110111
1011000011
100000001
10000100
1111110111111001
1111110100011101
1111111000100011
1111110101010101
10111101
11110011
1111110110100101
1111110010111010
1111111010000010
1011011101
10000011110
10010000101
10101101
1111111101101001
1111111000101111
1111111101001011
1111111110111001
100110
100110
1111111111101101
1111111111110001
1111111111000001
1111111001111110
1111111101101111
1111111011111100
1111111011100100
101110110
11101001
101000
1111110101101111
1111101100101010
1111111111001001
1001000011
1100010010
1101100010
1101010101
100110110
101001110
1101011001
100000011
1111111001010010
1111111001111110
1111111011010110
1111111101011101
1111111101000110
1111111111110010
1111111111111110
100010
1111111111111110
1111111111110110
1111111110101111
1011000
1010010011
1011100001
1101010010
10000001001
10110010110
11111100111
11111001000
10000100011
10101000000
10000101010
1110010100
101100111
11101011
101110000
1001111101
1000101
100
1111111011101100
1111111110001010
1111111011110000
1111111111000111
11000
10010
1111111111010010
1111
1111111111101110
1111
100010011
111010010
1010010100
1110000111
10100101101
11011011011
11110001000
11000100001
10101101000
10110001011
11001001101
11100100101
10011110111
1101001110
100001111
1111000
10101
11100011
10011101
1111111111010111
1111111111001010
10110
1111111111111010
1111111111111111
1111111111101010
1111
1111111111100101
1111111111110010
101101
11000111
1011110
11000011
100000110
101110110
10000101
10011110
10111111
100001000
110011001
110011010
101111111
101001101
11110100
1110011
1111000
1111100
111000
1010
1111111111110100
1111111111111111
110110
100101
1111111111111100
111
1111111111101001
101111
10001
101101
11101
100101
11
10011
101000
11
1111111111100001
11011
1100001
1
111100
1000110
111000
1001101
1111111111101000
1001101
1111111111111011
1111111111111110
110011
1111111111110001
1101
11
