1111111111110011
1111111111000011
1110
100100
1111111111011110
1111111111110101
1111111111110111
1111111111101101
11
1111111111111101
1111111111101111
101
1111111111101110
1001
1111111111110110
1111111111010010
1111111111111001
1111111111110111
111100
1111111111100101
1111111111101000
110
1001011
1110
11010
10111
101
1111111111000110
100010
100110
101101
1111111111111001
1111111111111011
1111111111111101
10011
11000
1111111111111001
1001
100
110010
10111
1011000
100001
1111001
11100111
1000011
110101
1010001
1011110
11001
1010
1111111111110111
1111111111101110
1111111111111100
1111111111101001
1111111111111110
1
1111111111001001
10011
10110
1101
10
10110
0
10111
1111111111101100
111001
1010000
11100
1111111111111100
10011000
10111011
100111010
100100000
100011101
10001101
1111011
1101010
100110
100111
100100
110100
1111111111111101
10010
10011
100000
1111111111101111
11100
110100
10001010
1101100
1101010
10110001
100001001
1010101110
1000110101
110000110
110100101
1111111101111100
1111111110000110
1111111011111110
10100010
1001001110
101100001
10100000
10111011
1101100
10001000
11111
101100
100100
1111111111110000
1111111111101010
1111111111101111
111001
10010
1111111111101111
11000
111
10100101
110101101
1010101001
1010100100
101000010
101010111
11111001
1100110000
10010110011
10000001110
111010101
1100110000
101110110
1111111110001101
11101111
1111111100100011
1111111111101111
111111
100110
1011000
1111111111101001
1101
1111111111111010
1111111111100011
100100
100100
10111
1111111011000110
1111111111010000
1111111010110010
1111110111010110
1111111011111000
1111110010000101
1111111010000110
1111110111010010
1111111011101000
1111111101000101
111011100
10000001011
11011100100
1111101101
1100000011
10000010010
1010001111
110011001
10110001
1111111111100101
100101
1111111111001111
10001
1111111111100101
1111111111011000
10011
101101100
101101000
1111111010111000
11101001
110001101
1001101110
1011110111
1111111011100100
1111110111011111
1111111011111101
1110100011
1100100010
1111111110010010
1111111001011100
1111110010110001
11100101
101010
110000101
110110110
10011001100
10100000110
1000000111
10010111
1001001
111100
101110
1111111101101100
1111111110000011
11101
1111111101110101
1111101001011111
1111111110110000
10111000110
10011010000
11111000
1000001
1111111100000010
100011011
1001011010
1000110
110100011
1111111100101011
1111111011101100
1111100110100101
1111110101010001
100000110
1111110000110101
1111111110101111
1110100111
1010000110
100101011
100111
1111111111000011
1111111111011001
1111111101001110
1111111010000100
1111111110110110
1111110010101000
1111100111010010
101001101
10111
1111110001010110
1000011011
1111111110110010
100001111
10001111100
1010001101
1111110011100011
1111110110010011
1010110001
1111110000010111
1111111010001010
1111110111100001
1111110101100001
110011111
1100001
1110000010
1110010011
11111001
1001
101010
1111111110100011
1111111101000010
1111111001010110
1111111101100111
1111111100111010
1111101010011111
1011111000
1111111011001100
1111110010111000
1011011010
10100110011
1101000111
100010011
10011011011
1011011110
1111111110001110
1111110010101110
1111110011001011
1111101100101111
1111101111010000
1111111011101111
11110011
111110000
1010100100
10010011000
1010111110
1000001
1111111111010101
1111111101101000
1111111100010111
1111111001101001
1111111110010101
10010101
10001101
110011100
1111111011001011
1111101111010011
1101101
1111111001101100
1111010
1000000000
101110101100
101111111101
1111110100001000
1111010010101011
1111101110011011
1111110110111001
1111111001100010
1111111011110000
1111111110110101
1000000100
10000010111
10001011000
1010111110
1111
1111111111000100
1111111111001001
1111111100100101
1111110100010000
110000
10100011
1111110011010000
1111111000010111
111110101
110111
1111101101010011
11010100
1011
1010101100
101111000011
11011111101
1111101101100111
1111011010111111
1111110110111111
1111110011101011
1111100011110000
1111110000010101
1111110111000100
1100
1011111101
1001101010
11001111
1111111111101000
1111111111011101
1111111111101010
1111111011000001
1111111010010001
1111110110010011
1000111
1101100
11001110
1111111110110001
1111111111101001
1111111011000101
1111110000100010
1011011
100110001001
110110100000
1101100101
1111101100010110
1111101101110001
1111110100011011
1111111000100111
1111110000000111
1111101101001111
1111101000101110
1111111001010011
10011101
1000101000
10011111
110101
1001000
1111111111110011
1111111100011000
1111111100011010
1111100111100111
1111111100001010
11010
1000000
1111111010001111
1111110001000110
1111101100011110
1111111010110010
10011010100
1000101111111
110010111011
1011100110
1111011101101110
1111101011001000
101001011
1111110101101000
1111101101110100
1111100111000010
1111101001110101
1111110111100111
10001101
111011011
10001110
100011
101010
1111111111100010
1111111110001000
101100
1111110011001001
1111110110010100
1111110011101000
1111111000111101
1111110011010110
1111111010001111
110110011
100100111
10101011001
100011010001
1100001111
1111101010101010
1111100110100110
1111110010100001
1111111100011100
1111100101000010
1111101001000011
1111101110000101
1111100010110000
1111101111100101
1111111111110110
101010111
10010
10
1111111111101110
1011
111111
10110101
1111111111101110
1011
1010100010
1111111110011001
1111101111101101
1111101100100101
1111111011111100
11001111000
11100111111
10101111111
11110111111
1111110010100000
1111111010001101
1111101011011011
1111111100011111
1111101100101010
1111101110011010
1111110010111010
1111100010111010
1111111010010111
1100011000
1000000111
1111111111001000
1111111111111100
11100
100010
10111000
1001111010
110011101
1111110101001110
1011
1111110001010100
1111110001110110
100010
1011010010
10110101110
11001011100
10011101010
1001111111
1111111010000010
1111110000101111
1111111000011011
1111101101110110
1111110111101001
1111100111111111
1111101011100111
1111101101011001
110111011
1111000001
1000010111
10011100
101010
1111111111100000
1111111111100011
10011101
1100011111
1101000110
1111111110000101
101010001
1111111110010101
1111111011111001
111001
1111111101000011
1110011001
1011111111
1110000011
1111001011
1111100100010011
1111110100110001
111100101
1111101010111000
110111101
1111110011111001
1111110101010110
1111110001111011
1111111101011010
10
10010000
1001101
100110
1111111111110010
1111111111110100
1111111111110011
1110101011
10010001101
1100101010
1110011010
1010000110
10111110
11111001
10101111
11100111
1101011010
1010010011
100100110
1111111010111001
1111110010010001
1111101001111111
1111110001110001
1111110011100001
1111101100011111
1111101011111111
1111110101110011
11001111
1111111111110001
10001100
1111111111100000
1111111111001110
1000001
11
10100110
1100010001
10101000101
10111000000
10001101
1111111000111011
111001
1111111011110011
1111110000110010
1111111010000011
110110100
11001011111
110111000
1000111111
1111110110101010
1111101001000000
110001001
1111101001100000
101101011
1111111010110001
1001001
1011010010
1000110
100000110
1000000
1111111111110100
1111111111101001
1111111111100011
10101010
1011101110
10101100010
1000001001
101100001
1000010011
10000111001
1101110000
1010101100
101111111
1110000101
10001001000
1111111101010011
1010110101
1111110100100010
1111110001100111
1000110011
1111111100010000
1011111001
11110101
1100000001
1011011111
1111111101100110
1101010
111000
1111111111000110
1111111111010010
10100
11100101
1000101101
1001110001
1111110111010111
1111111001111111
101000111
1101000111
1100101111
1111111110110100
10001000001
100011001
111001000
1001000000
10001110100
1111110100000100
1100001000
11010011101
1010011111
1000110001
11011000
1001110011
1010001100
11001000
10010101
1111111111010111
1111111111001111
1111111111001000
1111111111110010
1010101
1000001101
1010001011
1111111110101000
1111111001000111
1010010
1111110111000101
110000000
1000001011
1111111101000001
1111110100000100
110011110
10011111100
10000000100
1001010110
1011100101
10010010011
10000110111
10000001010
111010010
1001001100
1010110101
101101111
10100000
11100
1111111111101110
10011
100
10011010
110000101
10001000010
1110010010
100110011
1111110100110110
100110010
1101000000
1111111101011010
1101011111
110011111
10001010101
10000000100
1110001
10000110000
1001100001
11000110011
11110011010
1100110010
111001101
1101001110
1100010001
100010011
10101100
100010
1111111110111101
1000010
1000
1001111
1101101
1111111101000001
1111101111100101
1111110110101101
1111111001010111
1111111100011000
1111111100010001
1111111001010011
1111111010001101
1111111001001011
10001110111
11011011011
1000111010
1100010100
1000110010
11001100101
1110100110
110010
1010001000
1000101100
1000111000
101101110
111001
111
1111111111011011
1111111111100110
1111111111100111
101001
1111111110010101
1111110001111000
1111101101101001
1111110111001010
1111111000010010
100100
1111111101001001
1101101101
1111111011110110
1111110010011001
1010010
1110111
101101011
10110100
1101110001
101010000
110110010
1111111101000010
1111111111001011
111001001
1010000010
101100010
101110
10
1111111111001001
100000
1111111111101101
1111111111011110
100
1111111110110011
1111111101001101
1111111001011100
1111110011011010
1111110101010100
1111110011001110
1111111010000010
111100
1111111111001110
1111110000111000
1111110111101001
1111111101011001
1111111001001001
1111111000011110
1111111011001010
1111111011101000
1111111110000100
1111111011010100
1111111110100101
1111111111111111
100010
110
1111111111110011
1111111111100111
1111111111001011
101011
11
1111111111101100
1111111111111001
110000
1100
1111111110000010
1111111110011001
1111111110111000
1111111001001010
1111111101011111
1111111110010101
1111111100000110
1111111011010000
1111111011101110
1111111101110110
1111111101001001
1111111001101000
1111111011101100
1111111110011110
1111111100011010
1111111110100101
1111111111011100
1111111110101010
1000
10010
1111111110100110
