10111
1001
1111111110110110
1111111111011111
1111111111010000
1110
1111111111010011
1111111111110100
1011101
1111111111111010
1111111111010110
110
1111111111101111
1111111111000100
1000
1111111111010111
101010
1111111111111001
1111111111011110
11
1111111111001100
10010
1111111111111000
1000
1001
111
1111111111001110
1111111111110110
11111
100011
100101
1111111111010000
1111
10010
11
11
10000
1111111111111111
1111111111011011
1111111111110011
110100
1000110
1110
1000001
101001110
10010000
100101
110100
1111111111010110
1100000
0
101010
1001
1000
1111111111100010
1111111111101011
1111111111110110
1111111111101111
1
100000
1111111111110111
110011
10
1111111111000011
1111111110010100
1111111101101110
1111111001001111
1111111001110001
10001
1111111110000011
1111111100000111
1111111110010100
1000000
100001010
101101100
10010111
1111111101001001
1111111111100110
1111111111100110
1111111111111000
11011
1111111111111000
1111111111100011
1111111111101000
1111111111011111
1111111111100001
1111111111011011
0
100011
1111111111000110
1111111101000101
1111111011001110
1111110111000000
1111110010110001
1111110000011010
1111101011111010
1111111001110100
1000001001
10001111110
11110000
101100011
1100101101
1111000010
1111111111011111
1111111001111010
1111110100111111
1111111000001100
1111111111101101
1111111101000011
1111111111010010
101101
0
11101
1111111111111011
101000
100
1111111111101010
1111111101110001
1111111011111000
1111111010001110
1111110010100001
1111101100100100
1111101111001100
1111111001110010
1111111100000001
100011
1111111100101100
111000001
10100100
100111000
101011000
1111110101100001
1111110010111100
1111110110010011
1111111000110110
1111111110111010
11010101
100010111
1111111
1111111111001001
1111111111111000
111
1111111111011111
11011
100
110110101
100000001
1111111001111100
1111111010011101
1011
1111111101101100
10001100
1111110001010011
1001000100
111000010
11111101
10111001
1111111010111000
1111101110010101
1111111011001000
1111110000001011
1111111011011111
10001110
1111111010111100
1111111101110010
10110101
1100101
10110
1111111111111100
1111111111101101
10011
10001001
1111111101111010
1000000000
11111010
110001101
100111110
1111111011001010
10011001011
10001100001
11010011011
10001101101
10000101000
100111100110
10101101100
10101101101
111101010
1010010000
11010
1111111110100000
10000001110
111111
1111111100
11001001
11011100
1111111111110000
10011
10010
1111111111101011
1111111110101111
1111111111100001
101101010
1010110111
11001010
1011101100
1111110
10111111100
100111001
1111111001100010
1000011110
100010100010
101000111010
110101000
1011000
1100101011
110011
1010001
1111111101001100
1111111000001001
111110110
1111100
100000110
11100100
1111111111011110
1111111111111110
1111111111101000
1111111101110011
1111111110001001
101000000
1111111101000100
1001
1010011011
100000000001
110110011
1111111000001101
1111111010110100
1111111010
1000001001
11001110110
110001111
1111111011001000
1111110101011110
1111111111010100
1111110110011010
11100101
1001000101
1111111111011011
1111111011011110
1001100110
111101110
10011111
110101
11100
11110
1111111111010010
10000101
1100101
1111110110001100
10001010101
11000011011
11001010110
1101011010
10001000000
1111000000
101001001
110011001
10111111000
10110001000
1111110101000111
100000110
110101001
1000100111
1011
1111110101001011
111011001
11111000101
10010010100
1101001111
10011111
1111111111111011
11001
1001
1111111111101110
111110
1010010
1111110000010000
10100001010
10111010010
110010001
1000110011
1100101110
1111111000001011
1111111100100001
101101011010
101110110101
11110101000
110110000
1111110100100101
1111101010101111
1111111011101000
1111101
1110101
1111111111101010
11111000100
1011001101
101000001
1000110
1111111111101101
1111111111111110
1111111111101100
11001010
1011011
10010011100
1111111011110100
10001010111
1001100111
1111111010100011
1111100011
1111111110101101
1110010000
11111
100001110101
100111001011
101011111111
1111110000000001
1111110010100111
1111101010000010
1111111001111010
1111111111010101
1001111010
1111111100101000
1010101110
100111101
1111111100111000
1010111
1111111111000111
100110
1111111111110001
1111111111010000
101000000
100001110100
1111110010111100
1011111000
1111111001011100
1111111110100011
10011111111
1001000
1111110000111011
1111101001010110
1111111111000100
10000101000
101010110001
1111111111001010
1111110100010000
101011100
1000001010
101101000
110011000
10110111
1110011100
1111111111000011
1111111100101100
1001011
1111111111011111
111001
100001
1111111111111000
110011101
10101111101
1111110010101110
1111110111001101
10110000111
1111111001101001
10000100
1111110111100011
1111101010100000
1111110001010000
1111110011001111
11111101100
10101011100
1110110011
1111101110101011
1
1010110111
1001011111
11010101
11100010
1111111101011111
1111111001010011
1111111010101011
1111111110011111
1111111111000010
1111111111010001
1111111111111000
1111111111010001
1111111101100110
1111111100111101
1111110011001100
1111111101111010
1111101111110100
11110111
1111110110011101
1111111100100100
1111101100101101
1111100000011000
1111110110001101
1000011111
1111111000001001
1000011011
1111110000101111
111111001
1111110111011110
11011010
11100001
10001111
11111000
1111110110100000
1111110101011111
1111111010010111
1000
1111111111111001
1010100
1111111100111111
1111110011001101
1111111001000011
1111111110011000
1000100
1111111000001110
11101
1111110001111001
1111101100110001
1111101010010100
1111110101011110
111011
1111111100011110
1001100
1111100101110000
1111101000001100
100101110
1111111110001010
1110011011
110101110
1111111111110111
100100110
1111110000101011
1111101100101011
1111110100010100
1111111101101111
1111111111001011
1111111111101100
110
1111111111001001
1011000110
1000100010
11000001
1111011110110101
1111110111111111
1111110101101001
1111110001100101
1111101110000111
1111111011000011
1111000
1111101100001110
1111011101110110
1111001111111101
1111100011011101
1100111
1111110101111001
1111100111001101
1111010100001011
1111111001100111
1111110001000101
1111100011101000
1111101010010110
1111111001001001
1111111111001100
1111111111001101
111000
1111111101100010
1101101100
1111111111110101
11111111
10111
1111111110010100
1111110000001011
1111110000110110
10001110010
100001010
100101111010
100011101
1111101011110100
1111101111110101
1111100100110101
1111110001111000
1111101110000100
1001000
1111011000110111
1111000111011001
1111101100011111
1111100100101011
1111100101001111
1111110001101010
1111111110100101
1111111111010110
1111111111010001
1111111111011000
1110
1010100000
1111111000011100
1111110100110000
1111111001100010
1111111010111000
1111101000000011
1111101000111111
111001110
10010110100
10000010001
1111110110000011
1111100011101110
1111101010101001
1111011001110000
1111101010010010
1111010010111011
1111100000000010
1111100001000110
1111011111101010
1111101111001110
1111011110011100
1111011101011110
1111110111001001
1111111111010001
10011
1111111111011101
1111111111110111
1010010
100000111
1111111010111101
1111111101101010
100001
1111111111001011
1001001
1111111001101110
10001110111
101001010101
100010101001
110011000
1111101011000101
1111010011000011
1111100101101011
1111101100101100
1111100000100110
1111111011111010
1111111111000111
1111110000101111
1111110011000111
1111110010000101
1111110100000111
1111111011100001
1111111110011111
100100
1111111111101010
1010010
10001010
10111111
1111111101010101
10110111
11010011
1111110100000010
1111110010001101
1000101111
1011000010
1011100011
1111110110
11010000101
10110001110
100011101
1111111000100100
1111111010110100
1111100110101101
1010101
1111111100010111
1111111011011010
1111111000111010
110110111
101111100
100001001
1111111111101010
101
101000
1111111111100000
1010
100001000
110110
1111111010111011
101111000
1001001010
1111110100010000
1111001100
10001000010
1111011100
10100010100
1000000111
10101111111
1100010101
1110010011
10000010111
11111111
1111111100011010
111100101
1111111100010110
1111110011010011
1111111110110111
1110010100
100010011
10010001
100010
1111111111101011
1
1111111110010100
1111111101001110
1111111011000100
1111110110001010
1111111111000110
10100011
101000011
1111111100101010
1111111001101001
1101010
1111000001
1101110
11100111011
1011001101
11101101111
10101000100
1000011011
10000010
100001011
1111111000100001
1111111100100011
10000000111
1111111011
100111001
1111111111110010
1111111111111001
1111111111100101
1111
111
100010
1111111110001001
1101111
1011010001
101001010
1000111100
1110100011
1100100110
1010010110
1111011100
1111111110110001
1100100101
11001101011
11110011010
100000110011
1000001010
1111001010
10000011110
1111111000111100
10000000000
10001111101
1011010110
1101101
0
110000
11010
1111111111111011
11000
10011
11111100
100100001
1100000011
1101010110
1111001110
11011010110
11100110001
11010110010
101000111001
101000001
110110011
1010101000
1111101101101010
100
1010001001
1100001111
11110010100
1010101010
10111010111
10000100010
11000100
1111111111010101
1111111110100011
1000
1111111111111010
1111111111101011
1111111111111101
111
1010100
10100111
100100000
110100000
1101011000
11111101111
11100010100
1011100000
10101111100
11101010110
10110001111
11001001010
100011111
1011100110
11010000110
101100001100
11101000111
10010101000
1101100001
110100000
1111000
0
1111111111010011
1111111111011110
101010
1111111111010011
1111111111101100
1111111111010110
10110
11000000
10011111
1111100
100010000
110110011
1110111110
1111010110
1010001001
1110011011
11100110010
11100111010
10111111000
11100010101
100000111101
10111000010
1011001001
1000100001
101010101
1001001
1111111111110100
100111
1111111111101100
11111
101100
10100
1111111111110100
1110
1111111111001100
100010
100011
1101111
1010001
100110
10111100
10110100
1111000
111011
110001100
100100000
10011011
10000101
100110111
100100101
1010
1000011
10
1111
1111111111101011
1111
100110
11
