100000
1111111111110010
1111111111011010
101010
1011
1111111111100000
10001
1000111
11001
110
1100
10110
1111111111010111
100
101110
0
1111111111000101
10100
1010
1000
1111111111101101
1111111111011111
1011
1111111111110000
1111111111001100
10111
1111111111100111
1111111111011100
1011
1111111111011010
1101
1111111111100110
11000
1001
1111111110111100
1111111111010111
1111111111011011
1111111111110101
100
101111
1000111
1110100
10011100
1000100
1001011
111110
11110
10101
110011
1101010
110101
1111111111111011
1111111110110011
0
1100
11110
11111
1111111111110101
1111111111110011
11110
1111111111001010
1111111111101111
1111111111010101
1111111110111110
1111111110101001
1111111101010001
1111111111110001
11100
100
1010111
100001100
11011101
11000100
101101111
101110111
100110010
1111111110101111
1111111111111010
1010011
111110
10110
1111
1111111111101111
100
110
1111111111000010
1111111111111111
1111111111000001
1000
1111111111011111
1111111111101101
1111111110000110
1111111010101111
1111111000110001
1111111010001100
1111111010001000
10110
1010001
10000010
101111000
111001110
1111111101011001
10010
1110100010
1011011101
111000110
1111111110111111
1101111
110000
1111111111011000
10100
1111111111011000
1000010
111001
10001
11001
0
10
110
1111111100000101
1111111000000001
1111110101010100
1111110110100101
1111111000000010
1111110111001111
1111110011000010
0
10110101111
10101000
1111111010101010
100111011
100000111
1111111110001111
100101001
110010
10101010
1111111111110110
100110
101110
100110
1111111111101010
111
10100
11000
1111111110011100
11100010
11011001
1111111001011111
1111111000100101
1111111111011110
1111111101111100
1111110111101100
1111110111011010
1100010
1100010000
10111001001
10101011101
11000010000
1111111111110000
1111101101101100
1111110110101000
1111111011011000
100101010
1111101100
1010001
1111111010000001
10110
1110
1111111111100110
1111
101100
1111111110000110
1111111110111001
1001111101
1111111110111100
1111101111010000
1111111101010000
1111110111001001
1111110110110000
1111111011100101
1111110110001000
1111111001111000
1011110100
1011101001
11000110010
10100110
1
10
1111110000100000
1111110110010110
1111111111010010
1000001101
10111111101
110011111
1001011
1000000
1111111111001001
100010
100
1111111101011001
1111111111111101
10001110111
1111111010110000
100011
1111111011001011
1111111100010000
1111111000110100
1111110111100010
1111110010111111
1111110000001010
1111111110010110
1001101100
10111110100
1110110101
1111110010011001
1111101110101101
1111111100100010
1111110000100110
1111111000111001
1111111110001101
1011101111
111110000
111001110
11000
10010
110001
1111111111101100
111100
110111010
10001000011
1111111110111111
101111
110111
1000000111
111010010
1111111100011000
10100010
1111111010100010
1111111110011111
100111011111
1111101110
1111110010010011
1111100011110110
1111101000000100
110111111
1111111001010000
1111110110000001
1001
11011111011
10001011100
10000000
1111111111101110
100110
1101000
10100011
1111111111010111
11111001
100011001
1110100
1110100101
1111111101111100
1111110011001011
1111111100000010
111111010
10010100101
1000100000
101101111011
111001110000
101100101
1111011100011011
1111100010101000
1111011110011111
1111101001000000
1111111000101001
1111101111000011
1111010011
11100101001
10011100110
1000111011
100111010
1111111111111111
1011100
10110101
1111111101101111
1011100
1111111110011010
110101
1111111011110011
1111101111100011
1111110010101101
100000000
1111111111101000
1001100110
101101111111
1000000011011
11101100100
1111111101110100
1111101001011111
1111100101001101
1111011011111000
1111101011001000
1111110010101000
1111101001101011
1000101
100000010100
101111001001
1100001101
1000001
10011
110111
1111000
1111111110110110
100100110
1111111111001101
1000111
1111101101000010
1111110111000100
1111111011011011
1111110110011101
1111111010100001
11000011010
101010111111
11110111011
1111110010100110
1111001111110000
1111011000001101
1111100011101101
1111100101001010
1111011111101000
1111101100010101
1111110000101111
1100001000
10001010100
10110110011
100000101
1111111110111100
111010
100111
1010101
111110
1111111010011100
1111101111110100
111000000
1000110010
10101010111
1011001101
1000011100
11011001001
100101001001
100011011011
11001001
1111100010100011
1111011000011000
1111101010010111
1111111011110011
1111101000100011
1111101101000000
1111010101100011
1111011000000100
1111101010111101
1111110111010111
0
1010001
1111111111001000
1111111111001111
10101
1101010
1111111111111000
1111110001101010
1111111111101011
1001100
10001000100
1100101100
10101101000
11000010100
10110110001
11011010101
1111111001110000
1111101001010101
1111011011011001
1111101101110010
10000110
1111110001100111
1111101101101011
1111100111000111
1111011000111100
1111100001001111
1111110011000010
1111110111011110
1111111010000011
1111111101011011
1111111111010111
1010
101101
1010101
10010011
10010111
101101100
1010000
1010010101
10000111011
11101100010
1000010101
1111111110010000
110001011
1111101110011010
1111011111010111
1111101001001101
1111101111110010
1111101011000111
1111100110111100
1111100011001000
1111110111011101
1111110010111111
1001011111
1101100111
1010101110
1111111100101001
1111111110110000
1111111111100100
1111111111101101
1111111110101101
1111111111111101
1111111110111100
1011001010
1110110001
1001101010
10011011110
1111111101100111
110000000
1100111
1111111111000001
110111010
1111101111000100
1111100100111000
1111100000100000
1111101010110101
1111110011001100
1111110010101111
1111100000100000
1111111001000111
1111111011110001
10101001
11010001110
10001110110
1111111001011001
1111111111010011
1111111110111110
1111111111110101
1111111111100010
1111111110111101
1111111110000110
1111111
1011101110
1111111100110001
1111111011010100
1100101
111011011
1111111111101101
1111101111000101
1111110110010000
1111101000010101
1111100010000001
1111101111000001
1111110101001010
1111101100000011
1111111011110100
100101110
10101010101
1001010110
101111011
11100000011
1101000001
1111110111100001
1111111101010100
1000
0
1111111111010100
1111111110100110
101100101
100111100
100101110
1111111011000010
1111110100111001
11000
101101101
1000000000
11
1111101001001000
1111101000110100
1111101101000000
100111
1111111100001100
1001100000
10101111010
101111000
10011100011
1011010001
10000100011
11000110101
100101111
1111111010000000
1111111110101000
1111111110101111
1111111111111110
1111111111001101
1111111111001010
101011110
110011010
1001111000
111000101
1011010000
1001011101
100011100
1110100110
1111111001010011
1111100000101011
1111011101100111
1111110010011000
1111111011111011
11011101101
1111111010110111
110111010
1100011010
10100101001
1110000011
1111111
1001101011
1111111110010011
1111111111001000
1111111111101010
110001
1111111111010110
1111111111100011
10111111
111000010
1000010111
1101000000
1111111101111101
111100010
1111111111000011
1111110100000111
1111111101010001
100001100
1111111010100110
1111111011010001
10000010110
10000000110
1111111100100110
1111111010011110
1101100011
111011111
10110010001
111100100
1111110101001001
1000010
1000101110
101011111
100
100111
11110
111011
1111001
1111111101010101
1111111111110000
101110001
1111110110011111
1111111010000010
100010110
10100110010
11100001
101011000
1010101000
11011100
1010000010
1111111010011001
11111011
1110010100
1110010011
1000111111
1111111001110011
1111110100000001
101101101
1111111110110101
101110110
11010100
10101
100011
1111
1111111111101101
1111111101100001
1111111001110011
1111111101000111
1111111101011100
1111110101011001
1111110000111001
111011101
1111111010010010
11010100
1111111001100011
100011001
1111101101101101
1111111001000111
10011000100
10000011110
1111111111011111
10111101100
110101
1000010100
1001110111
11100000
1111111101001011
1111111110101111
11100000
1111111111101001
110
1111111111111101
111111
1111111111011011
1111111100010100
1111111010101110
10011101
1111111000000010
1111111010110110
1111111101001101
1111
1111110111000000
1111110100001111
100001001
1110101
1101110100
1110001100
101101011
1001001010
10011001011
1100011
1111111011011101
1111111101110000
110101
1111111100000010
10010
1111111111010111
1111111111101001
1111111111111111
1110
100110
1111111111111010
1111111110110100
11111
100100101
1111111101101101
1111110111000001
101110100
1110101101
1100001101
1111110111000011
1111111010010101
1111111101101101
1010000110
10000010001
1111100011
101001010
111110100
1001100011
1101
1111110111100010
1111110110110010
1111111011010101
1111111111001000
1111111111000000
1111111111110010
101
1111111111110110
10101
1111111111111011
1111111111000001
1111111011111011
1111111111110010
1111101111010000
1111111101101010
100100101
1110001111
1011101110
1111110110011101
1111110111101101
1111110110000000
1000110
1000010000
1111111100110000
1100110111
1101011000
1110110000
111010011
110000010
10000000
100111
1000011
1111111110101010
11100
1111111111011000
100110
10
100
1110
1111111101110110
1111111011011001
1111101111111110
1111110011110111
1111111011001101
111101111
1111111111101110
10111
10000
11010111
1111111101001011
100111111
1011111000
10100110111
10000000111
111010001
1111111111011101
10101011
111001011
1000100001
11101101
0
1111111110111010
1111111111101010
110011
101001
1111111110100111
0
1111111111111010
1111111110000110
1111111101100100
1111111100111111
1111111101001011
10101111
10110101
101001100
111001110
1111110111010100
1111101111011000
1001000
1110000
1111111110010010
111101
101111011
1111111110111111
1111111000100111
1111111110110011
1111111111001011
1111111111111001
1111111111110010
10100
11100
1111111111011110
1111111111110000
1111111111001111
111
1110
11100
1111111111111001
1111111101000101
1111111110000001
110011
10011
1101100
1011
1111111110100111
1111111010111010
1111111111001111
1111111111101101
1111111111010010
1111111101111100
1111111110100011
1110110
1111111111111000
111010
11111
1111111111010100
11000
10
1111111111111001
