1111111111111010
1111111111011000
1111111111110010
1101
1101
10110
1111111110111100
1111111111111011
1111111111011010
1111111111100111
1
1000000
1111111111101100
1111111111101111
1010000
1111111110111101
1111111111101000
1111111111101000
1011
110
111111
101111
1111111111110101
1111111111111101
1111111111100001
1011011
1001
1111111111111101
1111111111111000
10011
1
11110
1111111111001010
1111111111011111
1111111111110000
1111111110101000
1111111101111000
1111111111110011
1111111111111010
1111111111100101
1111111110111110
1111111111000011
1111111110110110
1110
11111111
1101101
1111111111101001
1111111111100001
1111111110110111
1111111101101010
1000
1111111111100001
1111111111101011
1111111111110010
1111111111111110
1111111111111101
11
100101
1111111111101000
1111111111110111
11
0
1111111110101011
1111111101101011
1111111100000111
1111111100111111
1111111010010110
1111111010101001
1111111010001010
1111111000101001
1111110111111011
1111110111000111
1111001
100001011
10010010
1111111111110110
1111111100011010
1111111011110000
1111111101111011
1111111111010011
1111111111011100
1001
100011
111
100110
110
101111
1111111110011101
100111
1001010
11010
100010110
11010111
1111111111111100
1110110
1000000101
1111111100010111
1111101111100101
1111110100101110
101001
111110000
1101001010
1100001001
1111111100001101
1111111001011111
1111110110000001
1111110110001100
1111111010001111
1111111101010010
1111111111100111
1111111111010100
1010111
1111111110111011
11100
1111111111001011
10111
1100000
1001001001
1111100001
10011001111
1101010111
100110010
1010111110
1100010001
1111111100100110
1111111010001000
1001110000
1111010100
1111111101100101
1111111100111100
10010001011
10010111101
1111111101111101
1111110111001011
1111110011011001
1111101111111011
1111111101101101
1000101
11001
1110
1111111111110101
100001
10110
1101101
101100100
1101100011
10111110001
11010110011
10000101000
11100110
1010110110
1000101000
1111110111011001
1001010111
10110011110
10010100100
11101011000
10010101011
10011001010
100000001
1111101101110101
1111110100000111
1111101101100111
1111110010101000
1111111000110000
1111111101110001
1011
1111111111010101
101011
1101
1111111110010001
101101011
111111101
1010010111
100001010101
1011111010
1101110000
1111010
111010111
1011010010
1111100101110110
1001101010
1111101100100101
10011001
11000100000
1111110001011000
1111101111111011
1111110101111101
1111101011101110
1111110101000100
1111110000000100
1111110101101000
1111110010111000
1111110011110001
1111111100101001
1111111101111001
1111111111111011
1111110
1111111111111010
1010010011
1111110000
111100
10100101100
1111111101
1101001
1111111000000011
1111110011001100
1101100011
1101110000
111100101
1111111000000010
1111100110000111
1111101101110000
1111110111101111
1111100101111110
1111111010110001
100100010
1111101001000011
1111101000000111
1111110011011011
1111101110000101
1111110111111100
1111111100011100
1111111110101100
11011
1111111111011110
1100000
110100111
1010001000
1011101100
1101101011
1100110111
1001100000
1000101111
101110001
1111111110011111
1111111000010100
1111101001110111
1111101101010011
1111101010011100
1111100110101001
1000001100
1111111101001110
1111110000110010
1111111111110010
1111111001111010
101010100
1111101100011000
1111100110110000
1111110011110100
1111111110111111
1111111111101010
1101
1011001
1011111
111010001
1111001100
10111011111
10101011011
11010000100
1100011011
10100100
11100110
1111110010100111
10101100101
101001000
11100010011
1100100011
10001011010
100001010001
100100010
10010010101
111100100
1111111111111001
10010110100
100001000
1111110010001011
1111110101100101
1111111110100110
1101101
11100
1001
10101111
1100100100
111101101
1111010111
1101001111
1111111011111101
10101000
1111110110010110
1111111001111110
1
1111110101010110
10100000001
10111011000
111001000
11011001000
100111000000
11111001100
10100011111
100010111000
11001001100
100001110001
1111101000
1111111111001101
1111111101011101
11011
100010
1111111111111110
1100110
100100100
1100111100
1111000101
110110110
1111110100001101
1111100100000110
100100111
1111110011000010
1000101
1111111000100100
1111110001000111
1111110111111110
100111111
11111000
1111110101100000
10001111100
10111110001
11110011000
100001110101
11000000100
11111001110
1010111000
111100100
1111111101110010
1111111111111001
1111111111111100
1111111111110111
1111111111101000
11100101
110101011
1111110111
100001111
1111101101000111
1111100011101101
1111110001010001
1111100010010110
1111110111011000
1111110111101011
101011000
101010011
10101101110
1111101000111110
1111110101101100
1111111101011010
1110111010
1111110111010001
101010011
1111111110111000
11000001100
1110000110
1101110
1111111110110000
1111111111001000
100100
101011
1111111111011001
10011100
110001110
10110101100
1001010100
1000011
1111100100110011
1111101001101110
1111101001010000
1111111010000100
110011111
1111111010100101
1111101110100010
1111111001101010
1111010011001101
1111110011000111
1111111011001010
1111111010111100
1111110101110000
1111101011101011
1111111011010010
10111010110
10100001111
1001101010
100001001
1111111110110001
1111111111110011
1111111111111100
111000
1011000
10011001
100010101
1111111110110110
1111110011000110
1111101100000111
1111110011001001
1111111100010111
1111111100100101
1110101110
10000100010
1111110011110101
1111101100001000
1111011001000011
1111100101101001
111010100
100
101010100
1111110111101010
1111100011
1110111010
10100100110
10001001100
100000100
1111111101000000
1111111111011010
1111111111110101
10011
10
1111111100110110
111110
110110110
1111101110001101
1111101110011100
1111110101000100
1111111010011010
1111111111001100
1111110011001110
1111101010110011
1111110010010011
1111101110101011
1111111000000101
111111000
10011000011
11000000
10101110011
101011011011
11011101110
11100100000
11101111011
10000101110
1111111001111111
1111111111010011
1111111111101111
11110
101
10100100
1111111111101101
1001011111
1100011000
1111111011101110
10010110011
101111000
100011101
111110000
1111100100011100
1111011010101110
1111110001010101
1111100101100010
101101000
10011001000
1001110001
1011100111
101000010101
110000010011
11010101010
10110101001
11000101110
1111011000
1111110110011000
1111111101101100
110111
1111111111011010
110100
1100000
10100001
1100111
1111110100
1111111111101110
10010110001
10011010010
1111110100100010
1111011100010011
1111010101001001
1111100010000011
1111101000000000
1111100000101011
1111110011100100
10101011000
10110001110
1111111111011101
11001010000
1001010001
10111010011
10000110100
1100011010
1111111111010110
1111111011010001
1000010
101110
101
110111
10101
1100001
11101001
1010010000
1111111010011111
1111101011110110
11101101
1111100111010001
1111101000100010
1111111010010111
1111110101001010
1111011110101100
1111101111001100
10000011
10001001110
1101101010
1000111111
1111111111011110
1111111011010010
10010111011
101100011
1111101010110100
1111110001001010
1111111001011001
110111
1111111111001011
0
10111
1111010
101010000
111011101
100100010
1111110110001101
1111110010111110
1110010110
11000100
1111111011111100
1111111100001010
11010001111
1111111001110110
1111110101000011
1111101110011011
1111110111101000
1111111011100011
1010011000
1111110110000010
1111111010111000
1000010111
1111111111110010
1111100011101101
1111101001101001
1111111000101111
1111111110011101
10
1111111111011010
1000
10000001
1100101010
10100101011
111010
1111111110010101
1001100101
11111000
11010111101
11100001100
1000001100
1111001
1110010111
10011110101
1111100010100100
1111110011100010
1111101101111011
1111110110010010
1111011111000010
11010001
110011
1111111010001000
1111101111000001
1111101010011110
1111111010011001
1111111111000100
11001
100011
1111111111110101
10000010
1001111110
1110010011
100101100
10001010
10000110
11010010
10010111
1010100011
111010100
101011
10101111
101110110
1101010111
110010111
1111111110110001
1111110111111110
1111110100001110
1111110111101111
1111111010111101
1111110100010001
1111101101011101
1111101111010011
1111111010111001
10000000
1111111111100110
101000
1011
1001001
101011
10100111
100000101
1110110100
1101010010
11111100
1111111110000011
1111110101110110
1111110000000101
1111110011111111
1110011110
1111111101011011
10001111000
1110111
1111111000001111
1111111100001001
1111110000011101
1111110001101110
1111110001101001
1111111000111000
1111110001100101
1111110100001110
1111111011111010
1111111111011001
10001
1111111111010110
1111111111100110
0
11110100
110110010
101011000
111101011
10011110001
10101001
110010010
1111111101010100
1100101000
1111110111011111
10100100001
1100001
100110100
1111111100011010
1110100100
1101011
1111101100111001
1111101101100010
1111101111001001
1111110100011101
1111110101001000
1111111010010110
1111111110111011
1111111111100011
100010
1111111111000100
1111111111101110
1111111111100011
11111010
1010110111
1010010111
10100101100
11010111110
1111111010101110
1111111100010000
1010101010
1111111101110010
1111111101011100
11010101
1100111110
1010110010
1111110110110011
1111111111001110
1111111010101000
1111110101111000
1111101111111101
1111110000011110
1111110100001001
1111110110111100
1111111011010011
100
1010
1100
1111111111111001
1101
101010
1100
111010001
1110100000
10010011010
10100111010
10010100000
1111000111
10100011000
10011110101
10101101010
10011101110
1111111110001111
1111110010000000
1111110111001001
1111111001100011
1111110100000000
100101
10100110
1111111101000100
1111111011111011
1111111000110000
1111111100101011
1111111111010110
110
100111
1111111111111010
110001
1111111111110010
1111111111111110
1111111111001111
1111111111111100
1001111
10100111
110000101
110101100
1111111010
111010010
1111111100001000
1110001010
1100101010
10011110
10101100
1001010101
1010100011
1010110011
101000110
11011101
1111001
100011
1111111111111000
1100111
100
1000
101011
11100
1
1111111111101100
1111111111011110
1111111111101110
10001
100001000
11011100
1011011
10100001
11101
1111111111100011
1111111111110111
1110101
1111111111001110
111100
111010
1100000
10011000
1111111111010011
1000010
1111111110100110
111010
1111111111110010
1
1111111111011110
11010
