100111
1111111111111101
1010
100010
100
10101
1111111111101000
1111111111101110
1111111111110100
1111111111100001
1111111111001110
1111111111101000
1111111110110101
1111111111111011
10100
101
1
1111111111111100
1110
10111
10110
1111111111101100
1111111111001110
1111111111111101
1111111111010111
1111111111100101
1111111111101011
1111111111100101
1111111111101011
1101
1111111111111000
110100
1111111111111111
100
1001101
1111111111100000
1010010
1111111111111110
11011
101101
1101011
1001101
1111111111101110
1111111111011100
1111111101101111
110
1111111111101100
1011011
100011100
10001100
1000110
1111111111010110
10100
1111111111101100
11010
1111111111101011
1111111111001110
1111111110111011
10111
1111111111110110
110010
1111111111111011
1111111111100011
111111
1111111111001111
1111111101101111
110100
100111011
1111111110001011
1111111000011101
1111110110010100
1111111010100110
1111111000010111
10101111
1001000000
101011000
110001101
1000001101
11111110
10001001
1011000
1111111111010100
110110
110110
11100
1111111111110101
1111111111111000
1111111111111111
1001001
1111111111000000
1111111110101100
1111111110000010
1111110100101110
1111101110011110
1111101110000100
1111101101010001
1111100010101101
1111101000011100
1111110100010010
1111110110100000
1111100010010111
1111011111101101
1111111110011011
11000101
1000
10010110001
1111000010
1011110010
111100111
1111111111111110
1111111111111100
0
1111111111101010
1111111111111101
1111111110111110
1111111111011001
1011100
1111111111101100
1111111110101010
1111111010000101
1111101111011001
1111100110110000
1111100100100011
1111101101010011
1111110001000100
1111110100000011
1111111100001100
1111111100110010
1111110010110001
1111110110101011
1111101000111001
1111111000011011
1111110011101101
1111111110010111
1110001001
11100100110
1011010110
10010110
1111111111101011
10100
1111111111110100
1111111111101010
11100
10111
100010010
110001101
111011
1111111010101001
1111111100101011
1111110111000001
1111110000111000
1111111001011101
1111101110100111
1111111011011000
101111000
1111111110111110
1111101100100000
1111111000000010
1111110110110110
1111111100011101
1111111000100001
1110
1000000010
10000000001
1001011100
100011101
10111
1011
11011
1111111111111100
1111111111000101
1111111110000110
1111111101111011
1111111001111110
1111110010100111
1111110001101000
1111111111110111
1111111011010001
1111110100100110
1111101101011111
1111110001011001
1111010011000011
1111111100011111
1111111101001100
1001011010
110010000
1111101111101010
1111111011001001
10100001
100101110
1010100100
10011111110
111010110
10111010
1001110
1111111111111001
101111
1111111110000110
1111111111001100
1111111110000101
1111110001101111
1111101100001100
1111101011101000
1111101101001100
1111110100010111
1111111101100000
100100110
1111101001010101
1111110011010100
1111111100111001
1111111100101000
1000101101
1100011010
1111111111101001
100010111
1111110000101111
1101001
100001101
1111111011101111
110010100
1101101000
11101101
111100
1111111111110010
101100
1111111110110111
110
1111111010101100
1111110011111000
1111111100101000
1001110110
1111110100010001
1111110110100001
1111110101011111
1111101110110010
1111111110110001
1111111111000010
101100010
1001011011
1111111101010110
1100
1111110110100001
1000001
1111110000000000
1111110100111111
1111110110101000
1100100
100001100
11010000110
100111011
1111111111011100
111101
111001
1111111111011010
1111111111000101
1111111101101001
1111111101000110
1000111101
11010111001
1110101010
10100010101
100101111101
1000000100111
1000101000110
110111001100
101110111101
1101010110
100100011
1111110000111110
1111110001000100
1111101111010011
10111011
1111111101101101
1111111110001110
1111101111000100
11011000
10101101101
101
1111111111010100
1111111111100000
1111111111011101
1000100
1011000
1000000100
11100011101
110001110110
111110010111
1001110000000
1100010010010
1101111011010
1100001101010
110110011010
100001100010
11001011011
110011011
10011100011
1111110010111100
1111100111011000
1111110001110100
11100000
1111110100111001
1111110101011111
1111000
10011111110
10110011101
1111111101100001
1111111111101111
101111
1111111111110101
1
1111111111110001
1011001000
100100100010
111010010101
111100101101
111111111111
110010000110
110001111100
10000001110
1111010
100
1100001110
1111110111011100
11110110
1101000011
1111110000010011
1111111101010000
1111111100010110
1111110101110101
101111101
101100001
10001000101
111011110
1111111111011101
1111111111100011
110011
1111111111101110
1111111110101010
1111111111110110
1101100111
11011011101
100011011001
101100100111
10101100000
1111110110000011
1111110111010101
1111100001100011
1111100101001100
1111011010001101
1111101110101000
1111101000000010
1111100011
1000000110
1110000000
1111111011101110
1111111000111110
10101100
111101001
1010011111
10101100111
10111101
1111111010001010
1111111111100111
1111111111100100
1111111111010111
1011
1111111110010001
110000
10011111100
1010011101
11000010
1111111010101101
1111101100110011
1111101110101001
1111010110111110
1111110011111000
1111111110010011
1111110011101001
101101100
1010100000
110101100
1101110
1111111110011011
1111110111111101
1111110010111011
1111111111010101
11000001000
10000001011
1101
1111111011000110
1111111110011000
1111111111011111
1111111111101011
1111111111011110
100111
1111111000111101
1111110110110011
1111110001011010
1111010001111010
1111100000111111
1111101101010110
1111110011111000
1111110011011111
101011010
1111111110100001
1111111100111110
1111111000010110
110
1111111111001010
1000110100
11110011
10100110
1111111011000101
1111101111001001
1110000001
1100011011
1111111110001110
1111110110101001
1111111001110000
100010
10
1111111111100001
1111111110101001
1111110101100100
1111100100111111
1111100011010010
1111011001111100
1111110000010011
11010111100
101110100
1100001001
1110001000
11001000
1111110010111101
111000100
1101001010
1111101010101100
100100111011
1111111101100101
1111111011101010
1111100110
1001011000
1111110101
1111111101010101
1111110111010011
1111111000111001
1111111010011110
11010
1111111111011010
1111111110100101
1111111100001111
1111110011000011
1111101010010110
1111101110001101
1111110100011011
1111110100111010
10011101110
1111111100111000
101011100
101110100
1010010010
1111000111
1111111100111001
1010101
11111000
1111111000100110
1111101110111111
1111110011010010
1101001101
100111101
101011110
1111111010111001
1111111001010001
1111111000000111
1111111010111011
1111111110000110
1111111111000101
1111111111110101
1111111010101011
1111110010110000
1111101101011100
1111110100100011
1011110
10010000000
10011100010
11010001111
10011110100
10111011
1010010000
1111111100111010
1111111011100100
1111111111110100
100111100
1001101010
11011010
100110110
10100011010
111100011
1111001
1001011110
1001001100
1111110101001101
1111111100110100
1111111101110101
1111111111110011
1010
1111111101111011
1111101100010110
1111110110100000
1111110111010010
1111110100101101
11010001
1111110101001110
1111011101110101
1111110111010000
10011010
1100001111
101111101
10111100
1111111011111001
1111111011010010
111101100
1111111110011011
1111110111110100
1111110111001111
1111100100110001
1111100101001010
1010000110
11100010
1111110110100100
1111111110110001
1111111111100010
1
110110
10101000
1111110000001001
1111110001000000
1111111110100011
1111111011100010
1111111110101000
111100100
1111111111010110
1101011101
11100111
1110010
1111101001110010
1111111000001111
1111110010111000
11101
1111111100001010
111010011
1111111101110001
1111111010001000
1111101001100101
1111101110001011
100101111
111010
1111111010101010
1111111110010111
1111111111000101
1111111111111111
1111111111010111
100010100
1111110101011010
1111111001111110
110100000
10001111
10000010110
10001101011
110111110
11111111
101011100
1110
1111110110011100
1111111010001100
100101010
1011100101
101001100
110000000
1101100100
101101100
1111111100011001
1111111011001100
1110111
110111
1111111110011100
1111111110110011
1011
100101
1111111111011001
1111111101010011
1111110111110110
1111110111001101
110101010
1111111110101011
10010011
111101011
1100000100
101101001
1101100101
10110011
101100111
1101011001
1111111001001001
1111110001100101
1111101110001000
1111111000011000
1111111101011001
10100010100
10101001011
110000011
1111110111111100
1111111000101110
1111111110011011
1111111111110101
1111111111111010
1111111111011101
1111111111101010
1111111110111100
1111111011110110
1111110110101100
1111110110111000
11010011
1111110111001001
1000100001
1101101100
1111111100011100
110011000
101110111
110110000
1111111101000100
1111110001011110
1011000000
1111111101111111
1111111011100110
1111110110001110
1111111011100011
1010100110
1000001000
1111111011011000
1111111100011001
1111111111000101
101
1111111111111100
1111111111011000
110010
1111111110100010
1111111001110100
1111111110011111
1111111010110001
1101001000
11
110111101
1111111100101100
100001110
1000110010
10110110101
100001010
101101111
1111111011000010
101010001
1111111101001011
1111111001100011
1111111110110011
10000
1111111100010011
1111111100010010
1111111010000111
1111111110011000
1111111110111111
1111111111100101
1111111111101110
0
1
1111111111110011
1111111011001000
1111111001010011
1111111111101101
1111111011101100
1111111010101101
1111111000100011
1111111010111100
1111110010110101
1111110111010010
1000010100
1111111101111110
1111110011011111
100
1111111011011010
1111110001110000
1111111000111110
1111111100010001
1111110111100110
1111110011010000
1111111100011011
1111111110100011
1111111110111110
0
1001
11001
1111111111101011
100101
1111111111111000
0
1111111011011000
1111111000000010
1111111001011010
1111111100100000
1111110011010000
1111110111011110
1111110100111101
1111111100010110
1111111110110011
1111110110100011
10
101001011
10100
1111111011010011
1111110100010111
1111110100110101
101101
110011001
10001011
1111111111111000
1111111111001101
10011
1111111111110011
1101
1111111111111001
100101
1111111111011111
101010
10111
10001
1100111
11101111
1111111110101000
1111111000011010
1111111001010010
1111111111101010
1011
1111111100110111
111011110
100100101
1111111111111111
1111111101101001
1111111110111001
1111111111110011
1000100
1011000
1111111111010111
1111111111110111
1111111111000101
1000
1111111111011011
1111111110101011
1111111111101000
1111111111100001
1100
1111111111110001
1111111111101100
1111111111110001
1111111111110011
1000001
1111111111110010
1111111111110011
10101110
101011
1110100
110100
110010
1111111111110010
111
1111111111110101
110100
1000111
1111111111000000
111
1111111111100011
1111
1111111111101000
1010
110110
1111111111110100
