1111111111010100
110
1111111111011100
10001
11110
1111111111101011
100100
10101
1111111111010001
1111111111001011
100011
110010
100
1
1111111111000000
1111111111111100
1111111111110001
1111111111110010
10111
10
1111111111000100
1111111111100000
1111111111001011
1000
1111111111100110
1111111111111110
100011
1010
10001
11001
11110
1111111111111000
101
100110
1111111111100100
0
0
11000
101001
110011
101100
101001
1111111111010111
1111111110111011
1111111101101010
1111111111101101
100100
1111111111111000
1001100
1011000
101111
1111111111110101
0
111
1111111111101100
10100
1111111111110111
100111
1111111111110011
1111111111101110
100011
1111111111010100
1111111111011010
111101
11011
1011
1011001
11000
1111111111110111
1111111110110100
1111111110100000
1111111100111010
1111111100110111
1101
1010001
10011011
1010100
10010101
1011101
10111
1101
101
1111111111011010
1111111111111011
11001
1111111111101100
1111111111000101
100101
101110
1111111111101101
1010
1001111
111101
1101101
101010100
1111111110111110
1111111010100010
1111110100001101
1111110110000011
1111110011110110
1111101100111010
1111110000111110
1111110111101101
111110
111000110
111100001
10011001
100111011
101011111
10001
1111111111100100
111110
10
111001
1111111111101001
111111
1111111111010000
11001
1101100
1010001
1111111111110001
111100011
1101101001
11000000
1111110100001110
1111110000001011
1111100101010011
1111100111001101
1111100100000111
1111110100011101
1011001100
111110111
1100000100
10000000101
10100000100
10110010001
1101100110
11001
1111111111011011
100011
100110
1001
101011
11111
1111111111111101
1100101
1100001
100001101
101111000
10001111001
10111000110
10000010000
10000100110
1111101100000011
1111100101110000
1111100111110001
1111101100000000
1111111010001101
1111111001111010
1111111000110111
11000
1000101011
1010110101
10110111010
1001000101
1111111100101010
1111111111001010
1111111111011000
1111111111011001
1111111110101111
10101100
1111111111011010
100000
101011001
0
1000100010
1111111010011011
1111111011101101
10100010
100001101001
11111111100
1101011010
111101011
1111111010001010
1111011010111001
1111010101101011
1111011101001100
1000110001
11001111
101001000
100100101111
11011110100
10000110101
1111111010110101
0
1
10011
1111111111100011
1011101
1111111111001001
1111111110000111
1111111111101111
1111110110011000
100101011
1111101011111001
1111110010010011
11000010
11100001011
101001101
11011100110
10000101110
1111011001101100
1111011011000111
1111101010001001
1111101101011011
1111101101111000
1111110000001110
1111111011011011
1001011000
10001111101
1010101000
1100100
10011101
1111111111011111
1111111111110111
10110
1111111111110111
1110101
1111111110101000
1011110
1111110001111001
1111110010101111
1111101111000010
1111110100110110
1111111100101011
10010111001
1101110101
11101111010
1011101010
1111101111101110
1111100111011101
1111111110111101
1111101101110110
1111101111101000
1111110100101100
1111111000010001
1001001111
10110010101
10101110010
1100001000
1111111100000001
1111111101101010
100000
1111111111010010
110001
10100001
11101000
1000111
1111110111110001
1111110111110100
111111111
1001
1111110001111100
110101010
110010111
10010111011
10010111010
1111101010101101
1111101011001110
1111111000011010
1111111010110110
1111111110000011
1111110010100001
1111111101111100
1101110
1101001001
10011001100
1010101
1111111111011010
1000011
1111111111010101
101100
10101111
10011000
1000001110
110101101
1111111101110000
1101000010
10010000110
1111111001111001
110101010
10010010011
1100101011
11101010110
1111111101100001
1111011100010011
1111010101011110
1111110001100111
1111111100110110
110001111
1111110101011000
1111110000110110
1111111011110110
10000101100
11111011100
1000110000
1010011
1111111111001010
100001
1011
10010010
101011001
1000010110
1100000011
11011010
1111110101101011
1111111101100010
1111110010010110
11011100
1010111110
100011000010
10000010010
1111110110100000
1111100101011111
1111101111000100
1111110001111110
1111111110011101
1111100100001000
1111010111010010
1111101100110110
100010000
11001111001
10101010110
10000000
1111111111011110
1
1001
1111111111011110
1100101
1100001
110000
111100100
100110100
1111110111101011
1010000110
1111111100101110
1111111100011100
1111111101011100
100010011100
11111111000
1111111100101110
1111101011100111
1111100111101101
1111100100101110
1111110000000100
1111011010010101
1111100110010011
1111111101110011
100011101101
10101000010
1101010000
11001100
101100
1010111
101100
100100
1111111111111111
1111111111101001
110101110
11011111101
101111111
1111111001000000
1111111001101110
1111111000000011
1101100100
1111111101010100
1011010111
110000000
1111100111101111
1111101010111101
1111011101110110
1111011000100101
1111100101011110
1111100110011101
1111101011101000
10110011010
100110001001
11110010010
1110001101
111010111
101111
1111111111001100
101110
1
0
1001101
1001111111
101000111100
110001111
1111111101011000
1000101011
11001010110
10110101100
1011101001
1010111110
1111101010100111
1111110000001000
1111100100100011
1111101010101100
1111101010111100
1111111110011101
1111111111111100
10100000010
11000001010
101010001000
100011001000
1101110000
1111111110001101
1111111110000010
110
1111111111101100
1111111111000000
10001001
100101010
1110010011
11011110100
11001101011
1010011001
1100111001
10001000111
100001100110
1000001011
1010000010
1111100101111101
1111110010001101
1111100101100110
1111110001110000
1100101000
1010111001
10010011110
110001110101
11100011101
10011011000
10111101111
1100110010
1111111110100001
1001110
1111111111110100
1100
11000
10110
110000110
1001001111
11000110001
100011101001
1101011100
1101111110
101111010
11010111
1111110101111001
1111111001110111
1000110111
11000101
1111110111110000
1111111100111000
11001001001
11111011001
101001001101
110111000001
1101001111
1000001101
1010001100
111101110
1011010
1111111111111101
1111111111010100
1111111111100110
1111111111000111
1111111111010011
1101101
1010100
10011000111
100001110001
11100110
1111110110100111
1111111100100111
1011101010
111110
1111110001010000
1111111001001011
11000110
10001110
1111111101100100
10001000001
1101100001
11000001011
10110110010
1100011100
10011000100
10001000
1111111001100010
1111111110001011
1111111111111000
1000
1111111111101000
1111111111101111
1111111111101011
1111111000011100
1111111111000001
11111111
1001000010
111010100
1111111011001011
1011110
1111110111110101
100001001
1000101011
1111110111001100
110011111
1111101110011101
1010110101
101111111
1111110100101110
111111001
1011001111
100011100
1111111101001010
1111110101000101
1111110001111110
1011
10001
1111111111111000
11011
10001
100101111
1111111010111100
110110111
100001101
1111111011010000
111000111
1001100001
1111111001011110
1111111110100001
100000001010
1010110111
1110111
1111111010001000
1111111001000011
1111110110101100
1111111110111110
1111111111101110
1111111001111000
1111111101101011
1111111100110001
1010111
1111110110101111
1111111010101101
1111111111101111
1111111111011111
101100
1100
11000
100001010
1111111001001111
1111111011
10011000100
1111111111001011
1111110001001010
10100001
10110000000
1111111010110011
1010010110
1101000111
1000000101
1111111000000100
101001001
10010110
1111111001101001
1111101111011111
1111110100001100
1111110101011000
1111111111100000
1110110101
11101
11011
1111111111110111
1111111111111010
10001
10000
1111111111101110
1111111110000000
1111110101100000
111010010
100100000
11111
1001000011
1111110011
1010111010
1111111110000111
10001001110
1100111110
1111111100000110
10010111
1110101101
1111111001101000
1111101101111111
1111100101000100
1111111010001101
11110110
10001111001
1111100110
110100011
110110001
1111111111011001
1111111111010100
1001
1111111111110010
100111
1111111110101011
1111111100001000
1111111111101101
1111111100010111
1111111101100101
1011101000
1111111111000110
1111111100101001
1111111000100111
1001111111
10010010010
1111110110111011
1111101101111110
1111111011100001
1111111010010100
1111111100101000
1111111001001001
1000100011
1011010110
1101010110
1100110110
101000101
10000110
1111111110101111
1111111111000100
1111111111100100
100010
1111111111110100
1111111111101010
1111111111011000
10110110
101101001
1100110100
10000100
11100010
1000011100
1001111011
10101
101100110
1111110010011110
1000101001
101110000
110001000
1111111111001001
1111100010010010
1111101110110101
1111111111011010
1001110010
1111111111000001
1111111111110100
1111111110100101
1111111111001100
1111111110111100
1111111111101011
1011
1111111111010111
1001
1111111111100100
1111111000100110
1111110111110000
1111110000101000
10100
11001100
1100011010
10010101100
10011110010
10110110011
1101000011
1111010010
1111111010100101
1111110111000010
1111101000100100
1111101000010011
1111110000000011
1111111001010011
100011000
111101
101000
1010
1111111111110111
1000
101001
100
1111111111110011
1111111111100111
101111
1111111010010010
1111110001000000
1111101100000000
1111101101111001
1111101010001000
1111111001110010
1101010010
1111110101
101100111
1111111000110011
1111101011010001
1111110111010110
1111110010011000
1111101010001100
1111110100001000
1111101011000001
1111110001010000
10010001
100000110
101011110
11010100
1111111111101000
100110
1000
1010
111101
1111111111100100
1111111111011110
1111111111101011
1111111001110001
1111110111000100
1111110111101011
1111110101000000
1111110101101101
1111110000001110
1111111001000100
10000
1001001
1111101101001101
1011111
1111111110010000
1111101101111100
1111101111001101
1111110101111100
1111111001110011
1111111100001010
1111111100010010
1111111110100100
1111111111010001
1111111111100001
1111111111011001
1111111111101110
0
1111111110101000
111100
1011
1111111111110000
1111111111111101
1111111111011010
1111111101001000
1111111101000000
1111111111111001
1111111111111100
1111111111011111
1111111100100001
1111111111111000
1111111100010010
1111111100101000
1111111111010110
1111111101011101
1111111100000100
1111111110000010
100111
1111111111101110
1111111111101011
1111111111100100
101
10
1111111111111100
1111111111000101
