1111111111010110
10
111101
1100
10000
1111111111100101
1111111111011100
1011
101
1
1111111111111011
1111111111011111
0
1111111111111110
1111111111101111
1111111111010110
111001
110010
0
1111111111111001
1111111110111010
0
10000
1111111111010000
1111111111001001
101110
110100
11000
11010
10010
10111
1111111111100100
1111111111100011
1100
1111111111111000
11101
1111111111100101
1111
1111111110010101
1111111110011000
1111111100111001
1111111101101100
1111111101100100
1111111011011110
1111111101001100
1111111110100110
1111111110100100
1111111111000001
1111111111100101
1111111111111000
1111111111010100
1111111110111010
100001
1111111111111111
1111111111111000
100111
1100
1111111111111111
1111111111110101
1111111110110101
111001
1111111111100010
1111111111100001
1111111101101101
1111111100000101
1111111100011101
1111110111100100
1111101110001100
1111110011001001
1111111000110011
1111111000100000
1111110111001010
1111110100000101
1111110011101111
1111110100010111
1111110111010101
1111110110100001
1111111000110010
1111111100111000
1111111110000110
1111111111101110
110000
10011
11
1101
1111111110111010
1111111111101110
100100
1111111111101100
1111111111000000
1111111111011101
1111111111110100
1111111000100101
1111110111111001
1111101111101110
1111100110011101
1111100111000101
1111101000100001
1111110001111010
1111110101100011
1111101001010011
1111101010101000
1111100101011001
1111101110011010
1111111010010110
1111110110111011
1111111010011101
1111111011111010
1111111100101101
110001
10011
1111111111110000
1111111111000111
10111
11
101011
1011
1111111111010001
11011
1111111001100011
1111110010100001
1111101110100101
1111100010010111
1111011001010011
1111101000101001
1111110010110011
1111110010111110
1111100111110010
1111100010111100
1111101010111010
1111101100101000
1111110100100101
1110110
111010010
1010101100
10101100
1111111101110100
1111111000110100
1111111100111010
1111111110111110
1111111111100101
1001000
1111111111010001
1111111111000001
100001101
1000110001
10001011101
101100010
1111010110
1001010111
1111110101111101
1111101110101111
1111110000101010
1111101000111110
1111101101101010
1111110111101001
1111110100111000
1111101011110010
1111101100101001
1111011110010011
1111101000011000
1111110010111101
1111111111000000
101011001
1111111110110111
1111111010011011
1111111101101001
1111111111111011
11111
101111
10000
1111111110111101
10101
1111000000
11000001110
10011101110
11111010010
111111100
1111111110111111
1011000011
10110100
101110100
10000000101
1111111110000000
1101000111
1010100110
1111110111100101
1111110010010000
1111110101100101
10010
1111111010001010
1111110101101011
1111111011000001
1111111001101110
10001
1111111111001011
11010
1111111111011010
101101
1000110110
110011000
1111111100111000
10001111010
1010111001
111101010
1100110010
1011111000
1111111111111100
110001100
101100001
1111111000001100
1111110100011010
1001110010
1111110101
1111110100001110
1000111011
1010101110
1111111010110111
1111110001101101
111000
101001111
111110011
1000001101
1111111111110011
1111111111100101
1000100
100000100
111000011
1111111100011000
1111110111100001
1111111101100100
110100000
101101001
100011101
1111111001100001
1100111000
1000100100
1111111001111010
1111111110001010
10011111110
1111110010110101
1111111010001010
10111010
1111111001011100
1000110001
1111111000101110
1111111010111001
1111111110010101
1101110101
1001101001
1111111101110101
1111111111110110
1110
1001010
1110110
110001100
100100110
111011
100001001
11000
0
1111111000011001
11011110101
10100000110
1001010110
100111110
1111111011100011
1111111000001011
1111110011110010
111001100
10100100101
1100010111
1111111011101001
1111110101011111
0
1111101001101011
1111101111101011
1111111010000010
10111001
1011110111
111101
1111001
10011111
1001111111
1010000110
1100000001
1000100010
11100010
1111110000001110
11000011010
1111111011101110
1111110101110100
10111101001
10110110101
1001100
1101011110
10000110111
10001101011
1111111101100111
10001001000
1111110010101100
1111111010100000
11000001
1111100111100000
1111101110111111
1001011100
11010101
10011000
1111111111101110
10010110
11110100
101001010
1111111000100010
1111110101111111
1011011010
111100111
111000110
101011111
1111111010111111
1010100010
1101111011
1111110110100110
10100101111
101101001011
11100101100
100000110110
1111110001
10100111000
1110011100
1110100001
11111011
1111110111001100
1111101001011000
1111111010100000
1111111011000011
101111
1111111111100100
110000
10111011
1111111010101110
1111111010000111
1111110000000110
11010010
1110010000
1101100001
110100
110010001
10011011110
1111111111100010
1111110000111111
10111
10111101011
10001110110
1001110
10001100111
100001110000
10000010000
1111111000100011
10011111
1111101111101010
1111101010001111
1111111100010000
1111111111100111
1100100
111111
1111111111111101
10110100
1111111001110101
110100110
1111111110011101
100010000
1111011010
101001000
1111111110001010
10101110111
100100110
1111111100001111
1111110111000011
1010100100
1011100111
10011111100
1110011010
11101001
1100000000
1111111110100110
110110011
1111110111011111
1111101111000000
1111111010010111
1111111100010010
1111111110000000
1111111111110001
101010
1111111111110101
111110
1111111111101011
11000110
1001110
110011011
10000100000
1110100101
101011010
11101001
111111011
10110100
1111111001111101
1111111101000010
100000100
10010000001
11001010110
10101111011
10110100101
10011010100
1011101100
10011110100
101000101
1111111110000001
10000010
111000
101000
100
100010
1111111111101101
100011101
110100111
111100
1000000111
1111111111011010
1111111100110001
1111110100010001
1000111101
10101010
1111111100101100
1111110010000011
1111111011101101
11011000100
101010101
10100001110
11011110111
1110010010
1111111110011101
1111000100
1101001011
1010100101
1111111100001111
1111111111111001
1110101
1111111110111001
11111
11110
1111111101111101
100111
11111101
100000010
1100011101
1100011000
10100100100
100100111
100111110
1111101110001100
1100111
1111110011100111
1111111101101001
10001011100
1111110
1101010010
11100101100
1110000111
10011001011
1111110100111111
1111110010111000
1111111001111011
1111110000000101
1111111001011111
1111111110000000
1010
1001100
11
1111111101001100
1111111101001011
11110011
101111010
1110000111
10000011010
100010001
1001000001
1111101111010100
1111111110010010
111011100
1111111100110000
1010111
100011000100
100010000110
100010000000
10101011000
1111111100101001
110010110
1100111
1111111001000011
100100000
1111111010001001
1111111111111111
10001100
1111111111101101
1111111111110101
1111111111101011
1111111101111011
1111110111000010
1000000010
1010110011
101001100
11111
100010011
1111111000001000
101000
11110101
1111111110101101
100001101111
101011010011
101001111111
1001001001
1011101101
10110
1111111000000110
1101100100
1111001000
1111110000010000
1111110101111111
1111111101101110
1100101
11110010
111
100000
1111111111111100
1111111110100010
1111111100101110
1010001011
101101110
1111111101000111
11101001
1111111100101101
10011010
111110001
1101000000
1000000010
1111111011011000
10001111111
1111111011011110
1111110100110110
1111101111001101
1111101111000111
1111101100011100
1111110111101101
1111111010111000
1111100100100110
1111101101110110
1111110101110001
1111111110110011
1111111110111100
110001
1111111111101111
1111111111110111
1111111111000010
1111111001111011
101011100
1111110011001000
1111101011000011
1111101100110001
1111100100000101
1111110111001000
1111101101110011
1111100110000111
1111011010001011
1111011101001111
1111001111111000
1111001100000101
1111100000001101
1111011010100101
1111011011111001
1111011101000001
1111001111011010
1111011001011000
1111100100101101
1111110011011000
101001
1111111111011100
1111
1111111111101101
100111
1111111111110011
1111111110001010
1111110101110011
100100111
1111110110101111
1111100101110111
1111100001111001
1111001100111110
1111011001111001
1111011000110110
1111001100000111
1111010101110101
1111000011000010
1111000010110101
1110111101100101
1111101001100101
1111001100000001
1111010110010100
1111011101110110
1111011100011110
1111100101000001
1111110010111110
1111111010000111
1111111111111100
110010
1111111111001001
1111111110110011
10001
1111111111111010
1111111110100000
1111110101111100
11110
1111110101000010
1111110110001000
1111110110100010
1111110001100111
1111011010011010
1111101010111111
1111110001110000
1111101101000011
1111011110010110
1111110001110100
1111101000111111
1111101000000000
1111101101110010
1111101100100001
1111100000000101
1111100111011111
1111101001011110
1111111010010010
1111111100110110
1111111110100010
1111111101110000
1111111111111101
100011
1111111111101010
1
1111111110001100
1111111001101000
1111111110110110
1111111101100111
1100011010
1011101010
11001000
1111101110100110
1111101010000001
1111110000000011
1111101011110110
1111100100111000
1111101001011101
1111010001101100
1111001101011111
1111100101011101
1111100101000010
1111100110101110
1111101010110111
1111110000010101
1111101111100101
1111110110001000
1111111110010011
1111111100111110
101110
10101
101110
10110
1101011
1111111111000001
11110011
10101000000
1001001010
1111111100110110
1111110101111110
1111100111101010
1111110000100001
1111101001100011
1111011111001000
1111101001011000
1111011111100100
1111011001100110
1111011110011111
1111101011101011
1111010110010101
1111100100111100
1111111110101000
1111111001011100
1111110101001001
1111111111101111
1111111111001000
1111111111011011
10011
11001
1111111111100101
1111111110111001
1001
1000001
110010010
1001011000
1111110011111101
1111101100010000
1111101101101110
1111110000001011
1111101111100100
111011010
1111111001110101
1111101110100110
1111111111101100
111011100
1111111000001100
1111110010111100
1111101101000100
1111101010111101
1111111101000000
1111111111111001
10010000
100001110
11011
1111111111011000
1111
1111111111100010
1111111111000111
110101
1111111111001001
1111111111001001
1111111111110110
1110101
11100011
111001110
100001111
1000011111
1110101
1111111110000011
100000
100110111
10111110111
10101010110
110001010
1111111101100001
1111111101100010
10101001
1011001
100010
111
11011
100000
1111111111011011
11
100111
10111
101
10000
1111111111111111
1111111111110000
11010
10111
1111111111111101
1111111110111010
10111
111101
1101111
1101010
1100010
10100011
11000010
1111100
10100011
100111100
10011101
1011011
110011
1111111111001111
1111111111111101
10001
100
1000000
10001
