1111
11101
1111111111110011
11111
1010
1111111111101011
1111111111011101
1111111111000111
1111111111110111
11001
110011
1111111111001100
1111111111101001
101000
1111111111110100
1111111111110101
110
10011
101
110011
10010
1111
1111111111111111
1111111111111010
1111111111111001
101010
1100
1111111111110101
1111111111010100
1111111111001100
1111111111101010
1
101110
1
1111111111100010
1111
1111111111101111
1111111111010111
1111111111110111
1111111111010010
1111111111110010
1111111111001011
1111111110010000
1111111110011000
1111111111010010
1111111111001100
1111111111011111
1001010
1111111111001111
1111111101000010
1111111111111111
1111111111111111
10000
1111111111111010
1111111111111110
1110
1111111111100011
1011000
10110
100000
1000100
1000
1111111111110101
1111111110111001
1111111110001010
1111111111110111
1111111110101000
1111111110000000
100
1111111110001010
1010110
1011100
1011010
1111111010101111
1111110110100110
1111111100111001
11011
1111110110110011
1111111011010100
1111111110000101
1111001
110000
1111111110111110
1000110
1111111111101001
1111111111111100
110000
11011
1111111111110010
110000
1111111111011011
1111111110100101
100001011
101001110
1111111011000010
1010101
111010100
101000101
110111001
101110010
1011110101
1111111110010100
1111111011000111
110110000
1111111011011100
1111110011110111
1111110110110110
1111110010010110
1111111000001100
1111111111111111
1111111111101001
1111111111100100
1111111111111001
11110
1111111111101010
1111111111100111
1101
1111011
10000001
100
1111111110111011
1111111011010011
1111110101110000
1111111100111010
1111110011011110
1111111000110100
1111111100111100
1111111101101001
10000000001
1111111010100101
1111111110010111
110111000
1011000111
1111111010010111
1111111011000000
1111101101001100
1111101110010010
1111111101001011
1111111111101100
1111111111011101
1111111111000000
10001
1111111111101000
111
101000
101100
1111111111011110
100010110
11000001
1111111100110011
100101110
100110001
1111111011110110
1111111010001111
1111101101111100
1111111101000111
1000111101
1111101110110111
1111110111001000
1111111010100111
1111110110111111
1111111101000100
1001001
1111110111111000
1111110011100110
1111111001011000
1111111100001010
1111111110111000
1
1111111111110001
101100
1111111111100101
1111111111011110
1111111101010101
110000000
1111111111100000
1111110111100111
101100000
10011111100
1111110101000001
1111111000000111
1111110110001001
1001001
1111111110010100
1001111001
1111111101011000
1111111010110101
1111111111011000
1111111100000110
1111110111010001
110000101
1111110110101111
1111110010111001
1111110101001010
1111111110010010
1111111110011101
1111111111111000
1101110
1111111110101010
1111111110100001
1111111101111111
1111111111001110
10011100
1111111110010111
1100101
101001111
1011001011
1111111110111111
1111110111001101
1111110000101100
1111111100110010
1111111000001110
1111110110111011
101000100
1111111100001110
10100000100
1000101110
1111111111010010
100101011
1111110110101000
1111100110100111
1111110101010101
1111111101101011
1111111110110011
111010
100111
1111111101101100
1111111100011110
1000110
101101
1111110101011011
1111111000100001
1111110101001010
1111110001001110
10100111
110011010
1111110011100000
1111111100010011
1010101011
110001001
1111110010001111
1001000010
1111111010111000
10011100101
1111111101001100
1111111111010001
1111111110001101
1111110111101110
1111010100010110
1111110011111001
1111111110000100
1111111110101100
1111111111110010
1111111110101011
1111111110110010
1111111110111010
1111111110010110
10000001111
1100
111101000
10000001110
101111101
10100011001
1110000010
100100111111
1111111011110111
1111101110111000
10000110
1011010010
111011101
1011101
1111101101110100
1111101111100001
1111111110010111
11010000
1111111101000101
1111100110011100
1111110111110111
1000101011
1011010110
100101
1111111110101011
1111111101111110
1111111100001101
1111111100101100
1000110000
10000100101
100010011011
110010101111
11001011011
11110110110
10000101100
1111111110101011
1111100111110011
1111010111000111
111111011
11110011
1110010010
1111000001
110100011
1111111101111111
1111111000001000
1111111100111001
1111110001000111
1111111111110001
1110001100
1010001001
10101111
1111111111110111
1101
1111111101010010
1111111000100010
1111110000010110
1111110111111010
1000000101
1111111011110101
1111100001
1111111101101000
1111111111010001
1111111010101001
1110111011111011
1111000010000001
1111011110001010
1111111100101101
1111110111011000
110000101
1111111111000110
10000101
111111011
0
101111000
1111110100001001
1111110101001110
111010000
1111111101100111
11
101111
1111111111101111
1111111110000101
1111110100110100
1111100011010000
1111100000110001
1111011101000100
1111010001100110
1111011001001111
1110110011010000
1110010101101110
1110100001011001
1110110010111100
1111001110101011
1111101111100011
1111110110100100
101101000
1111111111000101
1111111111001111
1111111110000011
100101110
1111110011100001
1111101111101001
1111101101010000
1111110111001100
1001000011
1011001
1011001
1111111111110001
1111111111010101
110110
1111101011001100
1111001111000000
1111001100001000
1110111100010111
1110010101100000
1110001111110100
1110101000001110
1111000001001110
1111111111010011
1110000100
1001111000
1111111100010010
1111100111001101
1101001
100001110
1111110110100101
1111110101011111
1011010001
1111111011001010
1111111010100011
10011100
1001111100
1100000001
111011110
101010111
11001
1001
11001
1111100101111101
1111010100111000
1111000101011111
1110111111000011
1111000110011001
1111011100011101
1111111010
110111010
1101101000
11101010100
1101101011
1110010100
101110100
1111111101100111
1111110111000101
1111001
100
1111110100111110
110111001
1001010010
1011100110
10001100101
1100011010
1000001110
1001100
1110
1000
1111111111110001
1111101101010000
1111100101001110
1111101010001011
1111110001100110
101100101
10001000111
111010110
1011011101
10000100100
10111101
11001000101
1011000101
10101010101
11100001
11011101
1111111100110000
1111110011010000
11111110
1010111100
101101110
1101000100
1110110111
110001100
1111111111110001
100
1111111111001111
11111
1110010
1111111100101110
1111111001010101
1111111001100110
1100010001
10110111000
1001010101
1100001011
1100101100
1000101110
100011101
1011000101
1101000110
10011000
10111000
1111111010110101
1111000110
111101101
1111111110111100
1100110111
111111101
1001110010
10100010101
10011001010
1001010010
1111111111110010
1111111111000111
110101
10100001
11111100
1110001011
10010010111
10001001011
1100011010
1111111011011111
11010001
1101000101
10010001
1010110100
11001101
1110011110
100000001
1111111110011111
1111110111100011
1111111011100001
1111101101001001
1111011100010100
1111110011101000
1111110010110100
1111101000110101
1001010100
1111110011
11100100
1000101
11010
1111111111010101
1001111
1010110111
10110101100
11101111001
1001010000
1111111111010001
1111111001110100
1111111010011111
1111111100000100
1111111101100011
1010011011
1111111000011011
1101110
10000101
1111111101110010
1111111110001000
1111111000000000
1111111101011010
1111101001000111
1111111011101010
1111110111110110
1111111001001001
10001100001
1110011111
10001010
111110
1111111111011001
1111111111001100
1111111101011110
10110010
10110101011
10010100111
101000000
10000111111
111010111
101101010
1111111000000100
110010001
1111111001001100
1110001001
1111110101001000
1111111111011110
1010000110
10010101
1111110000100100
10000011010
1111111110100100
11000000
1111111010110001
10010011
1100010001
1011010010
10000110
1001
100010
11010
1001000
1100111100
11110110000
10001101111
11001001
1111111110011010
1111011011
1111111111011001
100111111
1010010000
1111110100011101
1111111000011010
1010110010
1111110101111110
1101000010
1111110110111010
1111111111111011
10011100000
1100010010
1101
1111111111110010
1011011001
1011000100
110010011
10001010
111111
10010
1111111111111000
1000011000
10011101111
10111010111
10011110101
1111111
1111111111110001
100101100
1111111010100100
1010001101
1111111100100011
1111111110110110
1111111110001100
111001011
1000011
1111111011111001
100100011
100000110000
10000110111
1111110101001010
1101101000
110100010
1111111000
1011110111
101010010
1000110
1011
1110
1111111111011000
11010100
11001111
10001111001
100110100010
1111111101000101
1111110011001110
1001001000
10001011
1111111111110000
1111111111000100
1111101110101000
1111110001101100
110011000
1111111000011101
1111111111010110
1000101110
1110001111
10011011110
111011100
10000000101
11111010
100000110
100011000
10101110
1111111111111001
11011
1111111111011001
10111
101
1111111110110011
1111111
1001110110
10000111110
1101001001
101000
10100001
1111110110111010
1111111110101101
1000000011
101010100
1111110011000010
1001001110
11101100
1111111110100101
10001000100
101000000
1111111110110111
1111110101
111001110
11011001
101011010
10111100
1001101
11101
11011
1111111111011101
1111111111000000
110011
101011111
1111111111001011
1111111001010111
1111111100011011
10110110
1111111100010111
1111110101000000
1111110110100000
1111111101110101
1111110111100011
1111110101011100
1111111101010100
1111111101000110
1100011100
1111111111100110
1111110110111110
1111110011010101
100010100
1101100
1110000
101110011
1111000
1111111111110111
111000
110
100110
1111111111101111
1111111111111000
10110101
1111111111101111
1111111101011010
1111111011001110
1111111111000110
1111111011101001
1111111100010110
1111110110111100
1001110111
1111110111100011
1111111100111101
10010011110
1111101011
1111110001110011
1111101001110100
1111101110111000
1111101101010010
1111110000101100
1111111000100111
1111111111110001
1111111110101011
101011
1111111111111111
101
1111111111101111
1111111111101001
0
1111111111111011
1000
1111111100000001
1111111100001110
100110
1111111110000110
1111111000001011
1111111010110111
1111110110000001
1111110111100110
1111111011110110
101100100
10010101
1111110011001101
1111110011010101
1111110011001001
1111111011101001
1111110101010111
1111110100011010
1111111011110011
101001
1111111111010100
1101
1111111111011100
10011
101000
101110
1111111110111000
111011
1111111111011111
10
1111111111010010
1111111111011010
1111111111100110
1111111111100110
11
1111111110111110
11111
1111111111100101
1111111110100001
1111111111011001
1111111111111110
1111111111100101
1111111100011001
1111111110001100
1111111001111110
1111111100100110
1111111011111100
101
1111111111100101
101
1111111111110110
111010
