1111111111101000
1000
100001
11100
1111111111111101
111111
1111111111001000
10000
0
1111111111010000
1111111111101000
1111111111101100
111011
1111111111101011
1111111111110100
1011
10111
111001
1111111111110101
10111
1111111111101011
1111111111001100
1111111111100110
1111111110110100
111110
1111111111111100
1111111111110000
1111111111101110
1111111111110110
100001
1111111111111000
10000
1010
1111111111110010
1111111111000101
1111111101001100
1111111011001100
1111111110000110
1111111101111100
1111111100000011
1111111010100100
1111111100101010
1111111110000101
1111111101111100
1111111100100100
1111111101010111
11010
1111111110101011
1111111110110101
1111111111010001
1111111110101010
1111111110111010
1111111111100100
1011
1100
100011
1111111111101000
1111111111110011
1010
1111111111001101
1111111111101011
111111
1111111110001110
1111111010010000
1111110110010101
1111111000000100
1111110011100010
1111110011101111
1111110000101000
1111110001011001
1111110100111110
1111111011010010
1111111101001101
1111111011010111
1111111110000001
1111111101101100
1111111101100100
1111111110001010
1111111110010001
1111111101011100
1111111110101010
100011
100
1111111111101001
1111111111110010
1111111111100011
1111111111011000
1111111111001001
1111111110100110
1111111110000001
1111111010111000
1111110010010010
1111101011111110
1111101010010111
1111101101001101
1111110000010001
1111100111100000
1111010110100011
1111100100110011
1111110110111000
1111101111111111
111100
10111010111
10001110
1111110100001111
1111110101011010
1111111010101011
1111111001010011
1111111001001001
1111111111001101
1111111111111001
1111111111110010
1111111111101100
1111111111001101
1111111111001111
1111111111101000
1111111110011101
1111111010010111
1111110011101010
1111101101110101
1111100101001100
1111011001100110
1111011111111011
1111100110101101
1111100101011001
1111100010001010
1111101101111110
1111110010111101
1111110000100010
1111101100010111
1111111111101001
100
1111111001011110
1111111011010111
10111110
11001001
1111111100011000
1111111111101110
1100110
1111111110100100
1111111111010011
10000
10011
1111111111011110
1111111011001010
1111111000011100
1111101100011101
1111101101001110
1111101010000011
1111101110111000
1111101001000001
1111101111011011
1111111001001011
1111110011010110
100000001
1101111
1111110011111100
1111111011010110
1111111100000001
1111111100100111
1111111100101010
1111111000101001
1111111101111101
1111111111001010
1111111110011101
1111111100011010
1111111101001010
1111111110110000
1000
1111111111001111
1010100
1101011
1111111010100101
1111111000111100
110010
110110
100010001
1111111000110000
111001000
1111111010110110
1111101101101010
1111111001010000
111100011
11100111
11010
110101001
1010011101
1100110011
10101010101
1111110000
1111111100100100
1111111101101011
1100101110
1111111111000000
11101111
10001
1111111111101000
110110
1101010
10111110
1111111111110100
1111101111011011
11000110
110010101
1111111010100010
1111111010010110
1010011011
101011
101001101
1111110010101001
1111111000000001
1111101100110110
1111111101011110
1101010011
10001101011
1110100111
10001000001
110000010
1111111010110000
101001101
1111111110101001
1111111011000110
111010111
110000
1111111111010100
1111111111111110
0
11100000
10100011
1111111010111101
1111111110110101
1111110000001001
1111110111110000
111011101
1111100000101011
1111101100111100
1111101101001111
1111110001011001
11100101
1111111101011101
1111111111010001
1001001011
10010000110
101010001
110110111
1111111101111000
1100000111
1111111010101100
10000000
100100011
100000100
10000011
11
1111111111100101
1111111111101011
10110110
111000
1111110110000000
10001100010
1111111011011000
101000
101110
11011
1111011
110001001
111100001
1111101111001001
1111111111101110
11000110011
11111111111
11001001010
101001000
11011110101
1111111100100111
1111111100000001
1111101111011001
1111111101011110
100011011
1111111101110111
10001000
1111111111011101
110100
111001
1001010000
1111111111001001
1111111100000100
1111111101100111
1111110000101001
1111110110011101
1111110110110001
1100001010
1111111100111011
1001001
1111110101110100
1111011101110111
101000010
1100011010
1111111000000101
11011000
101111111
1001110011
1111110111110000
1111110101011001
1111111011010101
1111111001000100
1001001011
100001
1011001
100010
100111
110
1100000001
1101101100
110101100
110100001
1111110001101000
1111110100001111
1111110111011111
1111110000110110
10011
1111100111011110
1111110100000011
1111101110110001
1111111110011001
1111111011101100
11010101010
11011011011
1111110100110001
1111111101100110
1111110011000001
1100010
11110000
1111111011101111
1100001
1010111
111100
1111111111110100
1111111111010111
1011100
111111100
10001110001
1111111111010010
111100101
1000001000
1111110101001000
1111101101000100
1111111010100000
1111110011011001
1111101010001111
1111111001011000
1111111111110011
1110000100
1011000110
1101110000
111110001
1111110001110110
1111110001000001
1111110101011110
1110011100
1111111010010111
1111101010101001
1111111101100111
11110110
1011110
1111111111011000
10011
1010011
1001110010
11011010001
1000111100
110010111
10011001000
100100101
1111111001110001
1111110101
1111110100100111
1111111001111001
1111111000111110
111111010
1111110111011010
1111101011101100
1111011001
11101011
1111111101010011
1111111111100101
11110111
110010101
110010011
1111111101011001
10000111
11011
1111111110111110
1111111111100001
1111111111111000
1000000
110100101
11100010110
10001011111
11010110110
11101001100
10101110111
10100000100
10001010001
1111100011010000
1111110101100111
1010001
1000010111
110101100
1010100
1000110001
1111111000010111
100101101
10001001001
10001101
110001010
100000
110000100
1111111010000000
1111111110101011
1100
1111111111010110
10110
100001
111010
10010001111
11111001000
101010000001
100110100011
11101011101
1011110010
10010011001
11010000001
11
1111110111010000
1111110111111010
1111111111111010
10010011010
10101101011
1111111110111000
100100100
1001110010
1011011111
1111111110110111
101100001
1111110101001110
1111100110000110
1111111101101011
1111111110010011
1111111111100010
110010
1111111110010100
1111111101110011
111011010
10101111011
1001110000
10011001000
100000100010
10011101101
1000110010
1111010101
10010110
10001100
1111110101111111
1111110100000010
1111111100010110
1111100
111100000
1111111100010000
1111110111011011
1010100
100111111
1111111110000101
1111100101111100
1111100010011101
1111110111100000
1111111111110000
1111111111100010
1011
1111111010011101
1111111101000000
1111110101000000
1000000000
1111111101010001
10001001110
1101011010
1101111110
10100101111
10101110100
100001000010
10101101101
1101011011
10101100001
1111111100000111
1010
10000010010
1111111111000111
1111110010000101
1111110101111100
10011000
1111111011100100
1111101101010111
1111110000100011
1111111011010110
1111111110101001
1111111111110100
1101
1111111110011100
1111110101011000
1111101000110001
1111110110110101
1111111001100010
1111111010000111
1111101011111010
1111110100001101
1111110001000011
10011010011
1101111001
1010101011
100000
11000010
1111111100001011
111110100
11111
111111100
10001010
1111111010110100
1111110100000100
1111100111100101
1111100011011010
1111110111110000
1111111111101011
1010101
1111111111101010
101111
1010100
1111111000101001
1111100110000011
1111011101011110
1111011011110011
1111100101110000
1111010000100101
1111010000111110
1111001100101000
1111011001010000
1111110110000100
1111111
1100010011
1111111110111011
1101100100
1111111000100000
1011011
1100110001
1111111001101101
1111110111101101
1111011111001011
1111010111100010
1111100100011001
1111111101010110
111
10001
1111111111100100
1111111111101100
1111111111100001
1111110111111110
1111011011110011
1111001010100011
1111000110101101
1111001111000010
1111001101010000
1111011111111100
1111000100001111
1111011000001111
1111000110110001
1111100101110010
1111110101000000
1111111010101000
1000011000
1111110001011001
10001100
1100000101
1111111101100101
110010111
1111110100111011
1111100011011010
1111110000100100
1111111100110000
1111111111011111
1101
1111111111111101
11101
100010
1111111100100000
1111101011100011
1111100001001110
1111100110111010
1111101010111011
1111101101101000
1111110101011000
1111111001000011
1111101110011010
1111101100001101
1111100010100101
1111110010011101
1000110011
1100100001
1111110100000010
1111110001100100
101011001
1110011011
1111011000
1111110001011001
1111101001000100
101001
110111
1111111101000000
1101
1111111111000110
1
100010
1111111110111000
1111111100100001
1101011
1010110001
1010111110
10100111111
100101110
1111111001011001
11100011
1111110101100000
1111110010101010
1111101000111111
1110100111
1011000101
1111110100
10001100
1111111111010000
1111111101000101
1111111010010100
1111110000000010
1111110011111000
1111000
1001100
1111111111110000
10101
1111111111011001
1110
0
10000100
11011000
1011010111
1101110100
1000101011
1010000101
1111111010110111
1111110110111100
1111111001110110
1111100101011000
1111101001000010
1111110111111110
11000101
1111110101110110
1001000010
1111111000011101
1111101001011011
1111101110111101
1111110010001100
1111110000001001
1111110110010000
1111111111101111
1111111111100000
10110
1111111111011010
1111111111110000
1111111111111101
1110101
101010100
1101001011
10100000101
10110001001
11000001010
1010010011
10110111
10001101
1111110011101001
1111101001000101
1111110000001111
1111101010110010
1111110100001110
1111101011000110
10110000100
110100000
1111110011110011
1111111101110011
1111111011100111
1111111101111011
10101111
1111111111110101
1111111110011101
1111111111111010
1111111111100101
10001
1111111111111011
110000
1010
1001010101
10100110010
1010111110
1111000000
1110010111
10100100011
11111000
1001011110
1111111010011111
11000000
1111111110100001
1111111000010001
111011100
100000100
1111110111100001
1111111110001001
1111111100011111
101100101
1000010101
101011011
110101
1111111111011001
1111111111101110
1111111111100011
1111111111100100
11110
1111111111001101
10000
1000001
11011010
111010001
1001001100
101110011
1001110001
1101000111
10010100000
1011110011
1101100011
10010001101
10001101001
101011110
1001001000
100010001
10101101
101000111
100101111
10000010
10100
11110
10101
1111111111110111
1111111111111000
1111111111101110
100110
1111111111011001
1000001
100
110011
1000111
100011
1101
10011
10111100
1010001
10111001
10001101
11110010
111110
1111111111000011
1111111111000111
110011
101011
10000
110000
101101
1111111111010110
1111111111101101
1111111111110100
1111111111010100
100000
