1010
1000011
1101
1111111111100101
1111111111101111
1100
100
1101
1111111111011110
1000
1111111111000110
1111111111111110
1111111111100111
0
10011
1111111111111101
1010
101001
100110
0
1111111111111000
10000
11111
1010
1111111111110000
10100
1111111111111111
1110
101
111
1111111111111000
1111111111111001
1111111111101010
1
1111111111111000
100
1111111110110111
1111111111111011
1111111111111100
101
1111111111110000
10000
111110
1010101
10000100
1001100
1010101
1111111111011001
1011
11101
10000
1111111111111011
1111111111000100
1111111111100001
1111111111100000
1111111111010111
100
1111111111101101
11100
1111111111110111
1111111111010110
1111111111111110
1111111110111100
1111111111000100
1111111111011101
1111111111100100
1111111110010000
1111111110111111
1111111101111110
1111111100001111
1111111100010010
1111111101111010
1111111011110110
1111111111001111
10101011
1111111101011101
1111111100010011
1111111100110001
1111111101111101
1111111110001010
1010
10100
1111111111101111
101010
11111
100001
1111111111110010
1111111111101011
1111111111101101
1001
1111111111111101
1101010
110000100
11101111
110000101
11111111
1111111111010111
1111111110001101
1111110000001010
1111101101011001
1111101011110001
1111101111100110
1111111110011100
1111110011110010
1111110011001000
1111111000110110
1111111100001011
1111111010111101
1111111010110111
11001011
10001
100001
1111111111110111
1111111111111010
1011010
111010
10110
11111
1001010
111001010
1100010101
1010110110
1101101110
10001101011
101111000
1111111001101100
1100100101
1110010101
1101011010
1111111101100110
1111111101001100
1111101100001001
1111101011101110
1111101001000000
1111110101110101
1110110
11111010
1010000001
11101110
1000
1111111111110000
110
1111111111100101
1110
1001110
10110001
1010001001
1110000111
10000001
1010101010
1001010000
1111011101
11100111
1001000011
11001110001
0
10111100000
11110101110
1110101
10011110110
1000
1111111110110101
10011100
1111110101011110
1111111111101000
110010111
111111
111010
111
1111111111100111
1001111
10010100
101110101
1000010101
110001101
10010010
1111111001100111
101110101
10000001011
1110011111
1111111111001000
1111110100010101
1111111110110100
101001111
100011
1111110111110101
1111111100110110
11111001110
110
1111101011100001
1111101100111011
101001
1000001110
1101110100
101100011
100001101
1111111111111001
110101
1111111110111010
1111111010110000
1111111000011001
11010010
11001011
1000100111
111011000
1111110000111001
1101001010
110100000
1101001
1111110101111010
1111110100001110
101100100
100000001
1111101101011101
1111110101111010
111101100
11001001
10001101000
1111110110111011
1111111101111001
10011110
101100100
1101
10010
1111111111101101
1111111111100011
1111111100100010
1111111010100011
1111110110011110
1111110101101100
1111110110001110
1111111011111110
1111111101001011
110100100
1111111000011000
1001101000
111010111
1000010011
1111110110101010
1111110110100111
101111001
1111111010011011
1000010
10111000110
11010100011
10100011001
101110011
111000011
100
101011000
1000001000
11111001
1111111111001001
0
1111111101011001
10101101
1111111101000010
1111111001101010
1111111111110001
1000010100
110001001
1110000100
1111111100111100
1000101001
1111110110001101
1000110010
1111110110011011
1111101111110101
1111110101110100
111111000
100011100
1000000011
10100001010
1110111001
11001111
10001001111
1110110011
1101100001
111111000
1111111011010001
1111111111111000
1111111111001110
1111111101011010
100010011
1111111100000011
11010
100100101
1111111011001001
10001100
101010011
11000101
1111110011000010
1101100
100111100
1111100111101010
1111011001100000
1111111111101101
1101001100
1001011001
1011101001
100110000110
1010110110
101111111
10010110011
1111011001
110110101
110011011
101011
1111111111000001
100011
1111111110110101
1111111011110110
1111111111011101
1011001110
111001010
1111110000111111
11001011
10000000010
1111101010000100
1111111111001001
1111111000100100
10001000
1111111011011100
1111101111110000
1111101001001010
1111101100101110
1111110111110011
101111000
11011110001
10100110000
11010011000
100100001110
100010111010
10100010000
1100010111
1011100
10
1111111111101110
1
1111111010101010
1111111111100100
11010101100
10011110010
1111110111100010
1111111100010110
110001
100000111
1111101000000001
1111111011111001
1111111011010010
10001010
1111100011000010
1111100101000010
1111101100010011
1111110000110110
1111111010100111
1000000111
111110011
1010011001
11010110100
10011100011
1011101011
100101110
1111111111000011
100011
100000
1111111111111110
1111111001101011
1111110110010001
1000010111
111000011
1111101111100100
1001101101
1111110110101100
1111101001101011
1111110101101010
1111110011100000
1010100010
1111111000100111
1111101000000100
1111100110110000
1111011001001001
1111101000100000
10010001
1001011111
1101100
1100101000
1110001001
1010100101
1001000101
101100100
10011100
1111111111010111
11
1111111111110001
1111111101010001
1111110110110001
1111111100010100
1111111101001011
111011101
1010110011
1111110101000101
1111100110101000
1111101010011101
1111111100010001
1110000100
11010111
11010110
1111100111110000
1111110110111001
1111100111010100
1111110100111010
11111000
110100
1111111110011111
110110110
1011100111
101101011
10011101
1111111111111111
110001
0
10000
101100
1111111010101111
111110001
1110001100
10111101001
10001000000
1111111101100010
1111100011100011
1111110010111001
1000001110
10101001100
10001001110
1111110110110110
1111101001100110
1111011101100110
1111111000000110
1111110011100111
1000010011
1111111010110010
1111111000011010
1111111101010000
1010100011
100010110
111001
1001011
1111111111010010
1
10011001
100110001
100101
1011111011
10110000001
10100000011
1010000000
1010000001
1111101111111011
1111110001111010
1110101001
1001001010
1111110100001101
1111111001011110
1111100010100100
1111101000100110
1100011010
1100110101
1111111110000011
1010111100
10010111010
1110011100
10011111010
1001110010
110001111
1111111111100000
1111111111111110
1010
111101
110010100
101100101
1111010011
11101011010
100011110101
1110111001
1111111101111101
1111100101000011
1110000
10101110101
100101
1111111011011001
1111111001000100
1111111100011001
1001100100
1101110001
11010100110
1100010010
11011011011
11000010001
1010101100
1010000111
100011101
111100
100111
100011
1111111111111000
101011
101010000
101010101
10000110001
11111010000
101010101101
11010100010
1101010111
11010101
100101001
1000010
1000100
1111111111110100
1000100111
111110101
10011011011
10000110011
1110100010
100000111101
11000111001
100010101101
10111100110
1101101100
1011101
1111111101011010
11101
1111111111111000
1111111111110110
1000001
100011100
110010101
1110010101
11010111010
100001000000
101000001000
11010001010
10010001100
1111110001011111
1111011100000101
1111110101001011
11110101
10001001011
11100101001
101000011011
11101100001
111101
11011100000
10100001001
100101010010
11101001010
1100101101
10010000
1110111
1111111111001111
1111111111101100
10101
100001001
1001101001
1011011101
10110011100
100001100101
100000000110
10110001101
11110010101
1010100001
1111101111011110
1111100010010011
1000011
1111110100101010
1111110011
1100000000
10101011011
11001101001
10001001001
11100101010
10100001111
11010001110
11001100011
101111111
110000
1100
1111111111011010
1111111111110011
11100
100001000
1010010000
1110100010
100001101000
101011001000
100110111101
1111111011011001
1111110001100100
1111110110010011
1001100111
1111101000000101
1111111101011001
10000000010
10001001011
1110110
1111011001
10100011001
101100011
100010101
1011011110
1110011011
1101100000
100011001
1111111111010110
101
1111111111010001
101111
1000
11111
100001000
10001101010
100111110011
100010101100
1111011100
1111101011110101
1111111010111101
1111101111010010
11100100111
111010110
100000100
10110000
1111110101100000
1111110100111001
11011
100011101
11011010
1111111110011000
1111111111100001
1010100101
110111010
11001000
1001010
1111111111101111
10110
1111111111101000
1111111111000101
11000010
101011100
10111100111
11100010111
10001001100
10101011
1111110110000100
1001101
1111111111110011
11001110100
1111111011100011
10010111001
11100010
100010100
10010000001
101101100
1111111110011101
1110110
110110100
1111111111111001
110011001
1011100
11100100
1010000
1111111111111010
100010
1111111111001110
11
1000010
11011111
1000101011
11100110
1000111001
1010001000
10101000
1111111111011001
1111111011101001
1111000101
11101000000
101001111
100111000
1111111101000011
1001001
1111111111111010
1111111110001100
1111111010001000
1111111111011000
11100
110110
1111111110101010
1111010
10100
1111111111101001
1111111111101101
1111111111111010
1010
11
1111111111111001
1111111001101011
1111111011101101
100111011
1111111110010111
1111110111100010
1001011110
10001011101
1001011110
10010100100
10100100111
110011100
1001110011
1110010100
11100
1111111101001111
1110000001
11111000
10000001
1100
1111111101010001
1001011
1111111111110110
10100
1110
10011
1111111111011101
111001
101100
1111111111100100
1111111110011010
1111110111101001
1111110101011010
1111111010001101
1111111101100101
11000101
1110101
10011101
1001111110
1111111011101011
100010101
1011111100
1000001101
10111100
11110101
11101011
100000100
1010110
11110
110
10001
101110
111001
10010
101001
101000
100111
1111111111101101
1111111111111100
1100
101101
101000
101001
1111111100011011
1111111110010110
1111111110110100
1111111110000110
1111111110100101
1111111101001110
1111111111101100
1111111110101101
1111111100101010
1111111101100000
1111111111110100
1111111111011100
0
10
1111111111011101
1111111111111110
100010
1100
