1101100010100000
1111011110101011
1101111110101
1110010111001101
1111011110101100
10111101101
1110000110010000
1110000010
1111000100011100
11000001000
1111110001011011
1101010000101010
1110101111001
110101111010
1110010101101011
1110101111111111
1110000101101101
10100100101100
110100111011
110111101011
1100010000011
1110110100011111
1110110011010101
1011110011
1111011011100101
110001000101
111111100010
1110101000100010
1100000100101
1011100100010
