10111011000
1111100101000000
11011111111
1010101110110
1111110110010011
1011000010
1111011000111
1111011010001000
1110100010011001
1111010101011001
1111011000010000
11100010
1111000111000011
10100011010111
1111011101000110
1111011100000101
1110110111111100
1000011101000
1111101110010110
1111100011101101
1110001100010001
1100011101101
1111111111110111
1001110011111
1111100101011100
1110010010011110
100110111100
1011010110111
1110010001001000
1000110111111
