100001001
1010101000110
1110000010011010
101111011000
110010000010
10000010110
1110011010110001
1101100010101
1110001011000101
1100011111
11110100000
1101011111
1101101101101101
111000111
100100110111
1110101111000111
1110111110011001
1111001000010100
110001100100
1101101
1111001010100011
1111101101
1010100101011
1111100010110010
111010101010
1110100110000111
1011110000110
1111010110010100
101110001100
11001010010
