1001101100011
100001110000
1011110001
1010111000
1101001000111
1110001100101011
111100
1111001001110000
1111001110110110
1110111100001011
10100111100
1100010100001
1111000110011100
1111110111100101
1111010010000110
100001001001
1111000001010001
1111011000011011
1000000101
11011010101
10010010110011
100010101010
1111100110111101
1001111110000
11101101100
1111010000010101
1110111110010101
100010011
1111010100100110
1001001001110
