1101101111101001
1110110110111010
1101011010000100
1101111110
1100110010010001
10001101100110
1101101000000011
1100010001011111
1101100001100101
1000111001111
1111011010011001
101000100100
1110101000111011
10111010010011
1111110101010100
1111110001101000
1110111100100101
1110001101100
10010010000010
1101100001100100
