1101001000110111
101100011101
1001011011101
10010101001000
11110011110
1111000111011011
100010101101
1000101111111
1111110000101111
1111111101000
1101001010111111
1101100000110000
1011000100010011
1101100001111111
1010000011001
1101010011010110
11001001100110
1101111000101011
1101101001001001
1111110011000011
