1111011010101111
1111110111011110
10110010000
110111101111
1101111101100
1101100010001111
1101101010110011
1111110101001100
1101011110111001
1101111100011001
1010110101111
1101100111010111
10101110010101
1111101000111001
1101110011010000
1110101000010010
11100011100101
1101011101111
10010010000000
1110110111100001
