1101001100100111
1100111100100011
1100111101111111
1110011101111011
1101110111100110
1101000110000010
1110100110111011
11110001011100
10011100101110
1110100010101000
1000010001011
101111011011
1100011110000101
1101100011100011
1101110110111110
1010101110001
1110000110100111
1100101111000
1110110110010111
1101101101011100
