1011011011
1100101100011001
1110100100011101
10001010100001
1100000101000
1111111010010000
1110011101101001
10000110001101
1010011111111001
10100101010
1101101001110010
10100001000010
10101101110101
1100111001111110
1111001111110011
111111011110
1110101010001110
1110010111100110
1100111001000010
101101110111
