10111100111010
1011101000000
1011110111010
1110011111100101
10110101011011
1101000110101001
1010010110001
1100110101011101
1110011110011100
1110001101101001
1011100100000
1110101110100010
1110111101010111
1101010100011101
1101000000101111
110001
1101001110000110
1100011011101001
1101110010110010
1101111011010100
