1111111101010110
100110110
1111111111010011
10110001
1111111010111000
1111111101111110
11101101
10001011
1111111111100010
1111111110011100
1111111100100111
11110011
1100001
1111110111101000
1111111001000110
1010011
101010001
1111111101110100
1111111010100001
100001
1111110
1111111010100100
10001111
1000101
1111111111111010
10111011
1111111011111100
1111111100001111
1111111110100110
100000011
1001010
1111111111001001
110010000
1000001111
1111101110010100
1111101110001000
1111110010101110
11100101
1111110000010100
1111111100010100
10100011
1111100111111111
1111010001010101
1111001011101100
1110111111000101
1111010000000100
1111101001111001
1111101110000101
1111111011001011
1111111100101111
1111100110111111
1111100111111010
1000
1111111010110001
1001101
100111101
1010110
1111111100101100
1000010
1111011011111110
1111011011000111
1111111001101011
11011100010
1111010110110000
1111100101100001
1111001111001011
1110111100011001
1111000100101011
1111011101110110
1110111100111111
1110101011000100
1110110101010100
1110111011100101
1111001011010100
1110111100100111
11001101
1111100100100111
1111000000111011
1111000000011110
1111100110111010
1111110011100010
1111110100011001
1111111110110100
100001111
101010110
1111111101101000
1110000111
1111011011011011
1111011111001111
1111111010011111
10101001000
1111100010001000
1111100100100011
1111001011010110
1111001001001001
1111111000000011
1111101111111110
1111010110011110
1111100110011010
1111011110000010
1111010000101101
1111010010001100
1110101011011001
1111001101011101
10001010000
1111101011100110
1111110011001110
1111100111010010
1111100010010111
1111001110101000
1111100000011100
11001000
1111111011111010
1001101001
1100110011
101011000111
1110011111
101100011101
11010101110
1111110011001010
1111001011000001
1110110100010100
1110101000110001
1111001101011101
1111101111100101
1111101010001110
1111000100010110
1111001001100100
1111010100010111
1110111100000101
1111010100011110
1011000101
1001110001
111100
1111110000010111
1111101101101010
1111101100111010
1111001111010101
1111011100011000
1111101011000110
10101
101010011
101000101
1111011000110011
11111001
100001001000
100101000111
1111111011000001
1111111111010000
1110111000
1111111110010111
100100011
1011001101
1111010000010000
1111011101100001
101011011
10100011011
10111011110
1111110000011011
1111011101011110
1111000101100011
1111000001110001
1111000100010010
1111000110000000
1111010111110100
1111000001010000
1111001101010001
1111110101000110
11100
1111100111010110
11110101110
11011000011
1100100100
101111111100
10011100011
1111111110001100
1111101100000110
1010101000
11101010110
11110111011
1110101010
1111110000110000
1111110000010000
1111100110101111
1111110100001100
1111110100101100
1111011010001011
100110010
1111111000100111
1111110110100010
1111111111111011
10101001111
1111100111111100
1111000110010010
1110010
1111101101111010
111100100
10100001111
101101101100
11111110010
1111110001111100
1111111100011000
1111110100011100
1111110010010100
1111111111101011
100001011000
100011010010
10100001010
10101111110
1100101
1111100011000010
1111010111101110
1111011111111011
1111101111101110
1111101110100111
10010
11110010
1101100100
1111111101100100
11010011001
1111110111010000
1111100111010110
110110110
1111110110001011
1111100011111101
1111110110010000
10110010100
100110010
1111110111001010
100001001
1111111110000010
1111111011011100
101000011
10010110010
10010100111
10010101011
111101100
1111101110010011
1111101001100101
1111100001101010
1111011001100001
1111110101000100
10010001100
10100011000
100101111100
101010000010
1100000111
10101010100
1111010
1011110111
1111100111001110
1111111000010110
10110110011
10101101011
1111100111110000
1111101001111010
1111110110100100
1111101101111011
1111110111001000
1111110010011011
100010011
10010001110
1111111011001100
1001000011
1111111010001110
1111110001101110
1111101101001011
1111101100101110
111000
11111010001
11010110110
11111101100
11011011100
11000101010
10011000011
111111
1001101001
10010000010
1111111100100010
10110100011
11001001001
1000101
11011000
1111110101110001
11000101
1111101000000000
1111101101001101
1111101011011011
1100100010
1100111000
1111111001100001
1111111001011010
1111101010001100
1111111011110001
1111100100010011
10000111110
101110100001
10110011010
101000111
10111010101
10101010001
10101100000
1111111001100101
0
1000110000
110100000110
11100110111
1100100100
11011100110
11000111011
1111010100
1110101010
11001011
1011010101
1111110111000100
101011010
1110101
1111101111011010
1111111000100111
1010
11001100
1111100111000010
1111100110111001
10010000001
11000100010
11101011101
1011100110
1011011101
11111011010
10010111011
1000011001
1011011
1000011001
11000100110
11111110
1111111100110010
10011001111
10011001110
10010110011
1110111000
1111110011001000
1111011011110100
100000001
1100111011
10011001
1111111001010111
1011010111
10000101101
1111111000111110
1111110001010010
1111110101000110
100111101111
101100000100
1111111010
10110000100
10011100101
1101111011
1111111111101110
1111111110011100
1111101100010101
1111111110000000
101100001110
101100001000
10101110110
1111110101111011
1110110101
10111000111
111011101
1111110100110101
1000100010
1001001111
11000100101
11000101001
1011000011
111100011
1000111
1111111011011101
1111110100010100
1111111001100110
10010001110
10100011111
1100111011
10101001111
1111110110100011
10000011
1111111100000110
1111101010100010
1111100000000101
1111110111010100
10110110011
1111110111011001
1111010001111101
1110001111
1000101010
10110100000
1000111000
1111111000111010
1111111110011100
1111101000111001
1001101111
10110111011
1100111110
1111111110101000
1111101110111011
1111110001111001
1111100001100000
1111101101110100
10010001
1011010110
1111111
100101100
10011010010
1111111010001110
1111100101110110
1111011110101011
1111010100000100
1111110111010100
1111001110000001
1111001010001001
1111011011110010
1000111111
1111111111010110
1111100111110011
1111110010011011
1111110010011000
1111111010101000
1111001011
10101100111
10011011000
11001
1111110101111000
1111100101111111
1111100001011101
1111100001101010
1111111100110111
1010010111
1111111111110100
111101001
101000100111
100100011
11010000
11100000101
1100110111
1111110000100100
1111100101100001
1111001100100111
1111001100001101
1111111101010010
110000011
1111101111010011
1111001010100011
1111100010100011
1111101101100001
111111111
1111111001010000
1111100111110010
1111101101110010
1111101000001001
1111011010101011
1111011110100001
1111101110000001
1111101011101100
1111110111001001
1110011
1111111110011011
10010010010
11100000000
1110110100
110010010
1110110101
1111111001010111
1110110101111001
1111010100111001
1111000011010110
1110110010100010
11010001110
1111111111100010
100100011
1111010010110001
1111011001001110
1111111011111001
100000000111
10011000
1111010111010001
1111100001111001
1111111110001101
1111110100000011
1111110100000001
1111101111100011
110000101
101111101
1111110100101001
1111111100001110
10111110
11101001110
11101001
10011111
1111100100011110
1111010111011000
1111000011001110
1111100011110101
10111011101
101000100
11001111100
1111100100011000
10111100101
1111011010100101
1111010110111001
1111110111111010
11001010000
1111110011101011
1111110111111000
101000
10001110
1111110100111010
1111111110101101
11100110
101000110
1111111011100100
1111110010011001
1011000111
110110
100001011
1001111101
1111111000100101
1111101010100100
1111000111111110
1111010011110101
1111011010100000
1100100000
11110110010
1000111111
1111111100011000
11111100011
1111110011
1111011101101010
1111111111110100
10001011011
1111101111111010
1111100011111100
1111110010110011
1111111111100100
1111110110100101
1111110101110111
1111100101100010
1111111100001000
1111111101001010
1111110000111111
1111101110001111
1111100001011110
1111101010000000
1111110011111100
1111101000010101
1111100011000110
1110111100100001
1111011001001000
1111110000101110
10100010010
1111100111111101
11011110000
1111111101100010
1100111011
1111011100101110
1111001010111101
1111001111110110
1111010100011001
1111100000111100
1111011111000011
1111101000001101
1111110101000101
1111110100001100
1111101111001101
1111110111100001
11010
10011111
1111101001011011
1111100010000000
1111001011101011
1111100000011101
1111011001101111
1110100110100011
1111010011001010
1111001110010000
1111101010000011
1111010110010011
1111100011011101
10110110
11001001111
110000
1111111101011101
1111010110110110
1111100000010001
1111011110001011
1111111000011101
1111011011100000
1111110000011111
1111100000100100
1111101000100000
1111100001100001
1111100001101110
1111101110110100
1111010110011001
1111011000101010
1111000111011101
1111001101001010
1110110111100010
1111000001110101
1110110100110011
1111000110011011
1111111000000000
1111101011101010
1111011001100110
10110100011
1111111000010001
1111111011110110
101111100
100101001
11111000
1111100100100000
1111100111111110
1111110010001100
1111101011111000
1011011010
1111111110100000
1111100110101101
1111101100110000
1111110011100001
1111100111011110
1111101010111011
1111101000100101
1111011110001000
1111011101111001
1111001100111001
1110110111101010
1111001001110010
1111011101000100
1111100100000110
1010011110
1111111101001100
1111111001100001
10010100110
1111101010110001
100110111000
1111111110000111
1111111110011101
10000101
1111000111101011
1111000000111000
10000111
1111100000101111
10011110
1111110110101111
1111110101110011
11100010
1111111000010011
1111110111011000
1111101100000001
1111100001011010
1111101011011100
1111010010101100
1111000011101111
1110110001011010
1111010000111010
1110111101100111
1111000000011100
1111110001110010
1111110011001100
1111110111111110
1111110001000000
1111110001010011
110100001011
11110101
1111111101011100
1111111101001101
1010100111
1111111001001101
1111100111010101
10001111000
1111111010100110
1111111010111010
1111111110101000
1010100111
110010100
101100000
1111101110111100
1111111111010110
111011001
1111001110100001
1111000111010000
1110110111000011
1110110001100000
1110101000010110
1110110110111011
1111001011010010
1111110011111001
11111111
1111111011001010
1010010010
1000100101
1111111100101010
1100111
1000111
1111010100111101
11100000000
10110011000
1111110011101101
1111110011101001
1111110101001110
1111101011010010
1001010101
1111110
1100110100
1111001011
100011000100
100111110100
11000010110
1111110011
1111100000011101
1111001110110110
1110111111100100
1111010110000011
1111100111001111
11000001
100011011001
1010001000
110011110
1111110010010001
11111110
1111111101010111
101111
11100010
1111101101001100
1111001101110010
1111010101101011
1111001100110101
1111100101010001
1111110110010100
1111111001101110
11110100
110111000
1111110010101111
1111111100000110
1111010110100010
1111111100111101
1111111110
1111100110010011
1111000101010111
1111001110000101
1111010110101011
1111011010111001
1111101101001100
1111011011111000
1111101110011110
1110000000
1111111111110001
1111111110011011
1111111111000001
110110
10111100
101011001
101101010100
1000110011001
1111101100100000
1010100101
10111000100
11000000011
1111111111100001
1111100111011110
1111100011011110
10111000010
1111111010110111
1111100011001001
10010010100
1001101100
1111110011001100
1111101110001101
1111101101011110
100000100
110101100
10111000110
1111111101000110
1111111101011100
1111111100101110
1111111010110100
