1111111010110011
1111111111101111
1111111010110001
1111111010101111
1111111100000001
1111111100100110
1111111111110100
101010001
1111111010101101
11000001
10000010
1111111101111101
110011000
1111111111101011
100010010
100101111
10001011
1111111011000001
100001100
11001111
1111111010100100
11101001
10101001
100110000
1111111111001000
1111111111011010
1111111011010101
1010011
11000100
0
1111111011001101
100100011
1011110
11001111
1111110011011111
1111101000110010
1111101011100000
1111101001001100
1111101101111000
10101010010
10101010011
110110000
1111100011000011
1111101111
10011011111
1111111010001100
1111101010101000
1111111101100100
1111111001001100
1111110101100100
1111111000000010
1111111101000010
1111111101010000
10100010
101000110
1111111111001101
1111111101101010
1111111011011000
100010101
100000011110
100000000110
1111100001000111
1111010111000000
1111111111010000
1111011110100001
1111010001111010
1110101000100011
1111001010010101
1111001011011010
1111011110101010
1110111111110110
1110111100000000
1111101100001111
1111001010111111
1110110111010111
1111001010001100
1111001111011001
1111001011110010
1111001000101110
1111011011000000
11010101111
1000000001
1111111110011100
100000
1111111100010000
10100001
1101011
11101110000
11110101001
1111010011110111
1111001111001010
1110110110011111
1111000101111010
1111010010011110
1111011001100110
1111010100100010
1111110011001100
10000010110
110000111
10100100
11001011100
1111110011101010
1111010110011110
1111101110110000
1111011011110010
1111111100111011
1111001100011000
1111100000001000
1111011111001111
1111111110111101
1111101101000001
11001100
10010100
1111110110001010
1111101011101011
1111111100100011
1111010100110010
1111000010110000
1111010010001011
1111100111001010
1110110101010101
1111010101101100
1111011011111100
1111101000001100
1111101101011011
10000101010
10011010100
1000101010
1001111
101010011
11001011
11001100010
10111011111
1111110101111111
1111111010000100
1111110001010110
1111001011001000
1111010100011110
1111100011111111
1111100110011011
11101100
1111111101001010
1111100100010000
101011110
1111101111011110
1111111110101110
1111110000110110
1111100011101011
1111110010111110
1111110000010011
1111011101100111
1111100010001110
1111101101011111
1000111000
1111110110110111
1111101001001011
1111101000111011
1111111001010110
1101101
1001110111
101001111
1111110100111000
1111111101100111
1001001
1111111011110101
1111010110111010
1111010011110101
1111111001101101
1101100
1111101100010011
1111110110010101
100010110
1111011111110000
1101110100
101110001
10111000000
10010111100
1111110010011011
1010011000
100110110
11010111010
1111100101
1111110101000101
1111100100101011
1111101010110000
1111101011000111
1111101101101101
1110100010
1111111011000110
10111011010
11001011010
1111111111110011
1000101
1111101111001010
1111101101100100
1111110001100110
1000001010
100011100011
1111111001110110
110011101
1111100100010001
111110
11101
10010111111
10010100100
100101111011
10101001101
10101010000
100010010000
10011101100
1111110110011101
1111110000100101
1011000000
1110100001
10101001000
11011010011
1101000111
10010111011
10100101000
10101000100
10
1111100100
1111101010010011
1101001011
100110110010
11011100000
100000011110
11011000100
1111110000000110
111101111
1111100101100011
110110010
1000001011
1100010111
111000100
10110001110
1001110011
1111111111000101
10000110000
1000010011
101001111
1001011000
10100001000
1111100110
11010100011
1111111100000110
1111110001
10000100011
1111111000001000
1001001010
1111101101111001
1111100100011110
11101000100
101110011011
101100101010
111110001
1111111010111110
1111111010100100
111100110
1100100111
1111111111100110
10001100111
1010011
1111010110
101110101
10110111000
10000111100
1111111011100100
1110
1101110111
101011100000
10000001000
1111010010
100111
101011111110
10111010001
1000111101
1111110101001101
1111001000101011
1111110110101101
11110101100
111001011101
1000100101000
101000010011
1101001100
1111111110110111
1100010101
1111111011011000
110101010
1001100001
111111000
100001101010
10100010100
10100100101
1111101011110100
1111110111001000
1111111100100001
10010101001
11010011100
10100001111
11111101111
101001110100
1001111000
111010000
1011000011
1111011100110101
111101001
10101010000
11101110111
101111001000
10010000110
1111110001101011
1111110011110100
1111110110001100
1110101010
1111111100111101
0
10010001000
10001111000
10001110111
1111110001000101
1111001010000001
1110100111010011
1110110011000000
1111010100111000
1111110111111000
1111110100111100
1111111101110110
1110000011
1010010000
1101011100
1010000
10010001111
1111010011000100
100101111110
1111111011001011
100000011011
1001101111100
1111111011100110
1111110001110101
0
1111111110100100
10001110011
1010100010
1101000001
11101100011
10111100111
1111111000000011
1111101110101011
1110101011110011
1110000001011100
1110110111111011
1111101100111000
1111101010010011
1111110110110111
1111011111010010
1111110100111111
1111110111111000
11100111110
110010111
10111010100
1111111101011110
11111111110
1111100000010111
1111110111111000
111010011000
101101010101
1111101010100000
1111010111110011
1110001
10101011010
1011
1111111100011110
10110010000
10000011111
1111110110000010
1111001010000111
1110011000110111
1110101111001010
1111010001011010
1111101110100100
1111110110011010
1111101000001100
1111001100011111
1111011010100010
1111110011001101
1111111101001101
1010011100
1111110100101001
1111011101011010
1111111000100011
1111100100101011
1111110111110000
10000110010
101101101101
1111100100011001
1111010001000101
1111101111110011
1111111001000111
1111111001101101
1111110101100100
100011000
100011000
1111100010100101
1110011010100001
1110011010100110
1111010101011111
1111101101101001
1111100011111010
1111100100100101
1111010011000110
1111001101001100
1111100111001100
1111100111111000
1111110101111011
1111110111100101
1111110011000111
1111001011001101
110001010000
10100001110
10011111110
111011
10001101111
1111001100000110
1111111011001100
1111110110000000
1111100110100100
110010000
1111110111100001
1111110111011001
1111100111111000
1110100001101010
1101111110001101
1110111001101011
1111100100101100
1111110110010100
1111110000000011
1111011011001010
1111011111100101
1111001100000011
1111101111001000
1111111101111110
1111110010101110
1111101110100010
1111011000001100
1111011011110010
100011010
10001110101
11011111100
1111110100000000
1111111111111011
1111001110111000
1111111000111101
1111101110001000
1001111101
10000111110
1111110011011010
1111110100010010
1111011110101101
1110111010010010
1110111111110001
1111011000001001
1111110101010011
1111110110100000
1111100111111110
1111110000111011
1111100110010010
1111101000100000
1111101000100000
1111111011011000
1111111000000011
100011010
1111011101110000
1111011111001101
1000000101
11001010001
1111111010100011
1111111100111001
100011010
1111011101111101
1111110100011101
1111101111011001
1111100110000010
1111101000011101
1111101110111111
1111100110000100
1111110010110000
1111101101110100
1111100011000000
1111101101110010
1111110011101010
1111110100010001
1111101001001111
1111110001101011
1111111011001111
1111111010011011
111111101
1111111110000110
10000001
11110110010
1111111010000100
1111110101011010
1111111001001010
1111101011001100
11001000011
1111101101110011
1111101010001000
1111011001111111
1111011011101110
1111110001010001
1111110111001110
10001011111
100011011
1111110010100111
1111111111110010
1111100001101011
1111011100011110
1111100101101111
1111101101111011
1111101001101001
1111110110111111
1111111111100001
10000101101
11010010000
11011100010
10110000111
1001000000
10011100100
1111111001100010
1111110011011101
1111110111101010
1111100011101111
1111110111001010
11101000010
10111000
1111001100000100
1111100000011000
1111011110000111
11110101011
11000011101
1011011100
1001010011
1111111011111000
1111110000100001
1111100010011101
1111011111111100
1111101010111100
1111110011001111
1111111010000000
1001100000
1001110110
10110101000
100010101101
10110101101
10011111111
100001111
1101011110
10011110000
1111110011101011
1111110001011101
1111111011000010
1111101010100001
101110000
1111101011110010
1111101100001010
100011000
110011
101111010
1010001111
1010000101
10110001111
11011001001
11000011001
100001010
100101101
1000100110
1111111001000010
1111111110011100
1001101001
11100000001
11100111011
11000101100
11110011000
10000000010
1111110110001100
1111110000000110
1111100111011010
1111110011110101
101111001
1111100100110011
101010001
1111110110110011
1010100100
1110000100
10101101
1110000
100000
11101110000
10111110010
100010000010
10111111101
11001111010
1011110001
1010101100
101101011
1100000001
111011101
100010000
11100101111
110000111110
11110000011
111010110
101011001100
10100011000
101001101001
1001011010
11111101
1111111010101000
10110101
1110100
1111110010110001
111010010
1011101110
10000101101
1000000010
11010101011
10000001110
10011101010
11001111011
11111111100
111111011
1010111001
100100001
10000100000
100001000
1111110010000001
10011000
100101100010
101000000011
1111111110110101
11101111
11000110111
101000001001
101011010
1111111100101111
1111111110100011
1111000110001110
1111110110100110
10110000111
10010000000
11001100001
1111111111000001
1111111010101000
11000000110
100101010
1110101001
1001001010
1000011111
11010110000
100101000
1111110101100110
1111111011111011
1111111101000101
1111100110010001
1111101110111101
100010
1011110010
101001011
1111001101111101
1111111101111111
100000110110
100110100
1111111111100011
1111111101100001
101000111
1111111111110001
11101100001
11010111110
11000001000
1100110100
1011111001
1111111011001010
100011110
1010001100
11010011
101111010
1010111101
1001100010
1111111000010110
10110011011
10011100010
1111101100111111
1111001011101101
1100001
1111101011110010
1111100011101010
1111100100101001
110000000100
11001111110
1111111110101010
10011
1100001
1111000101101101
10010010000
110111111011
11001000111
1101111111
1011011011
10010011000
10011110111
1111101101101000
1110011111
10010011001
1010100100
11110010000
100011111110
111010110
1111101111111011
1111111100111101
1111110101001001
1000100111
1111101011110101
1111110001010101
1111111110010100
1111111001111011
10011110010
1111001001
1111111100000101
11111111
1101001
1111111111110101
1111100000101100
1111011001100011
1001111
1111101111111101
1111001111
110111101
1111110011010011
1111110001011001
1111110001101110
1111110101010110
1111110011110110
1111111011110100
10001110100
1011100101
10110000
101110110111
110000111111
101100010
1111000001011111
1010001000
110101110
1111110010111011
10001100010
11110010
11001
1111111101100101
1111111010101001
1111111110000100
1111111011100101
101010000100
1000010011011
10010001001
111101110011
111010001111
101000000110
100010110011
1111110101100011
1000110000
1001111001110
11111110010
1111111101100101
1000011110000
1001110101000
1000101011
100101110011
1111100011001110
1111100001010000
1111100111000000
11110100010
1111111101010011
1111111110010010
1111111011101001
1111111101011000
