1110011
1111111101001110
101001
110100
111010
100100110
101001101
1000
11111111
11100010
1111111011010001
100010101
100010001
1100111001
1011110100
1111111101001000
11000110
1111111101110001
1010010
10111
1111111011011110
11011001
1111111100100100
1111110
1111111101110010
1111111100111000
1111111111011111
1111111110001011
1111111101101111
11011111
1111111111010011
10110001
1111110010001000
1111110100110101
100111000011
10101101010
1111100001110001
1111010001001110
1111100001010011
1111101001010000
1111101101111001
1111100010101111
100100101001
1000101110110
1000001101011
10110111101
10100111011
111111110110
110110111110
10010010110
10111010001
10111100
1000001
1111111111110110
1010010
1111111011101010
101011100
1110
1101101111
10101110110
110011110000
1111111101111000
1111100110011000
1111110101011111
1111010010110100
1111100010
100011010
101000111
1111011001
110100110110
101010011101
10111111000
10111110110
1111101110111111
1111011101101101
1111001111001000
1111011010000000
1111010110010001
1111001010100110
1111100001101101
100110011111
100111001001
1111111010100111
1111111110001011
1111111101111111
100011000
100010010111
100001100101
1111101000101010
1111111010101110
10000100010
100100101010
1111110000100100
1111111111010000
1111101011101100
1111111101101100
110010001110
1010100100110
11101110100
1111111001001001
1010001100
1111011011100000
1111010100000010
1111000101111100
1111010111100101
1111010101011101
1111110101111010
10100001
11011010110
100111000
100111000
100111010
10010011
10010001
10011001110
1111111011001011
1001110010
1100010
1111111110000101
1111111111001100
11001011110
1111111000100011
1000110111
111010110
1011100001
11110100001
1111111100100110
1111011111100100
1111011011111110
1110111011111101
1111011110101000
1111111011100101
1111101100000000
1111111111001011
100100001
1010110000
10101001001
1111101111010000
1111101000100110
1111100101000110
1111111011111111
1111111100000100
110001000001
1111110110101000
110011110111
100101011001
101101000011
11110110000
10001101
1111111001000111
1111110101010000
1111111110101100
1011110001
101100101
1111110111011010
111101111
1111100000101101
1111100001010000
1111100000010100
1111110101010000
1111101100110010
1111100101101111
1111100010100010
1110111011011011
1111110100101010
100000001
1111011001100111
1111011111010011
1111111110111111
1111110011101110
1111010010100001
1010100
111011010
1111111110100110
11001101111
1111110100110111
1111100010000010
1111110101000010
101010010
111010100
1111111101000110
1111110111001001
1111110001101111
1111101100101100
1111101010100001
1111100010011011
1111101111000100
1111110110101001
1111110111101101
1111100110110100
1111100100000110
1111100001010010
1111001100011011
1111011011011011
1111001001010001
100111010
1111111111101010
10110011101
1111011000101010
1011011000
1110001100
1111110111000110
1111111110001010
1111111110110100
1111100111101010
1111110100010110
1111101111011010
1111101000001000
1111101111110100
1111110011000011
1111111000101110
1111110101000110
1111101111010011
1111100010111001
1111011110111101
10010010
1100010110
1111111100111001
1111000000111010
1111110001111111
1111000001101001
1111011000110100
1010100110
11001011110
1111111000001101
100011100110
1111100110100001
1111101111001010
1111111101011110
101000100
110100101
1111101111001001
1111100011001110
1111110100000011
0
1111010000101001
1111111010000001
10100000
11010010
1011101110
10000010
1111101001010000
1111110000000001
111111110
1111110010110101
1111110110010000
1110111101101011
1101111110101011
1110000001000100
1111001100001011
1111101111000010
1111111101100110
1111111000100001
10001011100
1111011111001110
1111111110001100
10100101010
10111010000
1100110110
1101111
1111100000110011
1111011011011001
1111011101001110
1111010111100110
1111110010111000
100000110111
111001010010
110010100000
10001011110
1111110001010101
1111100010010001
1111110010001101
1111100011100101
1111010111000000
1110001111011011
1110011001000000
1110100010100001
1111101110110100
1111110100001000
1111110110000110
1111110111011011
11110000010
1111111000110000
1111101100111001
1111011110010110
10001010011
1001101000
1111110110100100
1111001010101110
1111010010110110
10001110
111110110
10000000
110100101100
111011010000
10111101001
1111111000011100
1111110111000010
1111101000101000
1111110000000111
1111011001000011
1111010010010110
1111000100111101
1110110110100011
1110111100000111
10101111100
11100100111
100101110111
1111110001111101
10110100100
11010110010
1010000101
1111111101000011
10001010001
1111110110110010
1111011001100011
1111101011111101
1111101101101101
11111111100
11010110001
11101011011
100110001010
100000110001
1111000111
1111100110011011
1111100110001111
1111100010100111
1111001000101011
1110111000101011
1110100000000111
1110101111011101
1111000110110111
1111110100101000
11111101111
110111011110
11010000110
110001010
1111100001101001
11011000000
10111100011
11000010
11001110100
1111100001011001
1111110100011011
110100111
1111111110110011
10011010100
11110110011
100010101111
10110011110
101011101001
1101001010
1111101101001001
1111101000101101
1111100110100011
1111000111110110
1110011100101001
1110111110101110
1111001101000101
1111011111001010
1111111000110011
110111010010
101010111000
11001000000
1111100111
1111100100110010
111000100001
10110101000
111111110
1001000001
1111111000010101
1111111101011011
1111110000111111
1111101110001011
1111111011010110
1011110110
1111110111111101
111101111
100100010011
1100011101
1111110100111010
1111101000000010
1111001101110010
1111010110001011
1111011011111110
1111010111110111
1111101110100000
10010100111
1101001111
101010000000
10110001111
10001010101
1111101011011100
1111101010010001
11111110110
1111110101
1111110010100111
1111101101000110
1111101100010011
1111100001111110
1111100110010000
1111100011100010
1111101100011011
1111010110100010
1111101001101110
110010111
11000111011
11100001
1111110110011100
1111011010000011
1111100010101100
101000
1101110
10010010101
11110110001
101010101101
10000101001
110111010
100111110001
11000110010
1111110100110010
1111110110010010
10001101010
110111
1111100110001101
1111100001101111
1111110010110111
1111110000001110
1111111110000100
1111111111001111
1111110100110010
1111111111110111
100011000
11011100010
11111010111
11010110
1111110100111011
1111110011100100
1111101010010101
1111111100110100
11000001110
1110010001
10101110010
10000101100
1011000000
1111111100000010
1111111101000111
11001101
11001110000
101000101111
110100011011
1111111110111011
1111101001000100
1111010001010111
11001111111
10000010111
1101011000
10011011101
1100011101
1111111101000101
1111011111100101
10101101
11000001110
1111111000010111
1111111110111101
1111011111001101
1000000110
110111001
100001101000
10011100000
1111011000
1111111111000101
100110000101
1111111101000111
10101111001
1111111111000001
101001
110100010101
1100010111
1111101111110001
1110101110
1111011000000110
101000010011
111001100
1111111001100010
1111101101101110
1111101000100011
1111010110100101
1111011110110010
1111110101010010
10100010110
1111111001111111
1111101100100110
1111110111000000
10110110
11000100011
10000001111
10110100100
101011110100
10110011101
1010101101
11101111010
10011000011
10100
10110001100
1001110111
1111110010110000
1111100000111110
100111110
1111101010010111
10100100100
1111101111111110
1010100101
101101
1111110001110101
1111011100100011
1111010111100110
1111110101101111
1111111011111010
1111111001101101
1111110100101011
1001111011
1111111111111010
100010111111
11011000101
11011101000
100100100101
11111101000
10011101001
11111100111
1111101100100000
110111111010
10000001100
1001101000
1111100111110010
1111010011101110
10101111
101110111
1111110100111100
1001010010
1001100011
1001001010
1111110011101011
1111010011110100
1111010011111001
110100110
1111111000011010
11101000
1001000110
110001100
111010
100110101000
11000011110
100001010110
1111111111111001
110100111
1011101001
1111110101100010
1100001011
11111010100
1111111111101010
1111100010011011
1111100011110101
1111011010111100
1111101110000111
1011000100
10000010010
1111111011010001
10011000
10101010100
1111111100000101
1111110011111010
1111100001011111
1111111110000111
1111110110101111
1111101101001101
1111111110101100
1010110111
10101111101
10001101110
11000010011
11110010001
110110111
1010010010
1111111100000111
1111011110111111
10001100
100000011010
10101100101
1011000010
101011101101
1111111101011101
1111101010010111
10011010
11101010110
101000100
1111111010011011
1001010100
1111110110101000
1111111101001100
110101100
10001100100
100011010
1101111
1111110010000010
1111110100010110
1001101
10100010000
1111111111110010
110011011
101000110
10011100101
101000011
1111100111110111
1111101011101001
1111111010011010
10000101011
10111001110
110010010010
11110100000
1100101101
1111110011011011
1111111100101011
1111111111101010
110000011
10101101
1111101101110111
1111110101011101
1111111100110110
1111111111111110
1111110101111001
1111110011110100
1111100010010100
1111101001011000
1111101100
1010101010
110010110011
101011111000
100100110
111010010
10001111
10110011100
1111101111000110
1111110111110100
11111111
10001011
1111111101001010
101000101101
1111000010
1111110111110010
1100100001
110100101
10000111110
11100010101
1111110010111010
1001101001
1111001010
100100001
1111101100001001
1111110001111111
1111110110110011
1111111001100101
111011000
1111110000100010
10101000000
101011110
1111110111111001
1111111011111101
1101001000
1010001110
1111111101100111
1111111111111001
100111000
10011000
10100011010
11011001100
1111101111000001
10110100
10101101001
1111110011101110
1101001110
1111111010011110
10000000011
101011001
1111111111001000
10100110010
10011010001
1111111001111000
1111100000111101
1111101000010111
1111101101111010
1111011101100011
1111100101111011
1111011000011100
1111101010110011
1111011001000100
1111101110111011
1111101101110011
10100001001
1111111101101001
1111111011010011
101010101
10010100
1111110111000101
101011010001
100001010011
1101100011
1111101100000011
1111101111011110
1111010110111011
1111010111101110
1111000110110001
1111101111011011
1111111111100011
100111000
1111100011010001
1111101011111011
1111101000011100
1111010011110111
1111011001110011
1111101000111101
1111000011111111
1111000110000100
1110111111110111
1111010000000111
10110101
1001111111
1111111110001000
11011010
1111111011010000
1111111011111101
1011000001
1111111101100011
1000000001
1011111011
1111010100110101
1111000110000101
1110110110110100
1111101100010110
1111110111100111
1111110001111011
1111100010111110
1111101001110101
1111101000110001
1111000101101110
1111011111000111
1111010100001001
1111110000101110
1111111111
1111110110110110
1111001101001101
101010111
11101100000
11000000
1111111110100000
1111111010111001
101011111
1111111011110010
1111111010100110
1111111111011011
1100011
111011
110001001
1011101010
101100110
1001
110100011000
100110000011
100010101
100001010011
101010011110
1111010110111000
1111110101100001
1111101111100101
101100100
111000001
1111010001001100
1111011100010101
10100
110000001
11100
1111111101100110
1111111010101110
1111111111111001
