1111111011011101
1111111011001110
1111111011111010
1111111011010000
1111111011001101
1111111010111110
1111111100101011
1111111011011000
100101010
11100000
100111011
1111111100010110
1111111010110111
1111111001011100
100000111
1110
100101001
1010110
1111111111011110
1111111101100000
10000010
1111111011111011
11011111
1111111100101010
10110101
100001100
1110101
1010001
11101010
11011001
1111111110010101
1111111100100110
1111111011001110
1111111100011000
100110110
1111111011101110
1111111001010101
1111101000011000
1111101100100111
1111010011011110
1111001100100000
1111000001101100
1110001101
110101110101
10110110010
1111111011011111
1111010111010001
1111101011110100
1111111111110111
1111100111000110
1111111101110111
1111110100101111
1111111111010011
100001
101011100
10011
1111111111000101
11100010
100011101
1111101111000000
1111101010010101
1111101101011101
1111011111110100
1111110100011110
1111010111111000
1111110110001111
1111110111000111
1111010011000000
1111010111011100
1111011001
1111111101111001
1111111011100111
1111111000101001
1111100110100010
1111110001111001
1110111100000101
1111101001100111
1111111011110110
100001
1111100100010010
1111010101110010
10001001
1111111111011001
110100
1111111011101001
1111111110001011
11100010110
111101000
1111110010010100
1111111101100111
1011101000
100110100100
1111111100011001
1101110
1111010100100000
1111100100110101
1111110011100110
1111100011001111
1111010100001001
1111011110001111
1111100110101110
1111100001011101
10100000100
11100000
10110001010
1010001000
1111111000101000
10011001010
100010100001
1001110001
1111111010111101
1111111011100000
100110101
1101111111
10011101100
10011000101
110110001001
1000110110
11001010
1111111100110010
1111111001100000
1111010010000101
1111010100011010
1111101100010011
1111101110100010
1111111010111100
11001
1111111000011100
1111110101001000
1111101110111010
1111111101111000
1111110000111101
101010101
1000010111
10100010010
1111111000010001
1101000101
1000000011
11100000101
1111101010011101
1010010
1111111110110100
11001111111
1111110111100010
1110010000
1111110110101100
1111110011001001
1111111111110110
1100111010
10110010
1111110010110000
1111111011010100
1111000101
10110111001
10011111011
100100111
10101101
1111111111001011
1111101011010101
1111111100000101
1001000111
1001101100
11000011101
1011000110
1111100110
10110111110
1111111011110111
1111100110011110
1111111110010111
101110100
100111001
1111111011010001
11010110
10110101011
110011
100
11100101100
101100010101
100000111010
11001101011
10110010100
11001001111
10111000110
100001100000
11001000111
11101110000
10111001011
1111111101000011
100101011
11000100000
10110100011
110110010
101010001
1111011001111111
1111110111100111
1111111111011100
100011010
101001100010
1110010
10000010111
110111111101
1111111011110111
11010001110
10100110101
1001011001
10111100110
101101
1111101111111100
10011101100
1110100011
11000100010
101001010101
100011000001
10011010110
10001100100
10010000001
1111111101001000
10001100101
1111110011001100
1111111001011011
1110110000
1111111100011110
1001111
1111111011111011
1111011100100000
1101010
1111101001111100
110110111
100001100000
1111111001001011
10011110101
10011011011
10101111101
1101100001
1111110101010011
1111111111100000
10100011010
11011000011
100000010111
10000111001
101100101
10001011100
11011111110
100110100
1111111000000110
1111110010001101
10011101000
1111101101111110
1101110001
1111111000101101
1010100010
1110001000
1111111011100001
101101010101
1111110010100111
101101100100
110001110
1111111010011101
100010101000
1100001101
1100000011
100001010
1111111110000101
111000000
10111101011
11100011101
101000010001
100110000111
10111101111
11010011010
10111010
1111111110101001
1111111010000000
1010
1100011010
100011011
1101011101
1111011110
101000010
1111110111110111
1111111001001011
100011110001
1110100000
1111111011011011
1111111011110100
11
1111111111011010
100101100
1111110100110001
1111111110000001
1000100100
1111101000
11111111011
10000010101
11011110101
10100001
1111110011100101
1111101100111001
1111111000111010
100110011
1111111110111101
101001101
1111110110100111
101001101010
1010001111
1111111001100010
1111110100000110
11001111111
10100000
1111101010010101
101000010110
1100101000
101001010010
11011001100
1111111110101110
10011110101
10011001101
11000101101
1111011111
10100111110
1011111101
100000001
1111100101
1110011010
1111111010011100
1111110001011000
100111
1111110011110001
100101010
1111111001010001
10011000100
101100111111
111101000010
101111000
110001010000
11100011001
100001010
1111100111010100
11110001010
1010111101
100010001010
101110111
11111110001
10110000110
1110111111
1011101110
1111111111100011
1111110111101100
1111110111011000
1001101100
100010011101
100110011000
100110101100
1001010111
1011101000
10011001111
1001011101
11110111010
1111000110
101000111010
100101000110
10010001110
11001101110
100110110001
100010111
1111100010001110
1110101
100110100001
1111111111011011
1111111111110011
1010000100
1111111000010111
110000000
1111111001110000
1111011101000010
1111111001011110
111011110
100011011101
111001101101
110101100000
110011000010
11000011101
10010001010
11000001101
11010110101
10000100100
100110
1011010
1111101101001001
101101100
1001111100
1011111100
1111110011011010
1111110100101010
1111100011
10001110000
1111111010010111
1111110111111110
11110011
1111011111111100
1111101010100001
1111011110010010
1111010110100010
1111011110010100
1111100111111011
1101111110
100111010000
11111001010
10110010001
1111111010111110
1111111111111000
1010111000
1111111000101100
11100111
1111101110110010
1111111101100010
1111100011010111
1000011111
10111011001
1111101111001110
1111111101110000
110000010
1111111000100101
1111100000010000
1111100010110110
1111101111001110
1111110000000100
1111100000000101
1111011100000101
1111010000100111
1111010011000110
1111010110101011
1111010010010011
1111110010000111
11001111000
101010100111
1111110111110110
1111110001000011
1000110101
1111111100100000
1111111101100010
1111100111001000
1111110010101000
111110101
1111100000010100
11111100110
1011001011
1000000100
10111011
100101110100
1111111011110011
1111110000101110
1111111000011101
1111011111000101
1111100111100011
1111100011001110
1111100001000110
1111101110111011
1111101101110100
1111010001101111
1111100100101110
1111111000101100
10011001010
10100110
1111101100100110
1111100001101100
1111110101111100
1111111001110111
1111100011000000
1111011011111010
1111011001111010
1111000101110011
1111101101111110
1111100110001111
1111100011111011
1111100111110010
1010111
100111100011
1111100010001010
100010000010
1111101000111000
1111101100001010
1111101000101000
1111111001010000
1111101101101001
1111101101011011
1111100010000110
1111100100101001
1111111011101011
10001011101
1001100010
1111111010100010
1111101010001010
1111110110000110
1111101110010110
1111110100111101
1111010110111110
1111011010000100
1111100011100001
1111001110110000
1111001111001100
1111110010101101
10011111111
1111011110111000
11111110011
11110000011
10011001110
111110000011
1111111110000011
1111110000110001
111110100
1111100110010001
1111100010001000
1101111
1111110010100110
1111101001001100
1111011101111100
1111101000011010
1111110100110010
1111111001011011
1111101010011101
1100010
1111101111010110
1111111000011000
1111110010100001
1111101001100001
1111001000001100
1110111011011111
1110111000001111
1111101001010011
1111110010111010
100000010011
101100011
10110001011
10110010111
11001101111
111100101
1111110100
1111111001000111
1111110010101111
1111011111101111
1111101100000100
1111101001111000
1111010001110011
1111100010100001
1111110101101110
1111110101100010
10110100
110111110
1111110000010111
1111100100000010
1111110101001100
1111110001111110
1111110000010110
1111101000001111
1111000010101001
1111001111000010
100011101100
1111100111010100
11100101010
1111111100111100
1111100001111011
1111101000110001
1011011100
1111110110111011
10000100000
1010101001
1110011
1111100001000110
1111011111111001
1111011011111001
1111100000110110
1111101001001110
10110100
101101110
1111111111110000
1011101010
1111111001010000
1111111010011010
1111110101001010
1000110110
1111110100111101
1111110100001110
1111100010011010
1111011101000110
10010011001
1000110000
11110001010
11100100
1111111101000001
11111110110
1111111101011101
1111101100001001
1101100100
1101000101
111101110
1000010
1111101111101010
1111101101100111
1111101001100010
1111110000010011
10001110
110000000
1111110111010101
1111110101000011
1111101110110101
1111111100111010
1100110010
1111101111100110
1111110111101100
1111101111000101
1111010010010100
1111000101111001
1111100110111100
1111011101100001
1111101101010101
101101000
111111001
1110111
1111111100101001
110110101
10000000101
111110100
10100100010
1110000110
1000001000
1111110100010110
1111110010011010
1111111000100101
1111111101100111
1001010110
1111101110011000
1111100110111100
1111111010010110
11011001100
1010010101
100001001011
1111100011110100
1111110111001000
1111111011010010
1111100001011011
1111111101101011
1111101001000000
1111101001110110
1111111101110010
101011
1011100
1111110110110001
1111111101110011
1100101101
1111110101001111
1111111101100000
1000110110
1010000111
101000111
10000101
1111111111001000
1000101110
1111111001010111
1111110110100000
1000110101
1111110010
11000000011
1111111000011001
11111001110
1111111111010001
1011011000
11101011111
100011001
1111101111110001
10011001110
1010100
1000011
1111111100011110
100000000100
11111111001
11011001111
1111111010000101
100000101100
100111101010
101110011010
100000001100
111000011000
100001000011
1101110001
1011000010
1001111010
1011001
1011000111
11001100010
1111111001111110
1111111111111101
1111111010
1001101110
1111111000110110
10101001100
10001111
1110111101111100
10011111
1111000
1111111100101010
1111111110100111
100100100001
1000001110
100001010110
110110001011
10111010000
11010011111
1000111101000
1110010101001
1011001010011
1000111110001
1000111011001
110110111100
100111010001
101101000
10011101010
11011010111
11100001000
100110111110
101011010101
101100110110
10111001001
1010101
1111111001111110
1111111101110010
1111110110110001
1111111011101100
1
1111111110110011
1111111111010010
1010101011
100010000101
11111000110
111101100011
1011101001011
1011000111110
1001000101011
1010011110000
101110101100
10101110101
10001010101
1001011101100
11110101000
1011001111
111101010
11010101001
110010001100
1000101111001
1000010000110
110011010000
101010000000
10000011
1111111101000111
10001
1111111100001001
100110110
10001101
1101000
1111111010111110
100011111
1111111011100000
11110000000
100101001110
101000001011
110101100011
101101011101
100011110010
101100010111
111001110110
1001100111110
111111011011
1001000101101
1001111000100
1010011000010
101000111000
1111110001010001
1111111100000010
101100110
100111101
11010100
1111111100010000
100001000
1111111011001001
