101101
1111111111001100
1
1111111101000000
1111111110011010
1010010
1111111101101010
11001000
100100010
1001000
1000000
1111110
111000
1111111100010100
1111111100010010
1111111101011110
1111111101001001
101001000
0
1111111100111100
101010001
100100011
1111111011010100
1001111
1101110
1111111100101010
1111111100101000
11110101
10011011
1111111100001000
1111111101100100
1111111100101101
1111111000110011
1111110001100100
1111100101011011
1111011110000011
1111001010001000
1110011110100000
1110100111101101
1110110110011100
1111000001000001
1111100110101100
11111011110
1110101101
1111111110000011
1111100100001101
1111100100110110
111000000
1111101010100100
1111100100011110
1111100011010111
1111101101101110
1111111110010101
1111111101101111
100101110
10011000
1111111110111011
1111111100011101
1001011100
1101100111
1010001000
1111101001010000
1111000011101011
1111100110111001
1110110111011101
1110110100011001
1110110011100100
1110001100111101
1110110000010011
1111011111111000
1111101001011000
1111011111100000
1111101010001000
1111100011100100
1110110011100110
1110111011101010
1111010001111000
1111010111110111
1111100101101010
1111011110110101
1111111100000011
110011101
101011000
1111111010110010
1111111010100011
11000101
10001101011
1111110001110101
10010010
1111000100001000
1111011111011101
1111011000001010
1110110110110101
1111010110101101
1111010101000001
1111000001000110
1110101010001000
1110110101001001
1111000100010101
1111000110111010
1110111110111010
1111100000101101
1111101110101100
1111111000001000
1111111010011011
1111111111000101
1111111101100011
1111101010110101
1111010001010101
1111110111001110
1111111010011000
1010000
111001
1111111000111111
1111110101011100
1111011000110100
1011000010
1110111000
1100001101
1111111100111000
1110000000
10100111000
1111010100000011
1111100011111001
1111110011110010
1111110111110111
1111110000110100
1111100010101100
1111100101011000
1111111011010001
1111101000000111
11010100
1001111101
10001000001
100010000010
10010101
1000000111
1111101010101010
1111100010010111
1111010110111110
1111111100010010
1111111010111010
1111010101111101
1111001001010110
1111111100000101
111011101110
10010100111
1011010111
100110001011
110010111
1111101010010010
1111010111000101
1111100110010011
1111100001000110
1111011011011000
1111010000100010
1111010100101001
1111101001111110
1111101101101001
1111101011100010
110111
1111100011011100
1000
1111111010001010
10110000111
1111110010001101
1111001001100001
1111100010100000
10111110
1111101110001100
1111100101011001
1111110110110101
10110010
11010001110
1100111010
10011001011
11101101111
1100100111
1111110011000011
1111101100011010
1111110101011111
1111101010001001
1111011111001101
1111001001101110
1111101101100011
1111111010001100
1111110011111100
1111111110000011
110101001
111101111
11010000
1111100111011101
1111011011111111
1111100100101110
1111011010
1111111110010010
1101101010
10110101
101100000
1010101101
101101000
1110000111
10101110100
1011001010
10001001011
10110001000
1111111110001000
1110101
100100101
1111110001011111
1111010101001110
1111001100110101
1111101100101011
100001001
1111111110011011
1111111111001101
1000001110
111101001
1111111011011110
101101111
100110110
1111111101011011
11011001011
11111
10001000111
1011011
10101110011
1111110101011000
111111
11000000111
10101111111
1011111011
1010110111
1110100101
100000000
1101111010
1111111111111100
1111100101011011
1111100010011110
1111101100110110
1111100001110010
1111110000001011
101111000
101111000
11001001
10101100
1111101100010000
1111111010011101
1111111010101000
1100100100
1111110110100110
1111010000001010
1101001
11100000
1111101001100010
1111101001101110
11100110
100011110
1111111101110001
1111110110111100
11110001
101101101
10110110
110011010
1111111011001100
1111100110100010
1111101100111001
1111110010110011
1111110101111011
1111110111100000
1111010010
1100110000
1111111010101101
1111101011110010
101011110
1111111010001110
11111100
1111010101111100
1111110100100100
11100000001
1111111001000111
1111101011001101
1101001000
1111011000010110
1011001
10001011110
100011010
1111111100111101
1111101100001101
1111111101000111
1111110011001111
100111111
1111100001010101
1111101101101111
1111010011100100
1111111011101101
10111010001
11110011011
10011110110
10111010100
1111110000110001
1111101010001000
1111101001111101
1111101101100110
1111011011010001
1111110011
1111100011101100
1100011111
10011111010
1111100101011011
10011010001
1111000010000010
1111100001111011
101
1111101110010001
1111101100010001
1111110000011010
11100011
1111011011
1101100110
111011101
1111101011101011
1111100011000001
110100000
10100111000
110000110111
11001001111
10011000001
1000001001
1111101000010001
1111101011000111
1111010000011111
1111010001011100
1111111001001001
1110110110000111
1011101
10101000111
11001010111
1111001000
1111001101010100
1111011011100101
1111010011111101
101111011
1111110101000111
11000001
10110
1111000111
1010001101
111001010
1111101010000111
1111010101100100
1111111111000001
100000001001
11011000101
101011101000
101111111011
110000101
1111111010110111
1111111101011111
1111000000010101
1111011010110000
1111111110111000
1001111000
10111010010
1111110000100100
1111100110100000
10000010010
1111010011100011
1111100010011101
1111110111000000
1111100011
111101001
11011
111100110
10101001000
1001101101
1111101010101101
1111010100001101
1111110001101000
10001100100
11110100100
111001011110
101111001101
100001110101
100010000000
110110111
1111100100001011
1111001111100101
1111100111001110
10111000
11010110
1111010010101111
1111110000000001
1010010011
100100011
1111110100111110
1111101110000011
1111100001100000
1111110010010111
100101111
101100110
11010010100
10011101110
1111100111000110
1111100110010001
1111100110100001
10011100111
10111100100
11110000010
110110001000
100101001011
110111110111
101010000100
1111110100110001
1111100010110011
1111110111011011
10010110010
1111111110001101
1111010100000110
1111110111000011
10000000101
11000111101
1111100010001001
11100111001
10000111011
1010101011
10000111001
10010010000
11
1011010010
1011011001
1111110110011101
1111011101000110
1111110110010011
110110111
100110001110
11110111111
100100100000
100110101110
11100101001
1011000110
1111101101010111
1111111000110000
1111100101010111
1111100111011101
1111110000000101
1111111011100101
1111100100011001
11110110111
1111100000101000
1111100101010010
10110011100
10101010000
100010010
101001100110
11001000100
1111000110
10001001100
1111110001100001
1111100111000101
1111101000001110
1111110101110010
1111100000
100010110100
110100100011
101110011101
101010110100
10011111100
1100111011
10010001
1111111010011011
1111111000000000
110001001
1111110011000111
1111101101010100
10100001010
1111111010110010
1111110001010101
100000111110
10101011110
1001111010
1111110011011001
1001001100
110011111
10100101111
1100110011
10001111100
1111111111100010
1100010100
10010010100
100010001000
111010101101
110101101010
101001000011
111000000011
100010000
10001001111
11011110101
1101010110
11011001100
1111111110101110
1001101100111
10011
10010100011
1111101110011000
1110001
10011101111
1111010011
1101011000
1001010100
1111111101111010
101010101
100010000
1000000111
10101001001
10011000010
101000001
1110110000
100011001110
100111001001
110110010100
11010110101
10011101010
10000001111
10101111010
101010100101
11000110010
101011100001
10011010
10100100010
1010100001
1011110000
1111111010011101
1000001011
1111111100001111
100110100110
1001010100
1101111010
10100001
100001001
1111110011110011
1111100111101101
1111110010001101
1111110
1111100101000111
1111011011100001
110100101
1111111101110110
1110101000
1111101001111100
1111010110000000
1111110010101001
1011010101
1000011011
1111111100001101
1111110110010010
1111110101100001
11000110
1111100101110010
1001111101
1111111111111000
1111110100010100
1111010011110100
1111111000001001
10
1111111111010001
1111101100111000
1111111110011011
1111101111010101
1111010011111010
1111101000011101
1111011011001010
1110111101110111
1111010011100111
1111100100011100
1111011000001111
1111101011011100
1111111100001100
1111101000000111
1111111011011110
1111011001011011
1111100010010011
1111101101001111
1111101000111000
11110101
1111101010001101
1111001110000001
1111110000010011
1111111111110110
1111110100011010
1111010011010011
1111100111110010
1110010
101110110
1111110111100010
1111101011011100
1111110001010101
1111110001101001
1111100101100101
1111010110000111
1111010100111000
1111010010010000
1111000100000100
1111000001100110
1111110111100011
1111100011011100
1111100000110110
1111110101011000
1111011100001000
1111110101100001
1111101101111111
1111100011101010
10111110100
1111110010111000
1111101101101010
100100100
110111
1111111111001001
1111110111001110
1011000010
1010001000
1111111010100011
10101011010
1111111010111100
1111101111111010
1111101110100110
1111110101011010
1111100111101110
1111111100001111
1111011100011111
1111100001111111
1111100010101001
1111110001001010
1111100001101110
1111101110000000
1111110110011101
1100
1111101010110100
1111110011001010
1111011111101110
1111111111101000
1111101111011101
1111101111001010
1001010010
1111111111000001
10000
1111001001100110
1111100101111001
100000101
1111100110101011
1101010010
10000101010
1111101100000101
1111111111101100
1111101011100100
1111101101101000
1111110100010000
1111100111011111
1111011100001001
1111011100110100
1111011011000000
1111010100000001
1111100001000001
1111111001100111
1111111000010101
1111111011011001
1111011110010111
1111100000001100
1111110110101010
1111100100111011
1111100000010000
111
100000000
10111001
1111000010
1111101010101101
10001001100
10100100001
1001101
11110010
1111110001000001
1111110100111000
1111101110101111
1111101110101000
1111011100111110
1111011111100110
1111000111000110
1111010110110011
1111011010101111
1111100000011111
1111100001110000
101101001
10111101011
100011110001
1111110111101011
11010101011
10000110
110000101
100110011
1111011
1111111101001011
1111111101011010
1111010011000011
100011000000
100100100010
1101111100
1111110100010110
1111111001110110
1111101010011001
1001110100
1111111011100010
1011000010
1111110110100010
1111110110111010
1111111100001110
1111111110111101
1111101111011001
1111010110001101
1111101001110100
1111110110101100
10101010001
1111011001
1111101110011000
1111100100000000
1111101010100111
1100101101
100001000
10000000
11110111
1111111101001000
10101101
1111111100010100
1111111101010011
1101001011
10101000101
1001010000
1010010110
11001010001
1111101101011110
1111010110000100
1111000001111000
1111001100000001
1111011110101011
1111011100011001
1111001010011111
1111010001110011
1111101100000000
1111100111011010
1111100100011010
1111010100110111
1111110001001010
100000101111
1111111000110000
1111110011101011
10111
11101011
1010111
11111111
1111100
10010100
1001111110
11110111111
1111110011101110
1000000100
1111111110011000
1111111001011010
101110011
1111010011100000
1111011101000110
1111111101111011
1111101000100111
1111001100110000
1111011110101011
1111110111000001
1111111101101000
1111110110110101
1111111100101001
110111
1111101100101011
100010
1111111110111111
10100101
100110
11111000
