1111111111100101
1111111101001010
100011100
10111000
1111111011010001
100010001
100101001
1111111101001100
11010110
101001110
1111111110100011
0
11111111
101110110
1111111100110011
1111111110110011
1110110
101000101
1111111111010111
111100
1111111101010101
1111000
11011
11000010
1111111011001000
100000001
100101111
1111111011010110
10001000
1111001
1111111110101010
1111101
101110011
11110101
1111111100001000
11001101001
101010000000
1001001001001
1001010001001
111100101110
1000000100010
1001000110101
10000010
1111001100001101
1111011000000111
1111110001011110
100001011100
100110010000
101011011000
101101111001
10100101
100110011
100000101
1111111110001111
10110010
1111111110101011
1111111111010111
1111111110111100
1111101
1111101001100110
1111110010100000
101000111011
101111010110
100110001000
111110001001
11101011
10000001000
10101010110
100111001001
100010000110
10011101
1111111101000011
11010110100
1000001101110
110110010010
111000000100
111001011000
101001100100
111010000001
10001101010
1111011100100101
1111100001001101
101001110
101001110
1111111011001110
1101101
1111101110001011
1111101011000111
11101111111
10011011011
100000110
1010111101
101111010011
10111010100
100011111000
110111001101
110101111100
101011000101
100101001001
100010011101
1111101011000100
1111110100110110
1111110101011001
1111011111110000
1111101101100111
10000101110
1000100001101
110101100011
110001010011
101101001
11100010011
100100011
1111
100010101
1111110000101000
1100100000
1111101101110010
1111101001100011
1111111001000111
1111110111010000
1011101110
100101000111
11101111001
1111110101110110
1001001
1111110010010101
1111111011111010
1111101001111001
1111011100111001
1111101101110111
1111110011000111
1111111000110111
10001110111
11100011000
100110011010
111110100110
101110001011
11101110011
1111101010001100
10000011111
100111011
1111111100111100
10010111001
11101110001
1111001101101000
1111101001011110
10011011100
111110111
10100011101
100110100010
10110001001
10111000001
10011011010
1111111000101111
1111110110101011
1111010111111111
1111110100111001
1111101011011111
1111110110010011
1111110101111001
11001111101
110000001011
110001110111
101001000000
10000001110
1000100001
101001101101
10111101110
11111
1111111111111010
11010010101
1111101111001010
1010001010
100110010101
10000000011
101000000100
100001111111
10011000100
1111111011110011
1000110001
1011110101
11001010
1111110100111010
1111101001011100
1111100000111000
1111100010101011
1111111000010000
1010010000
11101011010
11100000010
10010111100
100111010101
110111101000
1011100100
111011110111
101010101
1111111101001101
1111100111100101
1111111101010111
1111101100000111
1111101110101010
10111011101
1110010000
1110011000
100000100001
11100011111
10110110110
10100010011
1011111
1100111110
1111111000000001
1111101010000011
1111011111011011
1111110111111011
1111111101110100
100010000
1101101101
10011100010
10000111110
10000000111
1111110011110100
10001110000
1011110001001
1111111111101110
1111101111000000
1111001111111001
1101011011
1111101111010010
1111101011111110
100001110111
10101111101
10000111110
10001001011
1111101110
100001010000
101101100110
11000000000
1111111111111000
1111011010011101
1111011011100000
1111110011000001
1111111101100010
1011011101
1010000110
1111001000
100000011010
11100011010
1111111101011101
1111111000011011
100101101010
1011011110111
110000101001
1111110001100101
1111001101001000
111101011
1100110
1111101010011001
10110101010
111000111
10011000011
10001101000
1111111000011100
10111010111
11001011000
1101011100
1111100000010001
1111001010011101
1111000101011001
1111110000000000
11011001
10101111011
10111001011
10101111011
100100010100
1101011000
1111111110
1111110000010110
101011011110
1000111000101
10110011
1111110001110101
1111001111000110
1111011000111001
10010101
11100001
11110001
1111111011000011
1101001
1011001
1111111110000100
100010
1111110101110001
1001011
1111101000100111
1111101110001100
1111110100100001
1111111101010110
1100011100
11010001101
10100110100
1011100111
1111110100110010
1100001110
10010101001
110110100101
10111101
111101011001
1111100100001110
1111110111100110
1111111010100011
1111011011001110
1111011011110001
1111110001100010
1111111000000000
1111111101010001
1011010010
10111110
1111110010000110
1111110110001001
1111101101100110
101100100
11000001101
1111111110000001
1111101110000101
11111011
1010111111
10110101000
1011010010
1111101100011001
110001001
110001
1111110111010001
101011110001
11110110101
1000100110001
1111100110000010
1111111001100110
100011001
1111010111111101
1111011011110011
1111001001110011
1111101000001111
1111110110000110
1111100010100100
1111101010100100
1111101011001100
1111111001011000
1000011011
10001100110
110001011111
1111111111001100
1111101010000011
1111101110101101
1000101011
110000111
11000011
10010000010
1010000
1000101100
100001000
1101011011
10010100
10000110
1111101101000010
1110011110
10001111
1111010110011001
1111001001100100
1111001111010111
1111100011010110
1111100101010101
1111110101001100
1111110100010110
1111110101111000
1111111001010111
101011010
11101001010
11011000011
1111110000000011
1110001000
1111111010011000
1111110111101100
1110110001
1011000101
1111111111010101
1111111001101011
10111111
1111100100101101
10000
1111111111110010
100011010
10001101101
10010110111
101010
1111011001000001
1110111111011010
1111001111110011
1111101000010101
1111011111110000
1111110111011011
1111101011100010
1111011001000000
1111101111111000
1110110010
11101010110
100011011011
10101001000
1110100001
110111101
1111111000000001
1111110011110011
1111101111010011
1111111010110110
1111101010111111
1111111000111011
1111110000111111
1111110000000001
1111010
1111111100110111
1111101010111011
1000010100
1111101111110110
1111111111100011
1111110010001110
1111101000000110
1111010001000010
1111110100101101
1111101110101010
1111010001100011
1111100010010010
1111101110011110
1111110001011101
10001001101
100001101000
11111100110
1000110010
1111100100110011
1111100111010111
1111111000101000
1111111101110100
1111101000100001
1111111010101000
1111100100101001
1111111100010001
1000001
10101001110
1111110100000100
1111110010011110
1111100010001001
1111011111001101
1111100010000011
1111111011111111
10000111011
1111111000101100
1111100011111101
1111100111010000
1111100110001011
1111010110011110
1111100101111101
1111110000110010
100110111
110110
1111110101110001
11010001
1111100000111011
1111100100100110
1111101111101110
1111011000110111
1111010010000000
1111100110111000
1111001111000000
110111101
1111110000000111
101010010101
1111110100100110
1111010110111111
1111111111111001
1111010100111010
1110111010010001
1111111010101110
11010111100
111010101
1111110100100001
1000010000
1111110110011011
1111111011111111
1111110111110010
1111111101101011
1111111100111101
1111101111011000
1111100011011101
1111100011000110
1111100100110100
1111110011100000
1111100111110010
1111110011000110
1111111100001110
1111111110101111
1111010001101010
111011110
11110011111
1101010101
1111110111110111
1111100111100110
1111111001111111
1111111000011111
1111011011111101
1111110010000010
110111100
1111110111001111
1111011111000011
10100010111
1101111001
11001011011
1111111101000011
1111111110111110
1111001
1111011000111011
1111001110010111
1111011101101011
1111110101100100
1111100001010000
1111011001000010
1111100111111000
1111110110111011
1111101001100110
1111100101000111
1001001011
101011011
11111000101
1111111001100010
1111011110010110
10011001111
1111100001000011
1111110100011010
1111110111001000
1111111100110111
1111110010001000
1111110110101011
10001001
11001111111
1010110011
1011111101
1100011
1111011100111001
1110110001111100
1111001110101110
1111100001100000
1111100101000011
1111101011011011
1111110100101110
1111011101000001
1011110
1111111000110100
110011110
10111111
10110101
1111001010010110
100100011100
1111100110010001
100001
11100011101
10100001
1111110001111111
10111010101
1010000011
1010111100
1001000001
11111000110
110110101
11011101
1111110000100011
1111110010010001
1111100100010011
1111010000101011
1111100111101110
1111100110111001
1111110110111010
1111101001000001
1111011100010110
1111111000010110
1111110111111000
100100110
11011010011
11101001
1110110100110001
11011010110
1110001111
1111111100010000
111100101
1111100001111001
1111111100010100
100000001011
111010100
1111100010
100010010111
100101101000
11100110111
1111001100
1000100011
10011110101
10101011110
111110101
1000111100
1111110000001001
1111111011110111
1111100001100100
1111011110101101
111110111
1111111101001101
101001010
10101001110
1111110011111001
1111111001001011
1111010011110100
10110000111
1111111000110000
100101
1111011000110111
1011010
1011110111
1000001101
1101011000
100001001100
11010010101
1000110110
11010010110
10111110001
11000011011
101110010110
10111011111
1101011101
1011101011
10000100110
0
1110100
1111111111011101
1100111000
110011
111010000
1111110110100010
1111000111110000
1111110000101110
10100100010
1111111110011100
11111100
11010011101
100010111110
10100011101
1111110111101111
1010010100
110110100
10100110101
1011011
10101000011
10101111100
100111011011
101010010111
101000001110
101001010100
101011111101
1110110111
1010111101
100101110111
100000010110
100010001100
1011100101
1111101100011100
1111000001000001
1111100000011001
1111011110110011
1111111011111111
110001
11100000
1111100111010101
1111101111110011
1101001111
10111011001
1111100000000001
1111110001011010
1111100101110111
111110111
1000010000
100010110111
110111111101
101000010011
101001001101
100001001001
110110001111
10100000
110100011
110011110001
11100110001
11100000
111011101000
1010110100
1000000111
10000010100
1111010110110011
1111111111100010
10010000
1000100
1111111111011101
1111110011111001
1111010101111110
1111111110011111
1111101011100011
1111100001110100
1111100101001111
1111101111100101
1001110111
1011
1111110011010001
1111111000010001
1111111011000011
10001011011
101101010
11011010100
11011111001
10011111000
1111111101101000
101111110
100111101010
110000010001
11111
1111100001101110
1111101110001100
1111110
100111011
11101111
1111111100100011
1111101010011010
100001111011
100000100
1111100000010001
1111100110000001
1111101000010000
1111111000110001
1111110110101111
1111110010
10011100011
1111101011011101
1111010101000001
1111100011101001
1110111
100011110011
11011100111
1001100111
1111001110111000
1111100100000000
1111011010010000
1111010001100100
1111101101010010
1111111110110100
11001100
11001010
11111101
1000001
101011100
11011000
1111101001010110
1111100011101110
1010010111
1111111101010011
1111110110011111
1111110111011001
1111001110101010
1111110110111110
1111111101001010
1111000111110011
1110111111001110
1111110010100110
1111110110111000
1111101111100110
1111111001000111
1111011101011000
1111111011000111
1111101011111110
1111101010001001
1111101001111001
11001111
1111111011101100
1111110
1111111111000101
