101011000
11101010
1111111111101001
1101110
1111111011000100
1111111101001111
10001
11001001
1010
11111011
101011010
11011111
100110110
1111111110011001
10101010
1010000
10010100
1111111111000000
1111111101111101
100000000
1111111111001000
11010011
1101110
1111111011100101
1111111100001111
1111111110001011
100100101
10111000
11110101
1111111101100111
1111111111100110
11110101
10010
1111110000000101
1111011101010111
1111100000001100
1111100001001011
1111100000001001
1111101000110101
1111100001100011
1111010101010110
1111110000000010
10111010
1111000011100010
1110110111011010
1111001101010111
1111110110011111
1111100001101110
1111010000111111
1111011001011110
1111101011001100
1111101101100001
100001110
10110000
100000
1001111
1111111110011000
10100100
1111110111100000
1111011100000010
1111100100100101
1111111000001110
1111011110010100
1111001100111001
1111001001010110
1110100010001011
1111000101101001
1111011010101111
1111010010110000
1111100000101000
1111010101100001
1110011111111000
1110001100111011
1111000111110000
1111100101100000
10111100
111011110
1110110100111101
1111011000001101
1111011111000010
1111011100000110
1111101101110001
1111111100011000
1111111100001110
1111111101011000
10110
1111110110010000
1111010111001110
1111100010101100
1111110001011110
1111000110111111
1110111011111111
1111000110100110
1111000010001110
1111011000110011
1111111001111110
1111000111001100
1110100000100001
1111011100101001
1111010111100111
1110100011111111
1110101111100000
1111010000000000
11010
1101000010
1111011100000101
1111010100010110
1111011010110100
1111110011010110
1111001110111011
1111011100010001
1111111110111100
1111111110001101
1101000110
1011001011
10000110101
1011111000
101001000111
1111111110
1111100111111000
1111010101110001
1111010001110101
1111000101011101
1111011100101011
1111010100001110
1111011101110010
1111100000010110
1111011000001011
1110101111001000
1111100011001111
1111101010101010
1111111011001010
1111101110110000
11110001
1111111111111110
1111111010000001
1111111001101011
1111110101011011
1111101111110110
1111100111110010
10000011
1111111100001010
1111111001100100
1111010110001000
1111100111100110
1111100101001010
1111011101110101
1111110000100011
10101110
11000100
10110010100
1010110110
10001000101
1111101000111011
1111111100001000
1111101001011001
10000101
10110011100
1100110011
1111101010101001
1111101111101001
1111111011110011
1111011101011000
1111101111110010
1111111011100000
1111011010
1111010001111100
10101010
10100011
1111101010111011
1111000111
1111011000001111
1111110001011111
1111110001010001
1111010000110110
1111111001011000
100010010
11100
1111111100010010
1011001111
1101011100
1111111001001100
1111110001010001
1111011001001010
1111101101110110
110111101
1111101100011100
1111101011001010
1111101011010011
101001100
1111101111110000
1101111101
110001100
1111110001001000
1011110000
1111100011000111
1111111101101101
1111110001001011
10100110100
1111011101110110
11001101110
1111111101010001
1111101000110110
1111111011111101
1101000011
1111111110100010
1111111010010101
1111111001101010
1111101111111001
1000110110
1111100101101011
1111011100101101
1111100001110000
1111101000011110
1111100111001101
1111110101100001
101100
1111100010101011
1111110011010110
1111111000101100
11011000101
1111111100010000
1011001001
1111101000100010
1111101010111001
1111011100101110
11000111000
1111100010111010
11011011100
111010
111000011
1111111001100100
1111101110010101
1111110000111110
1111100010111000
1111110001010011
1111101000111100
1111110001010101
1111111011110101
1010111101
1111101010111001
1111101000011110
1111110010110000
1111110111001010
1111100001111110
11111010
1111111001001000
1111101011001100
1001101100
1011010111
101100110
1111101111110110
1111101100111001
1111100000010000
1101110010
1111010111011100
1111110010100110
1111110111010001
1111110111010010
1111100111000100
1111110100100110
1111100100001011
1111110000000011
1111111010000100
1111111101000100
1111110100111000
1111111001000101
1011001001
1111111110111110
1111101111101001
1111111000001101
1111100000001001
1111110001111001
1111110100110011
1111101101000111
1111110000011000
1111001000111110
1111001110100101
1111111001001110
100000110101
1111110000101001
1111010101001111
1111110111111101
1111010101100110
100101000001
1010111000
1111110101101001
1111101101111011
111001
1111111101110000
1111110011010000
1111111001110011
1111101010101011
1110111001100101
1111001111010111
1111110000100011
1111111011001101
1011011
10100
1111101110000111
1111110000111110
1111101101010011
1111110101100101
1111110101011100
1111100100110100
1111111010101100
1111100100101001
11001100
111110101
1111100111101001
1111111110111001
1111001011000010
1111100110010101
11100001111
1111111101010001
1111110011111011
10100010100
1001101010
1011100110
1101110001
1111101001010010
1110110111111000
1110111001110101
1111101111000001
10001010001
1110100010
1000100101
10111000
1110001100
100111011
1111110001101001
1111100101110001
1111100100000011
1111111010001111
1111101100000110
1111100011110001
1010111100
10001001011
1111110011001101
1101110110
1111111111100100
100010100
10001000001
1111111001110101
10101100101
110000011
11101110010
100100000011
10101111011
1111110110001010
1111100010000010
10000100010
10111111101
1010011
11100110
1010000110
1100110110
1111111011010111
1111101000100000
1111111011111000
10010
1111100110001010
1111101111101010
1111100010111010
1111110010000101
10010010001
1111101111011011
1110100101
101100100011
1111110100000101
1101000010
10000011000
1011000110
110000011
11110100010
100111101000
100100111001
11001101000
1101001011
101000001001
10001100000
1101000110
100100001111
11010100
10011001101
1111000011
111100100
1111101011010110
1111101010110000
1111100000
1111111100000010
1111101001101100
1000100111
11011111010
1111100000100111
1011010001
101000001110
1001010010
1111101011110100
110011101
10011000100
110001110
1000110010
10101101101
110010001100
1110111011
1111111000011101
110010111
10011010110
11101111110
11010000000
110101000011
11101011100
1111111101010100
111100
1111111001101101
1111101000110010
1010110111
1111101110100001
1111011001100110
10000100001
1011000110
1111101100010110
1100110001
10100100111
1111100011000000
1111101111001011
1111111111010010
1111110111001110
1110111000
1011000011
11110010011
100011100100
10000010111
1011111011
10101111101
11110111101
100011010100
100111100101
11000110010
1111110110001011
1111111101011000
10000110111
1111111100010001
1111100111110100
11110
1111110011111001
11011100
110100100
1111011110010111
1111101101011110
1111101011101000
1001101
1001101010
1111111110100010
1011100001
10011100
111010
110111111
10100001111
100000010000
100011111000
101010111000
100101011101
11010100010
10000011100
1001011010
1111101101010100
1111111111110001
110111001
1111011
1111111011000000
1111110011000010
1111110011101001
1111110110001010
1000001100
1111111010111010
1111101000110100
11100011100
1111100011110110
1111110110100111
1111101111100010
1111111100100001
10000001
10001100
1111111001101010
1111001110
1100011100
10000100100
100011010111
11111011110
110010001
100100011
1111110110000011
1111111000000001
1111011101000010
1111101010111011
110101
1111111111110111
10000001100
1111101011000110
110110010010
10111100000
1111110000110110
1111110010110001
11111110111
1100101100
1111111101101101
1111110001000110
1111100010011010
1111111011001010
1111011000100111
1111001111001010
1111000100100001
1111010101111100
1111100100011101
1111100101110111
1111111111110110
1111111111111100
1111111010001010
100101101
1111100101010101
1111010111011001
1111010001001010
1111011001100110
1111100100101101
1111100000000101
1111010100010100
1111011100001111
110011111
100011111101
1111111000001100
1111110010010111
1111100001110000
1111111011011101
101000110001
1011
1111010110101101
1111101010000000
1111000101110110
1110111000101111
1110011101100001
1110011011100111
1110110010011111
1110110110011110
1111000101000010
1111101001010100
1111101110011010
1111111001100001
1111111000010010
1111101001000100
1111100111111000
1111111111100010
1111101010000001
1111001011001110
1111000111010101
1111000100111010
1111111101101100
10111010
1111110101100011
1111111110011001
1110001100
10111110011
111110110
1111111000011011
1111111100111100
1111101111010001
10011010110
1111101011101100
1111010110101101
1111000011100100
1111010110111011
1111010000111110
1111001010111100
1111010000101100
1111101110010000
11001100011
100001101111
1111111111111010
1010011
101100101
1111110100101001
10111101
101101
1111110011100100
100110101101
1111111010100111
1010101
1111110000101101
100111010010
10001001110
1111111101010100
10011000110
1101111110
10101001000
1111011100
11010001011
10101001001
1010111101
11011
1111111110010000
1111011110100100
1111010100011111
1111101001100010
1111111000111000
1111110001100000
1111100100010100
1111110111111101
1111110011101000
1111110110000110
1111111011010010
10000001101
1111110010111011
10111110001
1111100100010100
101001101
1111101110001111
1111111101011001
1001110
1001011011
100110001010
1111111001101011
10101011100
1111000110
11011101100
101111100
11001001011
1111100001
111110111
1111110010110100
1111011101101000
1111100011101101
1111101110011101
1111101011101100
1111101010010001
101001011
1111101101100110
1111111011010101
11101100000
110101001
1111101101100001
1111111110000100
10100010010
111011111
1111111110100100
1111111101010110
10110110111
1111111100010011
10100011111
1111101001101101
1000111111
1001111011
100100101010
101011001101
10100010010
1111111111
101011101
1111100001100011
1111100011110011
1111011111100101
1111101110011010
1111111111001000
1111010110111101
10110110
1111101011010000
1111110000011101
1011111001
1111110011110000
1111110111010010
10101011101
10111100011
1111111100100111
1111111100111001
1111111110000011
1110111011
1111111101010110
100001111
100110000111
1001100001
100000111110
110101110
11010010111
1111111101010011
1111111001110010
1111110101001100
1111100110110100
1111100111000011
1111011111101100
1111101010011011
1111111100000000
1111100100111011
1111111101011111
1111111111011101
10011101101
10110011111
111100001
1111010011011011
1100101100
1111100100011001
1010011
1111111101011111
100011
10101011001
1100001011
1111110100111001
1111101011011110
101011100
1011100100
1010000010
1111111101110111
1111110101000111
1111110001001101
1111100011011010
1111110111000100
1111111010110110
1111110100101100
1111101011011110
1101011101
1111110001000011
1111101101010111
1111110101111101
11011010001
101000101101
110110
1111100010100000
1111101010011011
1111100110000001
101011010
101011011
1001100
101111
1111101100000010
101101011100
10111110111
11100101011
101010111
1111111111000000
1111111111001000
1111101010000111
1101001
10101110000
1001011001
1111111001101111
11110101
10001101111
11010110011
1111111010010001
1111111110100000
1111100110000010
11111011
1111111000011011
1111011110101101
1111111110000101
1111110011101101
1111111011001000
11101001
1111111111101000
1111111110001110
101010111
1111111101001000
1111100110000101
1111100011101101
1111111100100111
1111110101100100
101011110
11011111
1111010110100100
1111111000101111
1101000110
1111100010101001
1111100000010101
10011010000
1111110101111100
1111101000111011
1111101010000010
1111101110000011
101100101101
11001101101
1111011101
1111111011001101
1111111100110001
1111111010111000
1111111010101001
1111111010110101
