1111111010110100
11110000
10110100
1111111101010100
11101010
11010100
1111111011011001
1111110
1111111111011111
10110111
11001
1111111111110010
11010010
100101110
1111111100100000
1111111010111011
1111001
1111111111111101
1111111110011010
1100010
1111111111001000
100000
1111111011110000
1111111010101000
11110000
1111111011100001
111010
1111111101011000
1111111101101001
1111111011011010
1111111011110011
1111111100110101
1111111011010111
1010
1111111101111011
1111110101010111
1111110110110001
1111110011110001
1111111011101001
1111110001000110
1111101001010001
1111100100010111
1111101010101011
1111110000010010
1111110001010001
1111110011100100
1111110101000000
1111110001100010
1111111110111000
1111111010011100
10001110
1111111010011110
100110101
10000000
1111111110000110
1111111100110001
1111111101110110
101
10011011
110111000
1100001010
1111111000000000
11100000010
1100111101
1111011100110111
1111001000110011
1111011111001010
1111100001000010
1110100011100100
1110111010010100
1111000001011000
1111000111101111
1111100101011000
1111110010000011
1111111011000111
11001110
10000000000
1010110001
1011101011
1000111111
1111100100011011
1111110110010110
1111111111010010
11100111
10000000
100100010
1111111111011100
1111110101011010
11001100010
100010110101
101100100101
1111100100011110
1111111000111110
1111101001111101
1111110101010101
1111100010100010
1111100100110001
1111101011001010
10010010111
1111111110111100
101111011
1100100101
1111111101
11111010111
10101001001
1111110111111101
1111101100100110
1111011011110000
100000111110
1111101100101000
1001000001
1111111010101111
1111111011010011
1010101100
1111100110
101101001100
1111010100100011
1111110111100010
101110111
110111100
1111111010110001
1111101000011010
1111111111010001
10110001001
1111000011
1011011
1111100001100001
1111101100101101
1111011100011111
1111101001001100
1111110000000101
1111101110000011
1111110110101001
1111111100101100
110110110
1111101110101011
1111111100011001
100110001100
110100110101
1111100100001010
1110000
11000111
100010111000
1111110001000010
1111001110011001
11000001111
1111111111001110
11100001100
10000001111
1110110010
10001000001
10010100101
1001101111
1000110
1111110001011111
1111100011000000
1111101011000010
1111111000000101
1111111101010111
11011110
11001111101
1111101110101010
10110011000
1111111001110100
11101001
101100101
110010000000
101011101
1111111110000001
1000010000
10111000010
10001010100
11000000000
1000010101
1111111101110011
1111110111110101
1111111101000001
110110000
111111010
111010010
100000101
1111111010000111
1111110011111000
1111101011001111
1111110100010100
1111110100011010
10101000
10011001001
111011001
10000101110
10110001000
10011111111
1111111110010110
1011011010
1111111111101100
1111110001111110
100100011
1111101000100110
1111111111011011
1100011011
1111101011110001
1111111100111011
1111111001000111
1111111010000000
1111111000101111
1111110001000010
100110
10001100100
1111111110001011
1111100110101011
1111100111101111
1111101100111011
10001011011
1111111110011011
1111111111110101
1000111
1111111011010101
110000111
1000011111
1111111000010111
10010100011
111000010011
1111111010111000
111000100
101011011
101001111001
10011011111
1111110100100000
1111110000111001
1111111010100011
1111101101111011
1111101010010100
1111110100100010
1111111110111110
111010010
11001010110
1111111100110011
1111100011011011
1111101011000001
1111101111011100
1000111101
1111110101100010
101100001
1000000
1111111000111010
10010010111
1111110101011110
1011111110
10010010011
1110001101
1111111010100010
111101000
1111001101
111101101111
111101011
1100101011
1111110011001110
1111111101010010
1111110111111001
1111100100100110
1111111011000111
101010101
1010101111
100110001101
11111001111
1111111111000011
1111100001111101
1111010011101101
1111001101101010
1111100001101111
1000010101
1101010100
11100011
100111111011
111111101
1000001100
110011110010
101011011111
100110001010
100110110010
100100110
111101110011
100010001000
110000010010
1111111101010110
10001111
1111110111110000
1111110001111011
1011011001
10101001110
100100111001
110111010100
100011100100
1111110010010001
1111010010000110
1111001000010011
1111010000011110
1111001001101111
1111100111001101
1111101010100110
1111111010010101
1011010001
101111101
1111111010011010
100100010111
10001011001
1000111100101
11011100000
1100001110
1011101001
100001010011
10010100100
100010100
11100001
10111101100
1111001100
1011010011
1111111110101011
101110101011
100111001111
1101110111
1111111111011101
1111110101001011
1111101011011101
1111100000110110
1111100100001011
1111110011110010
1111101000010100
1111100010110000
1111101001111111
1111111000000000
1001001010
10001110000
1111111110000000
100011111101
11100010111
1111101010
1111110000011100
11001001110
100110111111
100100001000
1111101001101100
1111101000010000
1110000101
1100010110
110110000
11010110001
10100100100
101001101
110001100
1111111100011111
1111100000101110
1111011010101110
1111100111100010
1111101011111000
1111110001100011
10011001
1111111000111110
10010100000
1110000001
10111010
1111011010000011
111001011101
10110011100
1111111101100001
1111110001011100
111110000
11000001101
101100001100
1010110011
1111101100001001
1101100100
1111111101011000
1111111111111011
1101111010
11010110000
1111000111
1000101001
1111110110000010
1111101001000110
1111100010011111
1111110011111110
1111100101010000
1111100011100100
11001101
111000
1111111010010011
1111111100111000
10101010001
1111111101000100
1111011010101100
1111011010100011
10110101110
1111101110110111
1100011110
1111101000
10000001001
11000101100
101110010
1001011010
1111110001110001
1110001101
100100110001
110000101
1111111100101110
10011010
1111111101101110
1111111000001101
1111111111001000
1111110011110001
1111110001101010
1111110011100001
1011011011
1111111100100100
110000
101000001101
101101010000
1111011011010001
1111001100110001
1111101011001111
11000000111
10100011001
10101111111
111001000
1010101001
11001111110
1000011101
101010010
1111110111000000
1110011110
100000110111
11010001100
10010011110
1010111110
1111101010001011
1111110001001010
1111101000010011
1111110010100111
1000000111
1111111110100011
1000001101
1111111000111011
1111110111001010
1111101110100111
11010101011
1111110000011011
10010110011
101100
1101111110
10101111101
10011101111
1100100001
11100101111
10001001011
1111100000000001
1111011110110111
1111001011100100
1111110110101110
1011010100
110111101
10010111101
1111111011101010
1111011011001010
1111100100110111
1111100110011101
1111110111111110
1111111001011010
1111111001101110
1111111101101110
111101
1111111010110001
1010000001
1100110110
1111111101011110
1110111000011010
110010010
1111111101010000
11100010111
110111110
100101011000
1111011110110001
1111001100000100
1110111100101101
1111001111101111
1110100101011111
1111000001110000
1110100100010100
1111000001000010
1111011010100011
1110111111011000
1111000010100011
1111110001101111
1111010110011111
1111101001011111
1111111100001000
101111010
10
100011010
1111101111001000
1111111001000011
110011000
1100100001
1111101000111011
1111110101001100
1111101010101010
1011111010
100000100000
11110011111
1111100011001111
1111001110011000
1111010001000101
1111011011111110
1110111010000001
1110011001100111
1110000100011100
1101111000011101
1101111000010110
1110000001111100
1110110111110011
1111001111010011
1111101100000000
10111000
1111111000010101
1100001010
1110000100
1111100011
10101000
1111100101
1111101100101100
100001000100
10111011101
1111101100101001
1111111011010101
11011101110
101100001110
100111110011
1111110100000000
1111011101000111
1010010001
1111110011000101
1111110001010001
1111011001101111
1111010110110100
1111001001111110
1110100101110111
1110010000000010
1111000000000011
1111010010010110
1111111100000111
110111010
1001100011
1101010000
10010000001
1111111101100011
1111110111100010
10001000111
11000101100
101011010110
1111100000010011
1111110101010010
1100100
100110111011
100111010000
10001010
101110110
101011001
10100100
100010001
1011110111
1110110
100100011
11000110
1111101110110101
1111100111001110
1111010110010011
1111100100011000
110000111
111011000
1001101010
11001101
1110001100
1111111001100110
100100101101
1111111100000011
1111111010111000
11011010
1111111100111011
1111111000010011
11010101
101001000111
1111111001000010
1111110011001001
10010001101
1111110000100110
1111111101100011
10100111110
10000101100
1011100111
101110001
1001010010
1111111101010000
1111110111000101
0
101100001
1110000000
10010101101
10011011011
1100011010
11110011
10110000100
1111111001101101
11110001110
100001000001
1111110010000010
1111110101010010
11010001001
10000111
1110100111
1111101000110111
101001110
10000011000
11000001
1111100010101011
1111111010111100
100011
1000001100
1111111011011001
1111110001111010
1111111011011111
11100101
1100011
1111111110101010
1011001111
1100010010
1000011010
1000011011
1010000010
1111111111100101
1111110110100000
10000100000
1010110101
1111011110010111
1101000000
11001011011
11010000
100000001
111110010011
10100111000
1011011011
1101100
10000001111
1101010100
10110000
100110
1111010101
1111111101111000
11100110
1000011001
11111000011
11100110101
1101010111
10000000101
1111111001000010
1111100101
1111111000111001
1111111110101111
1111110000100101
111110011
1010101010
1111101010011110
10111010111
100011100
1111111100101000
101001
10010011110
1111100111011001
1111010110101111
1111100101001110
1111101011110001
1111111111001110
1010000011
11110000011
11110011100
1110001111
11100111100
10001101101
10011001000
10001000101
10100010001
101100011001
100010101010
11010010110
10001100100
110110010000
11111011111
1100111000
1101011110
1111010111001011
101110011
10010010
1111111011010010
1111111100010100
1111101111101100
11001101101
1111100000100100
1111011111000110
1001111
1111111100100001
1111101001010110
1111101101110110
1111100100011101
100111001
10110000011
111000000
1111111000010011
1111111101010001
11110010111
100001100110
11101111000
100001110100
110010000001
101110001110
11100111101
1001111101011
110010011010
1110001110
1111111100010000
1111111010101100
1101010
100001001
100100001
1111111011100000
1111001010000001
1111100101101011
1111100000000111
1111111011111001
1111011110001001
1110111111000100
1110110001011110
1111110110111001
10100010010
1111011001001101
1111010101000100
10010001110
100011
1111111001100001
1110000000
111110010101
11111000110
1111110010010111
11010101
1111101011100010
1111110011010000
110
1111111100101100
10111101
1111111011110110
100110011
1111111100100011
1111111110100001
1111111111000001
10000010000
1111101101001010
100011010011
100011110010
101110011000
10010001110
1111101010000101
1000001000
111100111101
11011011011
1111100000011110
1111101110001010
10010010011
1010100010
1111110010000010
1111111001
11101100
11011011000
1110010110
11100001
10111101
1111111100011000
10010110
