1111010101000101
1110110110010000
1001000100011
1110111010001001
100100100
1111110001010001
1111100001001001
1111100010101011
101011100110
1111000100011011
1111010110100100
1111000000011000
101010010110
11001100000
11000111010
110011011011
1111010010001000
111010000001
11101101
1111111001100111
1110110000101001
10001001100
1111101001011
101011101010
1111011010000001
1111100110101011
1111101011110011
1111011100001100
1111010111110010
1010101111
