1110101001010111
1100010100
1000011111111
1001000110001
1111010010011
1111110100100110
1111110110001001
1111010110000100
1111010000
1111011111110111
1111000111001100
100010111111
101010100111
111100010000
1110111001101100
111110100
1111011010110110
1111011000011010
1001101100111
1111011101111011
1111010010000001
110100100110
11000001111
111100110
1110000010011011
1011000100010
10011010
1111111100101100
1111100111001111
1110111101111100
