1111011001001101
1010101111110
10101110000
111111000010
10001100000110
11001100101
100100011011
1111010000110001
1111110010100001
11110100000
1111110110110010
1111111101101111
110110110100
1111110110101110
1110101010101010
1111101000011000
1001101000101
1111000001100010
111010000100
1111110000110000
1111010010111001
1111000100001
110001110101
11011110011
1111010111000110
10011010000100
100111011101
1111000110010100
1111010110001110
1111100010011110
