1110001101011011
111000110010
1111110100111100
1110100010001000
1000010010100
10001000111
1111111110010100
10011011
10010011
10000000101
10000101101
1111011010101000
1111001000000000
1011001010010
111011100010
100000110100
1111001001111000
101000010011
1111110000001010
1111111010010000
10000000111110
1111101011010011
1110111010000111
1111100111001001
1111001010100010
1111011010100011
10001001111
1011010001011
11100100110
1010101111000
