1011100
111011111101
1111010011100100
1010110111110
1001010001100
10000001001001
1111011111100111
1000111111110
1011011101011
1111111011100011
1000001001010
1010010101010
1111101000
1111000111110010
1111001111100111
10000000110000
1111100010100000
1111010111111001
1101111111110011
1111101111110111
1101001101011
10011000111010
1011001111110
1110110011011011
1111010111000101
100101011
1110010001011101
1110110001
100110010001
1110000010010110
