1111110110101000
1111001110111101
1111000010000110
110010010011
1111001111011011
1111111011110100
11000010001
1111000001000101
1111111000111011
100010100110
1110100011101000
10000000
1111001111011001
1001100000000
111001111000
1010100001110
10100111011010
1111011111100000
10110010111000
1000010100001
1111001110000010
1111100110110100
1111011101001101
11101000100
1111000101110001
1111001011011
10000011100111
1110110111011001
1111000000110111
1111101111010000
