11101
1111111111110001
1111111111101111
1011
10110
1111111111111100
1111111111011111
1111111111101100
110010
0
10100
11011
1111111111111010
1011
10100
10011
111101
10001
1001010
10010
1111111111111000
1010100
110001
1111111111100100
1111111110111010
1011101
1111111111011000
1111111111110101
1111111111100111
1111111111101011
1111111111001110
1111111111110101
1111111111100100
1111111110110101
1111111111100111
1111111111101000
110101
1111111110100110
111001
1011001
11101001
1011111
1111111111111100
1111111111110001
1111111111101001
110000
1111111111011110
10000
1111111111110101
1111111111110001
11
1111111111100000
1010111
1110
1111111111010010
10110
1111111111110010
1111111111101100
10101
10110
1111111111101110
111100
1111111111010000
1111111111110110
1111111111110000
1111111111011110
1111111111101101
1111111111011011
100100
1111111110110001
1111111011001100
1111111010011011
1111111110000000
1111111101101111
1111111110111001
1111111110000101
1111111101101011
1111111111000011
1111111111100101
10010
1111111111011100
10001
1110
11
1011000
10111
1111111111111001
100010
10110
1111111110111110
1111111110000010
1111111110011111
1111111101001101
1111111010001011
1111111001001000
1111111000111011
1111111011101000
1111
1011100
1111111011111111
1000010011
1010
1111110111010010
1111110010010101
1111110100011000
1111110100110100
1111111100011001
1110011
1011000
1111111101110000
1111111111011100
1111111111110110
1111111111100001
10101
101000
11110
101
1111111110011100
1111111100000010
1111111011010011
1111111000101011
1111110100111001
1111101101101101
1111111000111111
1111111010010011
10111110
111000011
10111111
11111101
101100110
1111001
1111111110001110
1111110100110101
1111110001010010
1111111101000010
1111111110001001
1111110110111000
1111111010011110
1111111110001011
10011
10111
1111111111110011
10101
1110
1000001
1111111110000101
1111111100111010
1111111011101000
1111111100011100
1111110001011011
1111110101010001
1111111001010011
1111111110011111
1101011
10001101
1110100000
1100101001
1000010011
10011100110
10011000100
1111111111100110
1111111101111001
1111111010110011
1111111000001011
1111110001000010
1111111000101100
0
1111111110011000
1110
1111111111111010
1111111111101111
1111111111101000
1111111111100001
1111111110000000
1111111110010111
101010
1111110110100000
1111101101011111
1111111111110011
10010100
1111111110011010
111101
1111111101100110
1111111010000100
1111111110100000
1000111111
11000001
1010011
1111111111101000
10000011011
1100101110
101110
1111101111100001
1111110001111111
1111110110110100
1111111010111110
1111111111001110
1111111111100100
1111111111100101
101110
1111111111110010
1111111111011011
11101000
1001100
1111101001000011
1111111000011010
11100011
1011001101
11110
10101100
1111110011001011
1111111111001011
101001000
11101111101
11011000110
11100001011
1111111001111100
1111111001100100
10000111
110011111
1111111101011001
1111111000101010
1111110110001100
1111111111111101
1111111111001100
0
1111111111011100
1111111111010110
1111111011111010
1111111011000001
100110010
1111111010100001
1111111001100111
1111100101010110
1111101110010101
1111110001000001
100110011
1111111100011110
10010000101
1110011100
100001010011
1011101100
1010000011
10001100
10010101
1111110110000011
100101000
1111111111001110
1111110010111111
1111110001011111
1111110111111100
1111111111001110
111
1000110
1101
1111111110111111
1111111100011101
1111111000000100
1111111111101101
1111110110001010
1111101010011101
1111111011101110
1000011
1111110100111101
1111110111011110
111001100
1111110010100101
1111110111001000
1111111101111010
1111110100001011
101110100
10111000011
100000111001
1111111000010001
1111111100111111
1011100001
1111111000001110
1111110100000110
1111111011010101
1111111111110111
101
1111111111110110
1111111111110011
1111111101110110
1111111001100100
1111110111001111
1111101110100010
100101111
1111110111001110
1111111001111110
1111111010011100
1111111111011001
111111001
1111111001011010
1111111101110111
1100000110
10100
1111111111111011
10111010
1111111110100011
111101010
10010110100
11010010101
1011100100
1111111111101000
1111110100111010
1111111011100101
1111111111101100
1111111110111111
0
1111111111111010
1111111101110111
1111110110010010
1111101111111011
100100110
1011110001
111011111
1111111010000100
100011
1111111100001101
1111101100111011
1111111001111011
100100001
1111110011010101
1111010000010001
1111011110101000
1111110111000111
1111111010110100
1100111
10100011001
10000000110
1101001
1001001000
1111110111100011
1111111101000001
1111111111110010
101110
1010001
1111111110101011
1111111101001100
1111110110011100
1111110010100110
1110001010
101000111
1111111001010000
1111111111111001
110000
1111111011100101
1111111010000111
1101110101
1100000
1111100011000000
1111011001110100
1111101101111100
11010100
1101011
10010101
1111110110110110
10011001
10100100000
10001110000
1111111111001110
1111111101001011
1111111111110001
1111111111111100
0
11010
1111111100110010
101111100
1111111100100100
1101001100
101011000
1000000010
100110010
1100110001
1111110010011001
1111111011000010
100111111
1111110110111010
1111010111010111
1111011101100001
1111110100111000
1100011
1
1111111000100001
1111111011101100
100111001
10100010100
1010011011
111100000
1111111111110001
101101
11111
1111111111100111
1111111110011000
1111111011101010
110001010
11011000010
10100101001
10010110100
100110
1111111101100011
1111111001001111
1111111110010111
101101111
1000010101
1111110000000001
1111011110001100
1111010010001011
1111110001001100
1111110100101011
10110110
10000110101
1010010110
10010011111
1101001010
1011011110
111100000
1111111111001001
1111111111000001
11101
1111111111111001
1111111111110111
1111111000010001
1000010
11001110101
1011110111
11001000000
10011000
1111111101100010
101001001
1111110101011001
1111111010101110
1111110100110100
1111011011011001
1111101010000000
1111100101011101
1111110010111001
1111111101000010
1111111111000001
1111111101111010
1111111110110110
110011110
1011111001
111000101
11111100
1111111110110011
110
1111111111111001
1111111111111101
110
1111110111111001
11011100
10000010011
1010011010
10010000100
1001100110
1111110001
10010100
1111110001110110
1111100101111100
1111011011110001
1111110100100001
1111110010001100
1111110000101100
10010110
1111111011111101
1111111010110111
1111111110000010
1111111100111011
100111
1111110110011110
1111111110000100
1
1111111110111101
1110
100001
1111111110100100
1111111111101000
1111111000011101
1111110110111011
1111111100
1011011001
1001110011
1100110
10110110111
11100000111
1111110010011001
1111010111101111
1111100100110010
1111111111101110
1111111100100101
1111110110100001
1111110101010000
1111110110010110
10110110
1111111010001001
1111110100100010
1111111011110110
1111111001000101
1111111110010100
1111111010001001
1001
100111
101
1111111111101100
1111111111000101
1111111000001100
1111111101001011
101111010
101000101
1111110111101111
10001000111
11111010111
10111001111
1111100101010111
1111001110011111
1111101000011101
110000101
100001100
1111111010101001
1111110000010010
1111111101010000
1111110011010001
100001100
1111111100000011
111110101
1111111010111001
1111110100100011
1111110111101011
1111111111111100
1111111111000101
1111111111111100
1111
1101
1111111100011111
11001111
1111110111001011
101000010
1111111101001100
10001010011
11101010110
101111110
1111100001100000
1111100110110101
110001
10100010011
1111110110100100
10100001
1000111011
1111111110100010
1111101100000011
1010100
1110000111
10100111110
1111110000110110
1111101101110101
1111110101111110
1001100
1111111111111110
1000
1100010
1111111101110110
1111111111100011
110010101
1111111101101110
1111110100000101
11111110
1111111110110101
11101100
11010000110
1111110010101011
1101001
1010001100
1111101111110101
1111101101001011
1111110100001011
1111111100110011
1111111010001111
1111100111110001
1111110011111101
101010011
1111111010101000
1111100100111010
1111101100100000
1111111001000101
1000
1111111110111101
11101
110100
1111111111000110
11000100
111010110
1111111111011101
10110100
1010010011
11001111
1110110
10111111010
1110010000
1001010111
1111110110101001
1111101100000101
10111000
1111110101101010
1111110000101010
1111101101001100
1111100110101101
1111110001010010
1111111111000101
1111111010001111
1111101100110000
1111101111001111
1111111101001100
111010
1111111111100000
10001
100
111
1100
1111111110010011
1111111111111100
10000011000
110100110
1111111111101100
1110001100
10010011110
1111111110010001
10001110
1111111010100001
1111110100011011
1111111010100111
1111111001100110
11110010
11000101
1111111100111000
1111110111000001
1111111011101100
1111111101111011
1111110010100101
1111110110010011
1111111110110010
11000
1111111111001111
1111111111100010
1111111111111011
1111111111010111
1111111111000100
1111111001101010
1111111101000110
1001101001
10010111101
1100010101
10011010000
10011011100
1100000100
1111111100001001
110011
101010110
1001111011
111000000
110010010
1111110000111000
1111110001100001
1111101111001111
1111111001010101
1111111101110100
1111111010010111
1111111011010000
1111111110001000
1111111110110010
1111111111111111
11100
100010
0
1001100
1111111111010101
10010100
10100011
1111111011111111
1111111001101100
101111100
101010111
1111111100010010
110100011
100101100
1111111111011010
1111111101101000
1111110010101101
1111110101010110
1111110110000110
1111110110110100
1111110011001110
1111110110110110
1111111101000111
1111111110000000
1111111111111011
111111
10100
1111111111110111
1111111111111110
1111111111011101
1111111111011110
1111111111101001
110001
1111111101011111
1111111011010010
1111111010001100
1111110111001111
1111110011100100
1111101110100001
1111111000000000
1111110111011110
1111111101011010
1111110100010111
1111110000110100
1111110101100100
1111101111111010
1111110000011011
1111111001001010
1111111010100000
1111111100010010
1111111110000101
1111111111011010
1111111111100111
1111111111101100
1111111111101110
1111111111101111
1111111111110011
1000
1111111111010101
1111111111001100
111010
1111111110001001
1111111110000000
1111111111101010
1111111101000110
1111111100100110
1111111101011000
1111111110100010
1111111111010000
1111111010111110
1111111001101100
1111111100000101
1111111001111100
1111111000111010
1111111101000100
1111111111110110
1111111110100110
1111111110001001
1111111110110011
1110
100011
100000
1111111111001010
1111111111110010
1111111111100010
1111111111001000
1111111110111110
10
1111111111111100
1111111111111010
1111111111110011
1111111111001101
1110
1111111110110011
110011
1111111111101100
1101
1111111111111100
101
1111111111000000
1111111111010001
11000
1111111111001110
1001
100100
0
1111111110011110
101010
111011
1111111111011101
11011
1111111111101100
