1111111111110101
11100
1111111111000010
1111111111111111
1111111111101110
1111111111111101
1111111111001101
1111111111100101
1111111111101100
100000
11101
110011
100101
10001
1110
11110
1100
1111111111101110
1111111111101000
1111111111010011
10000
110
10
110
1111111111011111
1111111111011011
1111111110111001
100010
101111
1110
111000
1111111111110110
11111
1111111111111100
1111111111110111
1111111110111101
1
11001
100000
1111111111011010
1111111111011111
1111111111110111
10000111
10100101
1111111110011111
100
11101
1111111111101100
1001
1111111111100110
11101
11010
1111111111110011
1111111111110000
1000
11011
110101
1111111111101110
1
10110
10001
1111111111001010
10110
1111111111001110
101010
11
1111111110011010
1111111101010110
1111111110011001
1111111010010011
1111111011000111
110011
1111111111111110
1111111100100011
1111111110101101
110
10000
10111001
1011011
11010
100001
111
10111
1111111111100011
11001
101011
10110
1111111111101111
101001
10
1000
1
1001
1111111110011110
1111111100011001
1111111000010111
1111110111000011
1111101101110000
1111100000011011
1111101001010000
1111101010111010
1111110101010111
1111111000001110
100001101
10100001
1111111001101110
1111111011010110
1111111111011000
1001011
1111111111010010
11000
1000
1001100
1001
11010
1111111111100010
1111111111000011
10100
1111111111010111
10111
1111111101001100
1111110100110111
1111101100001011
1111100110010101
1111101010000000
1111111100000011
1111110011010000
1111111101101000
11100111
1111111111111000
1111110101110001
1111111111101100
10101001
1111110000001111
1111110110111100
101011110
1111111110111011
1111111100111001
1111111110010000
0
1111111111111011
1111111111111011
1111111111011111
1010001
1111111111101101
1101
1111111110110011
1111111101001111
1111110100011001
1111101110000101
1111011100001000
1111001110001110
1111010101010011
1111100111101101
1111110011000011
10111
1111110110100000
1111110011110000
1111111110100000
1111101100001111
1111101101101001
1111111101000110
111000
1001111101
1101010
1111111001110111
1111111111101000
1001
110100
1111111111110101
1111111111011101
11101100
1010100
1111111110010101
1111111011011111
1111111011001010
1111111000001110
1111110000000111
1111100001001101
1111011011000101
1111100101011111
1111101100001101
1101
1111100010011111
1111110010110011
111110001
11100
1111110010110111
10011000
1011
100000001
101101011
1111111011010011
1111110111101000
10011100
1000100
1011
1111111111011100
1111111111000000
1111111110111110
1001110
1111111111101110
1111111010011011
1111111110100011
1111111000011000
1111111001100000
1111011111001001
1111011000110000
1111101110100011
100101101
10011000010
1111111000110010
1111111001011000
1111111100101010
1111101111111011
1111111010110010
110101111
110000110
1001000000
11110110
1111101010000010
1111110011001010
110110000
1001011
111
1111111110111110
100000
1
10000010
1111111100001110
1111110100111100
1111110011011000
1111110010000110
1111110011010110
1111100111010110
1111011011111000
1111100001111100
1111101011100100
1000001
11000
1111100100111111
101001000
1111101110110110
1111110010100111
1111111011001110
1111111111111110
100110110
1111111010110111
1111110101110000
110100001
11111101
10010
10101
1111111111110110
1111111111100011
1000110
1101101
1111111110110000
1111111000000001
1111111000001010
1111110110011111
1111110101100001
1111110100100000
1111100001000010
1111011001111011
1111110111101101
10001
10001100001
100110011111
11111000111
10010000100
1111110111111111
1111110000001101
11010110
111001111
1111111000101110
1010100
1111111101110111
10110111
1001100
1111111111100000
0
1111111111110100
110010
10100000
1010100
1111111011000110
1111111000001110
1111110101000110
1111110010010111
1111110110001011
1111011111001010
1111011111111001
1111101111100100
10110001
100011110110
101000100010
11001001001
10000100000
1100010111
1111110100011001
110010100
110001100
1001101000
1011011111
1010001011
1111000
1011
1000
1111111111111111
1111111111100000
1111111111101110
10110010
1000101
1111111010101010
1111110010010001
1111101100001110
1111101111100111
1111100101101101
1111011100101000
1111100101000101
111001001
10001101111
11101010001
1010110111
1000100
1101000111
1111111101111110
1111111100111011
1111000100
111000110
10001001101
1010010101
11010010
1111111110100011
1010
1111111111001100
100100
1111111111111000
1111111111100111
11110111
1111111011110010
1111110111010000
1111110110101010
1111100101001110
1111101010001110
1111100001101100
1111011100110011
10011000
10100111010
100000011110
100100100
1111111001
1111111110101100
1111110011110110
1111100110101110
1111101101100101
1111111111001100
1111111100010101
1111111011110111
1111111100111100
0
1111111101110111
1111111111110011
11100
1111111111111111
10110
1
1110011
1111111101001111
1111111001000110
1111111010010010
1111110011000101
1111110101011011
1111110100111000
1111110111010001
11010100001
10100110111
1010000101
1111011111100100
1111111011110100
10011101011
1111100101111011
1111100101101100
1111101000000010
1111110010101101
1111110001111100
1111110110110111
1111111001000111
1111111100110100
1111111111010011
1111111111110101
1111111111100100
1111111111001110
10010
1100110
1111111111011101
1111111111000110
1111111000010010
1111111010110111
1111110111010011
100000101
1111111001010101
100110100
101111010
1111101101000100
110111110
1111110011011100
10000001101
1111111111011100
1111100110111011
1111101000101101
1111101110100100
1111110101101000
1111110100101110
1111111010101000
1111111010111100
1111111101000000
1111111101001000
10
1111111111110101
1101
1001001
1010100
10100
11110101
1111111010111011
110000100
1110001
10111110
1111111110001011
11010010
1111111101011000
1000000010
110000000
1111111001011101
1111111110
1111101011010111
1111100011011000
1111100001100010
1111101100101001
1111110010000001
1111110101010001
1111111001001110
1111111001101011
1111111010001111
1111111111010100
1111111111001101
1101
10111
100
10000011
101110
1001111111
1111111101111010
1111101110100111
1111110000101000
1111110101011001
1111101011111010
10100101000
1111111101111110
10111110010
1111111111110011
10110101
111101100
1111101111001100
1111110101010100
1111110010101011
1111110110011111
1111110111001010
1111111011000111
11100011
110100011
1010101
1111
1111111111101100
1111111111100110
1000
100
1111111111100111
110000
1000111110
1111111000100000
1111100000001110
1111101001000011
1111110001011101
1001101000
1111111011000111
1110010001
10000001110
1111110000001101
1111100111100000
1111110110011001
1111101100000001
1111111111001101
1111111101011011
1111111101010100
1111111110011000
10000000
110010110
1010100001
1000111011
1001000
1111111111111001
1111111111000011
11100
10010
1111111111101001
1111111111010010
1111111000111010
1111011111011001
1111011111011001
1111111011100000
111101
1100100000
1111111101111000
1110001111
10100010111
1111110011111100
1111100110000100
1111100001101010
1111110000011000
100010
1111111111010101
1111111010000100
1111111010111111
1111111011001110
1111111101010011
110011100
1001001100
101101
10111110
1111111111101010
1010011
1111111111111010
1111111110110000
1111111011010110
1111110001011100
1111101010111001
1111110111010011
10000100
10000100
1111110011110001
1011111111
1010111100
11010011001
1111110101011001
1111100010000111
1111101000011000
1111101110100110
1111111110101101
10111111
1111110110100010
1111110111110001
1111110110111110
1111111010100001
100001011
1010100001
1000011
1001111
1111111111001100
1111111111101001
1111111111010111
1111111100100001
110011100
1111111110101000
1000111010
1111111110101101
1011110111
1110111
11011011
111011010
1111001000
1111111001000101
1001001110
1111110101010011
1111110110111100
1111100111010000
1111111101011010
101011011
1111111101111101
1111110010111000
1111110110100001
1111111100111010
1000010111
110011000
1111
100111
100000
1111111111010001
1111111111011001
1111111100111000
1111111100011100
10100111
11001000
1111111000111101
10010110
1111111011011000
10000011001
1111101110001000
1111110101001111
1111110001100011
1111110110100010
1111110100101011
1111100101011110
1111100010100110
1111111001111110
1111111101000110
1001001100
11100
1011
11011010
1001000110
1000010
0
1111111111100001
1111111110111100
1111111111001011
1111111111010110
100
1111111100011101
1100001100
1001111000
1111111001100001
1111111111001100
1111111000011100
1111101111010001
1111100100111011
1111100001101110
1111111011100001
110100001
1111101011110000
1111111110000010
1111110101010101
1111111010100110
1111111110100001
1001010001
110011001
101111010
110111111
10100
11
1111111111100100
1111111111110111
1111111111111001
1111111111110101
110100
1111111101111101
1111111010111001
1010111110
1100000111
1111111111111001
10011011
11010
11011100
1111111011010011
10000001000
1111101101
1111111101101110
1111111100000100
11000001
11110010
1111111101001101
1111111001001011
101000001
1111111110010001
1100
1110010
101010
100101
1111111111111011
11100
1111111111110001
10011
10001
1111111111011010
1111111101101101
1111111111111011
1111111110100011
1111111101100001
100010011
1110100101
1111110001111100
1111101110101111
1111101111010010
1111111011000001
100001010
10011111
1111111111101101
110110000
1111111110011111
100111001
1111111110111001
1111
111100
10101
0
1111111111111001
11101
11
1101
1111111111101101
1111111111000011
1000
11100000
1111111110111111
1111110111000100
1111110100100011
111101101
111111001
1111100110110101
1111100110001001
1111101100110100
1111111000011000
1111111000011001
1111101111010001
1111111010111011
1011
1111111110000000
1111111110011000
1000
1111111111111111
10111
11001000
1
1111111111110100
11010
100011
1001010
1111111111010010
11100
0
1111111111100100
1111111111101010
1111111110100100
1111111101000110
1111111100000100
1111111100010001
1111110100010111
1111111001000110
1111110100101110
1111110010110101
1111111000101110
1111111101010100
10011
1111111111010111
1111111110100101
1111111110100110
100
111011
1111111111110110
11111
1111111111110110
1101
1111111111001010
10111
110010
110011
10010
11010
10001
0
100001
1
111010
1111111111100111
101000
1111111111101100
100000
110010
1111111111000110
1111111111111111
1011
1111111111111101
1111111110011011
1110
10101
10101
1111111110110001
1111111111111110
1111111111111100
1111111111110001
10011
1111111111100111
