1111111111101001
10101
11110
1111111111001110
1111111111110110
1111111110110110
100010
1111111111101010
100000
1111111111000101
1111111111010110
1111111111111101
11111
1111111111110000
1111111111111001
10100
11111
1111111111110101
1111111111111101
111110
1111111111110100
1111111111111011
1101
1111111111111011
1101
110011
11000
1111111111010001
1001
1111111111100001
1111111111011001
1111111111111001
100
1111111111000011
1111111101110100
1111111011001011
1111111100010001
1111111111000001
1111111111001000
1111111110011010
1111111101101000
1111111111000100
1111111111000101
1111111110111110
1111111111111010
1111111111101010
1111111111110001
1111111111011011
1111111111001010
101001
1111111110011000
1111111111000010
101011
110001
100011
1111111111101100
10
1111111111101001
1111111111101011
10100
1111111111010110
1111111111110001
1111111110010101
1111111001111101
1111111000001000
1111111010100011
1111110111010010
1111110101100101
1111110110011111
1111110110010111
1111110110000010
1111110111011011
1111111010101011
1111111101101011
1011
1111111111100111
1111111111011100
1111111110110110
1111111101110110
1111111110100000
1111111111010111
1111111111000110
1111111111111110
1110
1111111111000101
1111111111100110
1111111111010111
1111111110111010
10110
110110
1111111101000010
1111111111100010
1111111110110000
1111110000101000
1111111001001100
1111111101110011
1111111111000011
110101000
10001110000
111010110
1000101010
11000101000
11000000001
110111110
1000100000
10110100
1000011
111011
0
110000
10100
1111111111011110
10110
1100
10000
11110
1111111111111010
100011
1100
11011100
1101101
1111111000101001
111010
100011101
1001011101
1000101011
1001000010
1010101010
100
100001101
101100001
1111111101111001
1000110
101001110
1011101101
1110000000
1000011100
10110
11101
1111111111001010
1111111111010111
1111111111010111
10010
1010111
1111111110110010
1111111010111111
1111111111010001
10010011
1111110000011000
1111110100000111
10010001
1110111
10000101101
10001101111
11000010
100100000
1111111111110110
11100111
1011000100
110100001
1010101111
1101011000
10000000111
10000011100
1001101001
1011111
1011101
1111111111010110
1111111111011101
100010
10111101
101010011
1000000
1111111100001110
1111111000010101
1111111011101100
1111111011010011
1001010
1010101
1111110101110101
1010110
1001000101
11010
11110001
100110110
1111110011000010
1110000110
1000110000
1111001111
1001010100
10100101000
10010001100
1010000101
100100111
1010010
1111111111111111
1111111111110000
1111111111000001
1111111111010000
10001011
1111111111010000
10000100
1111111010111111
1111111001100011
10011000
1111111001100010
1111110011110000
1111110011010111
101101100
1011011110
10001010010
10001001010
1101100010
1010000101
1111110111100101
1001010010
1111111001000110
1111110101011011
100111011
1010001100
1011110000
111101011
1111000
10001
1111111111010100
1111111111000010
1111111101111010
1111111110001001
1111111010011101
10001
1111101011111000
1111100011110010
1111100101100101
1111110010110001
1111100111011100
1111111001010000
1000010111
1011101001
101111011
1111101101000001
1111111110001011
1010010111
1001110000
1111110111101111
1111110011001111
101101
101011
100001000
1010001010
1001010111
1111100
10010
1111111111101100
1111111110111010
1111111101011111
1111111010000001
1111110111110010
1111110110010000
1111111011000100
1111110001011010
1111101011010111
1111111101111110
1111110011100011
1010101111
100101000
1111111100111001
1111101000010011
1111110100001110
1010000100
1111111010100010
10110101001
1000111100
1000110000
1101100001
1001010000
101000100
10100101
101001101
100000
1111111111000101
10010
100
1111111101000101
101000111
1111111110010110
1111110100111111
1111111110001110
11010000
1111111011100101
1111110001010001
1111100111011001
1111110110101111
1111111101110101
1111101010111111
1100001111
110000101
1010101101
11000000
10101110100
101100101
1101001101
1111110111001110
100101010
1111111111100010
1111110011011110
1010
101100
1111111111111101
1111111111111010
1
1111111111100011
110000010
1010011010
1111111110010000
111000011
1111110100111011
1111111110000101
1111101011111010
1111110110011111
1111110000100000
1010001111
10111001100
10000010111
1001110111
1111111111111010
110100110
1111011
10001
1111111000000010
101000100
101110001
1111111111101011
1111110100001101
1111111100100001
1100101
11010
1111111111110001
100000
1111111111101111
11011100
1110011101
11011000
1011111111
1111110011010000
1111111001000100
10000000
10010001110
1111111110111000
11110100011
110011000010
10001011011
110110010
1101001000
1101111111
1110110011
1101010011
10101001011
1100111100
11100010111
10001011010
1111110100101001
1111110111000111
1111111111100001
1111111111010100
110011
11
1111111111011110
11111101
10101111101
11110010
111001011
1011110110
10100000101
10010110101
100000001111
11101011011
101100111100
101001100011
10011001100
10011110011
1010100100
1001011110
11010000001
10110111010
100010100001
1100000010
10101000000
1100000111
1111110001011110
1111110111001011
1111111101000100
1111111110100010
1110
101000
1111111111010101
100100100
10101110001
1100011001
11101010001
100000111000
11001011110
100111001000
10110000010
10001010000
10011111110
100011001000
10111010010
110010001
110110010
10001101100
1111110111000000
11001100
10010101001
11
1111111110111011
1111111111101110
1111111010011101
1111111011011010
1111111100101000
1000100
1111111111101001
101110
111010
11011111
10100000100
10111110000
11100111100
100111111010
100001001011
10000110000
1011001000
110101
1111101000
1111111100001011
1111111011101111
1111111000010000
1100111100
100101001
1111111111101011
11000111
1111110110010111
1111110011000000
1111111111110001
101100101
1111111010000111
1111111011110100
1111111110000011
1111111110101110
1111111111111011
1111111111010111
1110110
100111011
10110010010
11011011101
1011111101
10100011000
1100011111
1111111010110010
110101
1000011001
11101001
1111110111001001
1111101110100000
1111111101111111
1111011101100100
1111110100001010
10000
1111111110000101
1111111111101100
1111110101011110
1010111101
1000001011
1111111011111101
1111111011100010
1111111101001010
1111111111100011
1111111111100110
1111111111000111
101001
100110100
1000111111
1010111001
100010100
1011101011
11000000
1111111010111000
1010000011
11100101111
100010011
1111101101111001
1111101000101011
1111110010100100
1111100001000000
1111111000001101
1111111000110011
1111110100100111
1111111001100010
111011001
1001010000
1111110110010100
1111101110101110
1111110001111100
1111111100000011
1111111111101011
1111111111010100
1111111111011100
1011001
11111110
100001001
1111111110010000
1
1111110111011101
1111111011111110
111111011
10101100101
1101101011
1111101110001100
1111011000111111
1111100000010010
1111100100101111
1111111001100100
1111111000111001
1111110100100000
1111111011010110
1100000010
1011001110
10010100
1111110111110001
1111110000001001
1111110100001111
1111111101001111
1111111111011101
111
101110
100101
1111111101110001
1111111011011011
1101001100
1111111010100101
10111001
1110001110
1011100111
10100000011
1111101111101100
1111011111100101
1111001101100111
1111101010101010
1111101000110001
1111111010101001
1111111100010101
1111111011010001
110010010
1111111111000000
1111111111111001
1111111111010010
1111110111001010
1111110100101100
1111111010011001
1111111110011100
1111111111101101
1100
100101
1111111011101101
1111110000000100
1111110110001101
1000010011
1111110010101001
1111111011110000
1110010
101111111
1111111101000010
1111101011110110
1111100010100100
1111100011011100
1111101100100111
1111110010001011
100001111
1001101001
1111111110110100
10001110010
111110100
1111111111011110
10100011
1111111101110100
1111111001000111
1111111010111110
1111111110010110
101011
1111111111101000
1111111110100111
1111110111110001
1111110010001111
1111110111111111
1111111111001101
110
10101000100
1100010000
1111111101010110
1111100010010111
1111110011001001
1111101101011110
1111101010000010
1111110001100111
1111101101011101
1111110110001111
1111111101101011
100100
11000101
100000011
1111111011011001
101001001
1111111111000010
1111111001001001
1111111010001010
1111111111111111
1111111111111001
10001
110
1111111010011011
1111111000101100
1111110011110110
1111111011101000
1010110111
1010010101
1111111101111001
1111110010100010
1111110001001010
1111001011
1011011111
1001011010
1111111011110011
1111111011110101
1101110111
1111110101100011
1111111111011011
1111111100110100
1111110011110101
110000011
1100111101
1001110100
1111111111110110
1111111101011010
10111
1111111111011000
11101
101011
1100111
1000110110
110111101
1010011011
1001101100
1110110000
110010011
1111100111101000
1111111011100011
1000010010
1111111001011110
1111110001110100
1111111000001110
1111110100100100
1111111010000110
1111111101010100
100111101
1111111011000000
1100000
1000011101
10101000
101001
1000000
1111111110100101
10111
101
1111111111110110
1111111111111011
10110101
110011011
100111101
101000011
1101001111
11101000000
1010111000
110011100
1000001111
10001001110
101110101
1101101
1111110100100001
1111111111110011
101011011
1111101110101000
1111111000100000
1111111100001100
101111111
1000000110
11001000
100110010
1111111110110010
1111111110010111
1111111111011011
1111111111010010
1111111111101010
11110
101101
1111111111110000
1111111101000011
110100100
1100000000
10000011000
1110110111
1001000000
10110100010
10101111010
1000110001
101011111
1111110110000111
1111110100111100
1111111010011100
1111110110110101
1111111110010010
1011011111
1001110110
100111100
1001010
1110011
110011
1111111111101010
100
100111
1111111111101100
1111111111111000
10111
1111111111110001
1111111111100000
100100110
11110110
1111111111111010
1111111101101010
1111111101010101
10001001100
10011110100
111111010
101111101
100001100
110110100
110001101
100101101
1001011
1111111100011111
110000
10011011
110110
1111111111110110
1111111111101011
1001011
0
1011
1111
11101
11000
1111111111110001
1111
1111111110011100
111000
1111111111100101
1111111111000000
1111111111000100
1111111100010111
1111111111110010
1011000
1111111110111110
1111111111010000
1111111111000100
1111111110001100
1111111111100111
10000
1111111110110001
1111111111110010
1111111111011111
1100100
1111111111110011
1111111111011000
11001
101011
111
