11100
1111111111111011
100101
1111111111010100
1111111111011011
10011
1111111111100010
1000
1111111111010110
1100001
100111
11000
101111
1111111111110100
1111111111100000
11111
110
1100
110011
1011
1111111111111101
1111111111111001
10110
1111111111101001
1111111111110111
111110
111100
1111111111011001
1101
100001
1101
1001100
1111111111111000
1111111111100001
1
10111
1111111111110001
1111111111001010
1111111111100010
11100
1111111110111100
1111111111101000
11111
100000
1111111111101001
1111111111110010
1111111111101010
1111111111101111
1111111111100011
1111111111011111
10101
110010
1111111111101100
1111111111111000
1111111111101100
1111111110111110
10100
10010
1001011
110011
1111111111011100
1111111111101010
11010
110
100100
11000111
10101101
11000011
1111111111101101
1010011
11001010
1111111101110010
1111111001111101
1111111011011110
1111111100000110
1111111010100110
1111111111110100
1111111111000011
1111111110100110
1111111111101001
1100
10
100110
10001
1111111111010001
1100
1111111111011001
10100
1101
1001011
1101100
10111011
1111111111100110
101110000
1111111111010011
1111111101100000
1111111001011011
1111110110110011
1111101100010011
1111110000111010
1111111111010000
1111111111011100
1111110001110101
1111101111010100
1111101001011110
1111111100010110
110111
1111111110111110
1111111101100111
1111111111100110
1111111111100011
1111111111101100
1111111111101101
110100
1111111111110100
1111111111110100
1111111111100010
101100
10110111
11000010
110111100
10000001010
110001001
101110001
1111111010000010
1111110101011100
1111111110110000
1111111011000000
10011000
1111111011110110
1111100110001111
1111100110101100
1111101101101000
1111101100111101
1111110000001010
1111110100100111
1111110101100101
1111111100010010
1111111111111110
1111111111110101
100101
100100
1111111111011100
1111111111001000
11000
1111111101010001
1110000
1001111
10001100001
1001111111
1111101
110010000
111011001
110001101
110111011
1100000010
10100010101
10001101000
1100010001
1111111011111110
1111111111111111
1111111110001110
1111111011010110
1111101111110101
1111110110101111
1100011
1111111111010110
100011
101011
100000
100000
1111111011111000
1111111010100000
1111110101011011
1111111011011011
111111110
11111011
111011011
1110011111
10100001100
10011100001
1111110111111000
11000010101
11111011110
1100001100
10100111100
1010111100
1111111101000111
1111111010011100
1111111100011111
1111111100100111
1111101011001110
1111110100101101
111011110
1001
1001101
1111111111011101
1111111111010011
1111111111100010
1111111100010001
1000000
1111111100001111
101100000
100001111
10011111110
1111110011101101
1111111001011101
10100000110
10011000010
1010000100
10111100
1111111011110101
110001010
1111110001010101
1111101101101100
1111100101001001
1111110101101000
1111101110
1111111111100000
1111101100001111
1111111011100000
101110110
1111111100010111
111110
1111111111110000
1111111111010110
1111111110111001
1111111100110010
1111111011100000
1111111111010101
111011101
11000000
11011
1111110010110001
1011001011
101000001110
1011010
1111111101001110
1111110100101111
1111011111110001
1111111001010001
100011110
1111101111100010
10000101010
10000110
11110010
11001011
1010010100
1111111110011010
1111111011101011
1010010
100101
1110
1111111110111111
1111111101101000
1111111010000110
1111111011010001
1110000100
101111
1111111101011111
1111110110001010
10
11010000111
1110011100
1111110111011100
11110101
10111010
11101110
11111100
1111110110111000
1001001111
1010111010
1111110011011000
1111110111110000
110101010
11100110
10111100
111000100
110010111
11010
100011
1111111110101100
1111111100011011
1111110101110111
1111111001000111
1111010111
10100100000
11111011
1111111100110101
1111111100010010
1011110110
1111111110001100
1100110
10111010100
11001011000
1111111101100101
1111111011110011
1111110101111111
111101111
110
1111101110101010
1111111100011100
1111110100110101
1011100001
1000110011
11110011
11010101
1010101
111
100011
1111111100000001
1111110111101100
1111111100110010
10101
10100001100
11101101
10100000
1111111010011011
1111111001100111
1111111101111000
10000011010
11111010111
10100001101
1111111111011001
1111110111111100
1111110111000100
1111110001110110
1111110111011010
1010111
1111111100000010
1001111
1011000011
1100110000
111111000
1111100
1111111111110100
10100
1001
1111111100001110
1111111111011111
1011010110
1011000101
11100001000
1101001111
1111111001110001
1000011100
1111110111110111
1111100100011100
1111111000101101
1111111010001110
1111111011110011
1111101011010100
1111100111100100
110001111
1111100110010001
1011000111
111010101
10010100000
1111111011011110
1000101110
1011001101
1001101011
101010101
1111111111110111
1111111111111101
1111111111010010
1111111101100001
10101
111000110
111000010
10001010001
100000101
1111100010001110
110101
1111110111001000
1111100001100111
1111101110110101
1111111011101111
1111111110011101
1111101000011011
1111100110101010
1111111001110111
1111101100001100
100101101
1011011010
1010010011
10011010001
11111000101
11010011111
1011100100
11100001
1000100
1111111111011010
100
1111111110010001
1111111111010110
1001100110
110
11011001010
101100010
1111011000110100
1111101001100000
1111111111011001
1111101110110001
1111101000110111
1100001111
1111110111000000
1111111000001000
1111001011
1010100000
10110001
1111111011011100
1111111111011101
1101011111
10011111111
11001101111
10110110001
1011010010
101011100
11110
110
0
1111111111010000
100100010
100011101
1100010011
10000000101
1111110110001001
1111110000000101
1111111110100111
10101101
1111101100111100
1111101100101111
101000011
1111110101010000
1111110110111101
1111111010111011
1111111111111100
1111111101011100
1111111100001100
1111101001111111
1111111110100101
100010110
111001011
10111111100
10100000001
11100010
1100001
110100
0
1111111111011011
11011101
110100001
10000101001
1101000101
1111111100110010
1111011011011010
1111111101100001
1001010001
1111110011010111
1111101000111100
1111110000010000
11000110
1111111001011110
1111111100100101
1001000111
1111110101000000
1111100110010000
1111100110100010
1101101110
11100111000
10001001110
10100101000
10110110100
111010111
11100
1111111111010010
1111111111110101
1111111111101001
11111111
1001111010
1011011111
1110001110
111100
1111111001010010
10001001000
1010101111
1111111110010101
110011100
10110
1111110101101000
1111111100010011
1111110110110001
1111111101111100
1111100001010010
1111101111011000
1111111101010000
1110010010
1101000110
1011011000
1011000101
10110111000
100001101
1000110
10100
1111111111100111
1111111101110011
101100111
1110011000
1000001110
11010101010
10111011111
1011000
1111111001101000
11001001
1111110000100010
1111101110010110
1111101000101111
1111111111011000
1111111001011011
1111011101000000
1111110110100001
1111110001110001
1111110011011000
100010
1110100010
10101100000
10001011010
10010101100
10010000100
11001
11100
1111111111110000
1111111111011001
1111111111011110
1111111110001101
10011110
1111111101001100
1101101000
1001110000
100110
1111111110011110
1011001010
1001010010
1111101100000110
1111111001101111
1111110101100011
1111110000100100
1111101011101110
1111110010001000
1111101000010101
1111110111111010
110110011
10110001110
100101010011
11011110110
10010111110
101010011
1000111
11000
1111111111111111
10010
11000110
101110000
101100011
11001
10000010000
1010110101
10100010010
1001100110
10100111100
1011010001
1111111010011101
1111101001100010
1111011101110000
1111101100010001
1111110011000001
1111110000010100
1111101010011011
1111111111000010
1111000100
100011000111
100001110000
100010101000
1100101001
100010110
1111111111100101
1111111111010010
10001
1111111111111100
111000111
100111111
111101100
1111111101000101
1111111111110011
1111111110011011
11100001
1110011101
1001000100
1111111111111000
1111110101001010
1001101110
1111110010110001
1111101110100010
1111111111111010
1111111011101100
1111111100101101
1111111001111100
1010100100
100000110110
10100110110
10100101111
1001100000
111010
1111111111100111
1111111111101110
110010
1111111111101011
101101011
111011010
1010100000
111101110
110001001
11001001
1111110110
10100001111
10010110
11111011
1000011100
101100010
1111111101000101
1111101111100011
1111110100001110
1111110110010001
110011011
1001010
11011000101
10101001001
1010100101
1011101110
101010100
1100110
1111111111100011
10110
1111111111101111
1111111111111010
111010
1111111110111111
100100
10000
11100010
1111110100011101
100000
1111110100000101
1111101000010010
1111101110111100
110000110
1111111001011100
1111111011000000
11011101
10100011110
110101011
1111111001011001
1110010100
10011110101
10000111111
10000110101
1011000001
101001100
10010111
110101
1100
10
1111111111101110
1
1111111110010111
1111111100100000
1111111100101110
1111111100110001
1111110111000101
1111111000001010
1111101111000100
1111101110100000
1111110101000010
1111101101001011
1111100100001010
1111110001111100
10101
1111110100011100
1111110101100001
10000011000
10010100011
1011010111
1111001110
1000110100
11100000
11101110
111100
1111111111110101
1111111111011010
10110
1111111111101010
1111111111101001
1111111111110100
10
11101001
101001101
1111111011100001
1111101001110001
1111010101010001
1111100101101001
1111101001011100
1111101001110101
1111100111100111
1111110110001000
1111111101111011
1111111110010101
1010111110
1001000101
10011111101
1100110011
11100000
1111111111011101
1111111101010001
1111111111011100
1000
0
11001
0
1111111111011001
1111111111011111
11110
1000101
110001101
11100101
1111111111011001
10001
1111111011010111
101110
1111111100110000
1111111101111110
1111111100001000
1111111101100010
1111111101000110
1111111111000010
10111010
110101010
101101110
100111111
11101101
1010110
1111111111110101
0
10100
110011
1111111111111111
110001
1111111111101110
10110
1001
101001
100
110100
11001101
11011110
1111111111000100
1111111111100001
1111111110100111
1111111111011001
1111111110000000
1111111101011100
1100000
111001
10
10001011
100001
1111111111101101
1110
1100
1000000
1101
11001
1111111111110111
111
