1111111111111011
1111111111111110
1111111111101000
1111111111111010
1111111111111100
1111111111100010
1111111111101110
1111111110111001
1010
1111111111100000
111000
1111111111100000
1111111111101110
1111111111111100
1111111111000001
11110
10111
10011
110
111010
1001
1111111111101001
1111111111101001
1111111111111100
10110
111111
1111111111010000
110
10110
1001010
1111111111111100
1111111111011010
101110
101111
1111111111101111
1111111111001111
1111111111011000
1111111111111001
1111111111010001
1111111111010110
1111111111001000
1111111111111000
1111111111100000
1000
111111
100110
1111111111111011
1111111111110100
100100
101110
10100
100010
1111111111111000
1111111111001110
1111111111111011
1111111111101011
1111111111110001
1111111111110010
101
1011
10111
1111111111000111
1111111110110011
0
110011
10100100
1111111111111111
1111111100100100
1111111011000100
1111111001100101
1111111011000100
1111111001111000
1111111010001001
1111111111100000
1111111111010001
1111111111111011
1111111111110010
1111111111000111
111101
100000
1111111111110111
110110
1010
10110
1111111111101101
1111111111110000
1111
10110
1111111111100011
1111111111111001
1111111110011010
1111111110100101
101000111
11010110
1111111101111100
1111111010101011
1111110110010011
1111111001110101
1111110010000000
1111110000100001
1111110100100011
1111110111011100
1111110010111110
1111111000101001
1111111011011001
1111111011110110
1111111100010000
1111111111011111
10101
1001110
101001
1111111111110011
10001
1111111111110011
1111111111100011
101001
110000
1111111111101000
11101010
111011111
111100100
100100001
11101111
1111111110000100
1111110001110101
1111011010100000
1111010100110100
1111011100000000
1111011010111001
1111100111110010
1111101100011000
1111100110100011
1111110001011110
1111111101000001
1111111110000101
1111111110110001
1101100
111001
0
1111111111111111
111000
10111
10011
10001
10001010
1111111111010111
110000
10111
1111111110101100
1111111010000010
10110010011
1001110011
1111110001101011
1111010110010110
1111010100010010
1111001010000000
1111010000011111
1111011111011011
1111111011101010
1110000
1000010101
101000000
1111010
1111111011100110
1111111110001001
100100
1111111111011000
1111111111111100
1111111111110110
1111111111100011
11101
1100001
1100
1111111001100001
101001001
111011010
1111100
10110111011
10111111010
1000000001
1111110110111010
111111110
1001100110
11100
1010010101
100000010110
1110110010
1111111001001111
1010001111
1101110
1111110001010111
1111101111010111
1111111111010110
1111000
100
10001
1111111111011001
1111111111010100
1001110
11001011
110101000
1111111110011001
110101111
10100011
11001010010
1010110111
1011010100
1010101001
11101001101
11100000001
101111101001
111010010110
11110111001
11100011011
10010101111
101100100
1111111101001111
1111110010100101
1111101001001010
1111100110100111
1111111000111111
1111111000011000
1111111101100110
1111111111111010
1111111111011111
1111111111101100
101
100100111
1100011010
1111111101110000
1111111000010100
100100111
10110000011
10010011010
10100100101
10101000111
110110001101
110100010111
110111000010
11001100111
11100101100
10101110
101111100
1111111101011010
1111110011100101
1111110111000001
1111111010000111
1111110001000110
1111110101011100
1111110101010000
1111111101111110
110111
11100
0
1110011
1001100010
1111110010
1111111001110110
1100110001
1101011000
1011101000
100001011001
110000110010
100100100100
101000000000
100010100110
101000100011
1111110100100100
1111100011100100
1111100010001111
1111101110100110
1111101011011011
1111110000111101
1111110010001011
1111110111010110
1111111100111101
1111111001100011
1111111100111010
1111111111111110
10000011
1111111111010011
1111111111110010
10010011
1100010111
1111111101101000
1111111011111111
10001001110
101000000
10000010101
1101010111
1110111001
100001
1111101100011110
101101111
101111000
1111110000110010
1111111111001100
1111101000110010
1111111101000110
1111110100011000
1111110100000011
1111110110000110
1111101110100010
1111111101101001
1111111101100010
1111111111001101
1001101
1001111
10000
11010
111000
11011100
1111111000100110
1111111101010001
1010110111
1111111010011011
11111100
0
1111101001001100
1111111000111101
1111110001010111
1111110011001001
1111110011001100
1000010101
1011010100
10100101010
10011001001
100111011
1111111100000111
1111101111011001
1111110001111110
1111111100001110
110011111
1111111111000011
10001000
101111
1111111111110001
110001
1111111111110001
1111111111110010
1111111011111100
1111111100000111
11010100
101011
1111111100110010
101001001
1111101001010001
1111100001001110
1111011111101011
1111101100011100
1111110011100001
1011000000
1111111110011110
11000111010
10010100111
1111111000101100
1111110111010001
1111111010010100
1111110011001101
1010011011
1111111110101010
10001011
11010000
100011
1111111111111001
1111111111000101
1111111111010100
1111111111001001
1111110110110001
1111101010001001
1111110000110000
1111111110110011
1111110011010011
1111110100011010
1111111001110101
110000110
1111101010110110
1111110111111100
100110001
1111111100000010
1111110000000110
1001010010
1001000111
1111101000100011
1111110111000101
1111111100111010
1111111111011001
11010110
100010001
110010111
10000000
1111111111110011
1111111111101100
1001
10010
1111111010101011
1111101101101011
1111100001111111
1111110001111001
1111110100111101
1111101001100111
1111101111000011
1111100110001100
1111110111111000
1111111100111001
1001110
1111111010000010
1010010111
1111111100011000
1111111000011010
100111101
1111111010101110
1001110
1011001010
1111110101111010
111010101
1101101001
101110111
1101101
1111111111111101
1111111111111001
101
1111111101101010
1111111000111110
1111101111101001
1111111001001111
1001000
1111111110100011
11110
1111100100100101
1111111000011010
1111111111110011
1111111010111110
1111101110111110
1111110001101011
1111111100101110
1111110110100011
11001
1111110111000011
11101001
1010010000
101100100
1111110110000000
1000001110
10000001111
1010
111110
100110
1100
1111111111100010
1111111111111000
1111111111011001
1111111001011100
1111111100001011
111101
110100000
1001110
1111101001011000
1010011110
10010011011
1111111111001101
11100
1111100110111100
1111101111010111
1111101001001110
1111111011010111
1111111011100101
1111110011110101
1000000101
10100010110
10000110100
1111010101
10001000111
101010000
11110010
11010
1101
0
0
100110001
1111111010100010
1111111011110000
1111110100011111
1111110101111011
1111101110100010
1111111000001110
11011
110001111
10011101
1111101110001101
1111100100111110
1111111100111111
1111100001000011
1111111010110011
1111110011011100
1010010110
11111101000
1110000010
1010011100
111011110
1000000010
100101000
10011001
10001
10100
1000
1000110
101100000
10011110
1111111111100001
101010010
1111111101110001
1111111101000110
1111111000011010
10101011011
10111000010
11
1111101001110000
1111101000100111
1111110111001100
1111111000010110
11001010
1001101
10100111001
10010110111
100100110
11000010101
1111111101010111
1111111101100011
10110
11000
1111111111000101
1111111111010000
1111111111011000
1111111111110111
1001101
1111111111101001
11100
1111111111110001
100100011
100001110
1111110100001001
1111111000011111
1111110101110001
1111111111010010
1111100000010110
1111110010111110
1111110111000000
10010110
101000000
1111111101101001
11110010010
1011001011
1001101011
10101101011
1111110100110011
1111111101100111
1111111110101010
110000
100000
1111111111101011
1
1111111111000010
11010011
10001011
11000010
1111111011110010
1000110
1111111110111101
1111101110110010
1111110011000111
1111110000011010
1001011
1111110010010111
1111110010100011
1111111011111011
11000011
1111110100100101
1111101111001100
10000101100
1000110100
1111111001100010
1111111110101101
1111110110111000
1111111111110111
1111111110010010
1111111111111111
1011101
1111111111110001
1111111111110001
11001
11011000
100001110
1111111111001001
10011
11101100
1111100101101001
1111100010100111
1111101101000101
1111110111010101
1001110011
1111110100010110
1111101010000010
101011100
10100111
1111100111011010
1111111000011100
1111101100
100010
1111101111000110
1111110100100111
111010
1011010
1111111100111000
101000
1011
1111111111000110
1111111111101010
1111111111111111
10011110
1001100011
110001011
1111111111111111
1111111001110010
1111110010010100
1111110100001100
1111110001000011
1111101111110101
1100110100
1111111111010101
1111111111011010
1001101101
1010110
1111110010000101
10001000
1111111010110010
1111111001110111
1111101100110110
1111111110011110
1010101111
101110101
1111111110101101
1111111111011110
1111111111101100
1111111111011111
1010001
111101
1011101
1010101110
1010111010
110100001
1111111101110110
1111111101000101
1111111001110110
1001001
10111111001
100011010
10110001110
1011010000
1000011101
111010
1111110011011100
1001110110
1111110101110100
1111101111101001
1111101111100000
111110010
1010101101
1001111111
1111111111011111
1111111111010101
1001110
1111111111110111
1111111110110001
1101
10011110
1010011000
1001110101
101001101
101100101
10100110
1111100
10010010110
11100011
1010010100
10010111001
1111111100111101
101000010
1111111110000110
1111111001000001
1110010
1111110110100000
1111111010000111
1111110101010010
101101000
110111101
0
1111111111101011
1011
1111111111110100
1111111110110110
1111111111110000
100001
1
11000000
101110111
100100101
1001001010
10100010101
1111100000
110001010
1010
1101
110111
1111111110111101
1111111011100101
1101100101
10111111000
1001100100
10001100110
1111111101101101
1111111111001000
1111111100011111
1111111110111011
1011111
1010111
10
10000
1111111111111000
1
11111
1111111111100000
1111111111000100
10
1010001
10001101
100100100
101111001
10000000011
1110100111
1110111000
10010110000
100000011110
10101101011
10010011000
10011001111
1100101100
1001100011
111000001
1010010011
100110100
1000101
1011
1111111111010001
1
1111111111100000
111100
1111111111100111
100111
111
11011
1111111111101011
101011
1111
1111111111100110
1111111111111000
1111111111000111
110
10011010
1010010
100000110
11011011
1101010
111000
11001010
11000111
1111111111110110
1001100
1000110
100001
1111111111101100
11010
101000
100001
