1111111110111101
1111111111101100
1100
1111111111110010
1111111111111001
1111111111001001
0
110
1111111111111001
1111111111111101
1111111111110000
1111111111110010
1111111111011111
101101
11111
10010
1111111111111010
10010
1111111111110000
1111111111010011
1111111111010000
11
1111111111101001
1111111111100011
10010
110100
1111111111101110
100000
1111111111011011
1111111111011110
1111111111000000
10011
1111111111110011
110
1001
110101
111110
1111111111100110
10000
1111111111111010
10000
1111111111111100
1111111111100011
110
10111010
110011
1111111110011001
1111111111101000
100
101111
11001
11000
1011
1111111111101101
1111111111101110
1111111111010110
111111
1111111111110010
1111111111111010
11010
1111111111101111
1111111111110010
101101
10110011
11011110
100100001
111100110
1000010001
111100011
100
110110000
1111111110111111
11101110
1110101
1111111001001100
1111111100101010
10101011
10011101
1100111
11111
101010
1111111111101100
1111111111110000
1111111111111101
1111111111111010
1111111111100001
1111111111101001
0
10011
1111111111101001
111111
1011111
111000011
1011110101
1101111101
10101010001
1110001101
111101000
10001001000
1011011100
10000010111
10011110
1111111000101111
1011011110
101010011
1010011
1111111100110011
1011010
110010010
1111111101001110
1111111111110010
10111
1111111111111100
100011
1101
1111111111111101
10100
1111111010101010
1111111001111011
1111111001001000
1111111010110011
10011
1011010111
1111111111001110
1111101110101111
100001010
1111111110010110
1111111011010101
101100111
10001101000
1111110100001100
1111110010010011
1111110000101110
1111110100010000
110111101
1111111111111100
1111111011000010
1111110100111001
1111111011111001
10111
1111111111011001
1111111111100111
1100
1111111101100001
1111111110110010
1111110000001101
1111101111110101
1111110001110111
1111111010110001
1111110110100000
1101100110
1111110111110111
1111111110010100
1010010
110011011
1100100100
1111111011111010
1011100
1000011000
1100001001
1010111
111110100
1111111011100000
1111111011101000
1111111100100001
1111111001010110
11111
1111111111110011
10
111
11011
1111111001001011
1111111011110000
1111101100011000
1111101010110111
1111110010010010
1111100111101100
1111110101011001
1111110110000100
1111110001000111
1111110100100001
1111110111010111
10000011
111011010
101011000
1111101101111011
1111110111110011
1111110100111101
1111111010101101
1001001011
1111111010100000
1111101000000001
1111100111100010
1111110001001011
1111111000011001
1111111100001000
1111111111110011
1111111111110011
1010011
1111111100110011
101110
1111110101000110
1111111001101100
1111101111111110
1111101110100100
1111111000001000
1111110101001010
111011111
1111101011010111
1111111111000001
1010000011
1001111010
1111101011001110
1111110001101011
1111111100010011
1111110111001001
1111101100111010
1111110100001001
110000000
1111101011111100
1111101111101011
1111101110011100
1111110110010100
1111111101111001
1111111111100110
10100
1111111111101001
110000
11001101
1111111000111001
1111110101100000
1111110001101100
1111110011111000
1111110100111101
1111111000001000
1111110011101010
1111111000010000
1111110100101100
1100111110
1111111010111001
10000000001
1000101100
1111101011000100
1111111110100100
1111111101010100
1111111110000100
1111111110001010
1111101100011101
1111100011101010
1111100110001010
1111111000100000
1111111110100101
1111111111011111
1111111111011000
1111111110010011
10001
10111010
1111110110001001
1111110110001101
1111101110100110
1111100110011001
1111111010111011
1111111101000000
1111100100100011
1111111101001111
11111101
1111111100000001
1011000
10010011011
100010001
1101100011
1111111111101101
1000101011
1111110111010010
1111110011000000
1111110101011001
1111110000000000
1111100011001110
1111110110100011
1111111111111010
10101
101
1000011
11000011
1111111011011100
1111111001001011
1111111001000110
1111110010011000
1111110011101111
1111110100111100
1111110011111001
1111111110010000
1111111000110111
1111110011001101
1111101010111011
1111101010110111
1111111010000100
10000011000
10100101001
100001111
1111110111110001
1111111111110000
1111110110010000
1111101100100101
1111110111111010
1111101101010011
1111111001111001
1111111111111000
1111111110110110
1111111111101101
110001
1111111111101110
1111110101000010
1111111001011011
1100011001
1111110001000011
1010110
1111111000001011
10001010
1111111101000100
1111110110100101
1111111111110100
1111100001000110
1111011110010001
1111101110000000
1111110100111001
1111111101101101
1100110100
1111111111101111
1101010110
1111111011000011
1111110100011000
1111110111101000
1111110110111010
1111110111110000
10101
10001
1111111111101101
1111111111101000
1111111011110111
1111111010100110
1111110011100101
101011101
1111110000101101
111100
1111111110100011
1111100100011000
1111110000010000
1111110010011001
1111101010111011
1111111000100100
1111011000010100
1111100111100111
1111110010001011
111111
1111110011000010
1111111111011011
1100111001
110101000
10001001
1011011011
1111111111101110
1111111101010010
1111111111011010
1111111111110011
1111111111110001
1111111110110111
1111111011011111
110010000
11111
1011100001
1100001
1111110000000000
1111101010011010
1111101001101001
1111100000110110
1111101101010101
1111101110100001
1111101110111010
1111011010000110
1111100000110001
1111100111001011
1100011100
1111111111000110
1111110000010011
1111010
1111111110011000
1101010011
10000110101
110010000
1111111110111001
1000001
1001
1111111111010000
1111111111101001
1111111111110010
101111100
10101000100
11011111111
10010011110
1111111110000100
1111111010001010
1111110111010001
1111111011101011
1111111100011101
1111101001000001
1111101100011001
1111110001001101
1111101100000101
1111110111000111
110001110
1111111110000110
1001000010
110100101
11001000
10100000100
10000000011
10001001000
110010110
110
1111111111110111
1111111111111100
1111111110000111
1101010
100000001
11011111110
11110000000
100111110001
100111001100
11111111111
1111111100110110
1111111001000100
1111111110110100
1111111000001011
1111101000010001
1111100100110011
1111101000100110
1111110101101110
1111110101000001
1111110111
10111110100
1000111000
1101110010
10110111010
1111011111
10110001000
111000000
1101
10000
1111111110111011
1111111101101000
10011000
1000101
10101011100
10111000100
101001110101
10101000111
100100110100
1001010101
11001010
101100010
1000000111
1111111000110110
1111100100000001
1111101110011101
1010000111
11000101001
100001111010
100010000110
10111101101
1001001101
1110001011
1111011101
10111101001
1011101011
101011
1111111111111100
1111111111001000
1111111111011111
11110010
10110101
1111101000
1111111011110111
10111111110
10110011100
10110111111
100110101001
11010111001
101000111100
1101001000
1111101101000110
1111101101000100
1110001
10011100000
10110010001
11111100111
10011111000
1010101011
10011100000
110110010
1111111001100110
10000111110
110011001
1110101
1111111111011011
1111111111011101
1111111111100100
100011100
100011
1000011000
100110111
1100101001
1000110011
1000000101
11111110110
1101110010
10011100000
1111111111110000
1111110101011000
111001000
11000000110
11001010
10001111111
10111
100010000
1111111111110111
11100110
1111111010111000
1111110101001100
111111010
1111111111110100
11111
1111111111101101
10000
1111111110000000
1100010
111110111
111111010
1111111110011110
1110010110
1111110100011000
110010
1111111010011011
10100011110
11010011000
1111111100001111
11000001
10011111010
101101001
110010
110000000
1111111001111000
1111111110000011
1111101111010100
1111111001100000
1111110101111010
1111111110100011
1100110
10001100
1111111110101100
110111
1111111111110000
1111111111001110
100100011
101011001
1000101011
1111110000001101
1110010100
1000101110
100101010
1000101011
1011101
110101011
1111101010110100
10100101
111101001
1001000110
1000001011
10000000101
11110000
10101100000
1000011010
1111111001010110
111001011
111000010
1111110
1100001
1111111111110001
1111111111010001
1000
1111111111100001
100011100
11001100
1101101
1111110111010000
1111111100101110
1000011
1001100011
10001100110
1011001010
1111111110001001
1100100100
10110100110
11110101
1000111000
111010110
1011001100
11110000110
1000100110
111110010
10100001000
11001010111
1001100101
1000010
10010000
1111111111101110
1110
1111111111110101
1100
1111011
100001111
1000011110
111001011
1111111100101101
10100101
1111111100101011
11000000
11100010
10000101111
1010100110
10001
11110110
1000010110
111000110
1010100010
1111111011110010
10001010100
10101011110
1101110100
1100100010
101011101
11001000
1111111111100010
1111111111010100
1111111111111111
1111111111110110
1111111111111001
110
1111110111100111
1011111
1000110111
111110011
1000101100
10001000100
1101110011
110100110
11110001
1111111110101111
1100101
1111111101111111
1111111001110001
100011
111000000
11100101
11101000
1101111010
1010001100
110001100
10101011
1100010
10001
1111111110101111
1111111111101111
11111
1111111111011011
1111111110010011
1111111100100110
1111111000010001
1111110111110000
1111110010100010
1111101101011001
110111000
1111111101001111
1111111001100000
100100111
1110010
1100001
1111110011010100
1111110100011100
1111111011111101
10000110
1111111010100000
10000
10001000
100110111
110010
11101
110110
11
1111111111111000
1111111111011110
10
10001
1111111111101100
1111111110001110
1111111100011101
1111111010011101
1111110110000001
1111110001100111
1111100101000110
1111100000001001
1111101101011110
1111101011110010
1111110101110001
1111100110111001
1111100110110110
1111101110110101
1111101000100101
1111110010101001
1111110010000111
1111111100110011
111001
1111111110000001
1111111101011010
1111111110001000
1111111111100101
111100
1111111111110001
1111111111010101
110000
0
1111111111010110
10100
1111111110101110
1111111111011010
1111111101110100
1111111011100111
1111111001101100
1111111010001100
1111111001001010
1111111101100100
1111111111000001
1111111011101001
1111111011100101
1111111100100011
1111110110100001
1111110111001101
1111110110100000
1111111101000101
1000001
1111111111001101
11101
1111111111110001
1101
10
1111111111110000
1111111111111010
10111
110010
1111111111110100
1
1111111111101101
1111111111010110
10111
1111111110111011
1111111110111101
1111111110111100
1111111111001110
1111111111111111
1010
1111111111111001
1111111111001100
1111111111111001
1000110
110001
1111111111111110
1000010
1111111111110111
0
11
1111111111011100
1111111111111001
110011
10001
