1111
0
100000
1111111111100001
100010
100110
11111
1
1111111111111111
10011
100
10100
100
1111111111100010
1111111111111011
1000110
11010
1
100010
1111111111111010
1111111111111101
0
1111111111111101
100011
11100
101
100011
1111111111101010
100100
1111111111111001
1111111111111001
11
1111111111101011
1011
0
10000
1000110
110110
1000100
100011
11001000
11111010
11000011
10001110
101001111
1011000
110011
11010
10110011
1011001
1111111111111110
100011
11100
1111111111010000
1111111111111110
101
0
101111
100
1111111111101100
100010
11011
1001001
100000101
100000001
1111110
11000100
111101010
111011111
1011111000
1010101000
1001011001
1100101000
1100010001
1101001011
1000101001
101110111
101001011
1101110
1111111111111001
1111111111110011
1111111111101011
10001
1111111111011010
1
1111111111110101
1111111111101100
1011010
1111111111011110
1111111100100110
1111111111100010
1111111110111101
1111111101011101
1111111111101001
1111111101100111
1111111001101010
1111110100001101
1111110101000001
10000110
1111111110001100
100010110
10111000111
100100011011
11011101111
1110001100
1001100001
11111111
10000101
1001
1111111111111110
1111111111110101
1111111111111010
0
101
11010
100
1111111111100011
1111110101111001
1111110100111000
1111110111010111
1111101010001111
1111111100011101
1111110011000000
1111110111000010
1111101111001111
1111101011011000
11010111
111
11011100111
10101011001
10011101011
100011110001
100000100100
10010001000
1110001011
111010001
10111110
11101
100010
1111111111100110
101101
1011
11001
1111111101000100
1111110101011000
1111110001010000
1111101110101111
1111100100100001
1111110000001010
1111111101000001
1100001
1111110101101011
1111101000010111
1111110111111100
101011
1111101010010011
100000101
11100111101
1111110000
100100000110
101111101000
11100111111
10011011001
1011000110
10011111
1011011
1111
111
10001
100
11110
1111111010001011
1111110001000111
1111111100111010
1111011110111101
1111111000000101
111110
1111110010101110
111011
1111111101000001
111
0
1111110101110001
1101111
110010101
11011100111
111001
101011000101
101000010001
11110011100
10101000110
1100101010
100000000
1010101
1000100
1111111111110010
100
1001
1111111111000010
1111110101100111
1111101111110111
101000010
1111110011100000
10001001011
1101001110
1000101110
10010100100
110101101
10100011010
1111111000100100
11110010
1111111100111110
1111111011111101
1011010000
1000011000
11010101110
111001000101
110000010110
100001001010
10000010001
1000011111
1111111110100101
11111
1111111111010110
101101
1111111111001010
1111111110110000
1111111001111010
1111110100100011
1111111110110010
1010111001
10110001101
1010010100
1111111010111111
1111100000010000
101001000
100101110
1111111001011010
1111110111111101
1111110101000100
1111101101010111
1111111111100111
1110001000
10111001100
110110111010
110011110011
100110001010
10111100010
1110100010
101100110
1001001
101
10001
1111111111110011
1111111110110010
1111111011110000
1111110011011011
1111101001110110
1111111010000000
111111101
1110111101
110100011
1110100110
110000001
1111100110011110
1111101100001000
1111001011010100
1111001101010000
1111011101111111
1111101111101100
10110011100
101001010010
111000100000
100111111110
11011011101
10001110011
110010001
11100100
1111111111011010
1111111100110100
1111111111001111
1111111111111000
1111111111100010
1111111010011001
1111111001100110
1111110001100001
1111111110110110
10100101
11001000100
10110110110
111101111
1111110110110100
1111110011110001
1111110111100001
1111001101111111
1111010000000110
1111001011111000
1110000
101101001011
110011110001
110000011000
100001010011
1110111010
110000011
101110100
1000100
1111111111000011
1111111110100011
1111111111110001
1111111111101001
1111111111101100
1111111001101001
1111110110110010
1111111100001100
101100101
1000010010
1101101
1111101110010011
1111101011001011
1111010110101111
1111111011001011
1111110000100100
1111011101101110
1111101110101101
1000010111
100110101001
101001000101
101111001000
10111001001
10000000110
100010100
10100
101110101
11100101
101000010
1111111111010011
100101
10010
1111111110111000
1111111111101010
0
1111111111010001
10001001110
1100010110
1100101100
1111111011001000
101001010
1111110111001101
1111111001111110
1111110110100001
1111011110000101
1111110100111111
1111111100000110
10100111000
11101010
10100001101
1111101100
111010000
1111110001110000
1111111111010011
1111111110001110
1111110101011011
1110011
1111111110011001
1111111111111110
1111111111001110
1111111111011000
1111111111010100
11011100
10011001101
1011001010
1010111011
100101100
10110011
100110101
1111110011110101
1111111100001000
1111110000110101
1111101000001000
1111110010110010
1111110000110001
10100100
1111111110100011
10000010010
10001100111
1010001
11001101
1111111101011101
1111110111101110
1111110010011011
1111111101011011
1111111101100011
11011
1001001
1111111111110011
1111111111100011
110000110
10011000000
10100100010
11100110001
1001011010
110011010
1011000010
1100110011
110111111
100000010
1111110110100010
1111110101010100
1011110
101010011100
100100001010
110001101
1110100010
1111110001111111
110011
1111111001001001
1111111000101011
1111110000001100
1111111000111001
1111111111011110
1111111111111111
11111
11010
1111111111101110
1011010111
1100000101
11011111
1010000101
1010000000
11001010
110011100
1010010
11110111
1111101001110100
1111101110111001
1111111111101011
1100001110
111011011
10000010100
1000100011
1111111101100110
1111110010010110
1111110010110011
1111111010110110
1111101100111100
1111111010000110
1111111010001101
10101
1111111111110001
1111111111111000
11010
100100
1000110001
10010001010
101101111
1111110101000011
1111110101111111
1111101001110101
1111111111001110
1111111111110100
10000110011
101000001
1111101111011011
1111101100
10001011100
1001001010
1111101000011111
1111111100011100
1111111100101000
1111110001101011
1111101111011000
1111110111100001
1111110100100011
1111111010101101
1111110111000011
1111111110111011
100
11010
11
1011010
11001001
1101101001
1111111111010001
1111111110010000
1010000000
1000011000
1100101010
1001110111
101100000
1111111100011110
1111100110111100
1010100101
110010000
1111110111010010
1111110110110111
1111110110100000
1101000
1111101110000111
1111110011000000
1111111101001010
1111111111010011
1111111011011100
1111111100110000
1111111110010101
10001
1111111111100101
10010
1111110
1111111101110100
101011010
1111111001110111
10000010100
1111111111000011
1000011001
1111111101001000
1111111101101011
110100000
1101
11100101001
10101101110
11001110111
10011001
1111111111110000
1111111100011101
1111110110000110
1111111001110001
1111110110110000
1111111100000110
1111110011001111
1111111010101111
1111111110111010
1111111101110100
100
111
101101111
111011010
1111111110000101
1011111
10111101
110010111
1010111000
111101011
1011110111
1110110111
1010001010
10001010111
1111111110101010
1000011110
100100111
1111111101011101
1111111001000000
1111110101010101
1111110011100011
1000001000
1111111110011001
10111001
1111111110001000
1111111100110001
1111111110011100
10110
1
10111
101001111
110111000
100111010
1010110011
1111111100111110
1111110100111001
1111111110111011
1111110101000000
10011011
111011
100010111
100011110
1111111110110111
10101110101
1101011110
1111111101000111
10000100
1111111111011110
1111110001001010
101100110
11001111
1100001000
110001111
110011
1010
1111111111101001
1111111111101111
1111111111110011
1111111111011011
1000
11111100
1111001010
1101001001
1101010100
1001100
100110001
111110111
1111111110001101
10001110
11011101100
11111000
110111111
10011110
101000010001
1110111011
1111110110001001
1101000101
1110110110
1001001101
1000110011
111001110
10000011
1111111111110111
1111111111111111
1111111111110000
110110
1111111111110111
1111111100010000
1111110110100101
1111111111101101
1111111111110001
1111111111101110
1100010
10110100
1111111011000110
10100100110
10100011110
100101011
11011101001
1011100000
10010001001
1101111011
10
1111101
1111110011010001
1111111001000101
1100010
1110000010
110101110
1010011
10
1111111111011111
100100
10100
1
1111111110110010
1111111010111001
1111111101110000
101101111
1111111001111011
1111111101000011
1111110011011000
11111101
1111111000100000
1001111001
1111111001011110
10000000101
1000011010
100000101101
1111111100100001
1111111001111011
11101001
1111111011110110
1101010
111111000
1100011100
100100100
1111111111110001
1111111111011011
1111111111111111
1010001
1111111111111000
10110
1111111111000001
1111111100001101
1111111010000110
1111111010010011
1111111111101101
1111111101001010
1111110111010101
1001010110
1100100110
1011000000
1111111100110100
1111101111110011
10111011001
1111010000
1111111011001001
1011111110
101100
1000010101
100111001
111010110
1010110101
111101101
1111111111011000
100100
1111111111111000
1111111111110011
1111111111101001
1111111111111010
1111111111100110
1111111110000010
1111111001111111
1111111000000000
1111110101101010
1111110010101111
1111111011101000
1111111000000001
1010001
111000101
1111111011000010
1111111000100100
1101
110001
10111111
101001011
1001011100
110100100
1001010110
111000111
1001011100
111111111
10001
1111111111011111
11001
1111111111010001
11110
100001
1111111111100101
1000000
1111111111011001
1001111
1111111111010110
1111111111101110
10001001
10100100
101000100
1000000010
10001010
10010010
101011000
110010011
110010000
101111110
100111111
100111011
11110010
101001
100011
111
1111111111001010
10111
1111111111111110
111
1111111111110111
1111111111111100
101010
1111111111001100
1111111111111110
1111111111011110
1111111111101000
1111111111010100
10000
1111111110110000
1111111111000011
1111111111010100
10110
11010
1111111110111001
1010101
1111111111110110
1111111110001110
1111111110100001
1111111110111000
1111111110101001
1111111111001110
11110
1111111110111110
1000
1111111111101101
1111111111110001
