1111000000010001
1111010100001110
101110100
1111101101001101
1111110011001010
1001011010101
1110100100111101
1111110110101000
101111
11000101
1110111001110011
1110100011111110
11001100000
1111111111011000
1100111
1111110110000001
1101000001
1110101101011011
1001100110100
1011100011
1111010110011111
11110101
1111101010100011
1110111
111000010010
1111001000111010
1100001110111
1110001110110110
1001110101111
101100011111
