100000100011
1101001111
11010111011
1010000100110
1000011010
1110110010110100
111111001111
1100100010001
110011100
1111111000010001
100001111110
1111110001010111
1111010111000100
11010101010
1101110100110001
11000010
1100100100
1111001100111011
10110100100
110011011000
1001111100100
1110000101101
1110100101001000
1101110110110000
10001100001010
1111000010001110
1111111111111000
1111100101011001
1110111101100111
1000000010111
