1111101001001000
1111111110000010
1111011110010001
1111111101100101
1000011100
100011101010
100111010000
1111110010100110
1111110111010011
1000
1010111010
100010110111
1111110000001101
101100000010
10101100111101
1111111010001110
1111011101001011
110111000010
1111010101010011
1110111100111101
1101010010010001
1111001000101000
10000111110001
1010101011
1110110101011000
10100100110
1111111010001001
1011001101110
1111110000001100
1110011011100100
