1010001100100
1111000101110111
1111111101010011
1110111111110011
1110001001010010
100110101011
1111000100110010
1111011000011010
1111001001100111
1110000001101111
1111100101110100
11010011110
11101110110
1111000011010001
111010001110
111011010011
1000111001110
1111011100001111
1111111010111011
1101011110111101
1111010111111000
101001000111
111110000101
10110010011
1100011101000
1111100010
1101011001011
10011010011010
11101001100
1011001010000
