1111111101010000
111101010111
1111100111000110
1110101011011001
10100111000111
1101110010010000
111110100101
1011000110100
101001001110
1111000010010110
1101000011110
1111011110110111
1111011100111101
11100010
1110100011010010
10011000101
1111011101011010
110110001101
1011000111101
10001110011100
111001001110
1111000011101101
1111011011011101
1110111111111100
111111101110
1010010101
1111000101101011
1110001011110101
1001001101001
110111111000
