1111111100010000
1110010111100000
1111100101001111
1111101100001110
111111110100
1111110111110010
1111011001111011
1101011000101110
10001011101110
1111101111111101
1110110001000000
1010110010000
1011101000111
1110110010110111
1010011000011
10100101011010
100111100110
1110001000010111
110101011110
10010110110
1110110111100100
1111110001001111
1111111101101110
1100111100001
1010010001111
11011111001
1110010010010001
1111110001001000
1111010111100011
1111011100010110
