1100110000101
11000101010
1001100011101
1000011100111
1110111010001100
1001000111
101000000001
1110100000111
1101111110111010
1000100101010
1111100
1001110110000
1110110000010110
1001111001110
1110111100011001
1110011100000000
1111100011101111
11000111000
1110011010011011
1111001100101111
1000110100000
1011011010111
1110111111010100
1111000100000101
1111001010001000
1111100000111000
101110010100
1101001011010
1110101010000011
111010111
