1111001010100001
1110010111001100
1110011101011
1110001011101001
1110010100011000
1111111001011100
11001011101
1110110111011100
10001001110011
1100001
1111001110111100
10011101011
10010000010110
1111000111111101
1111011011100101
1001111101010
1101110111000
1000100110010
1111001000101010
1110101101011010
111000110000
1111000101010011
1110100000000001
1111110010000011
1000000100
1111101011111
1111001001110111
100101111100
111100101100
1111011011110100
