1101111010110110
1100110101101111
11000010011110
1110100011101110
10000010000110
10011111110010
1100100001101011
1100110101110010
10010111010
1100010010001001
110111110101
101011001010
1110101001011000
1110001111100011
1110010111000
1100110000100000
1111010110001110
1100111100001
1110000101000111
1111101001111
