10001001110111
1100110001100101
1110000010000
111001001100
1100010100100010
1101000101001101
1101111110010
10010101011000
1111110010100100
1101001000111011
1111011010110100
1111111100111111
101111111001
10010011001001
10100001010101
1111011001100000
1111000110111010
1100010101010101
10001101010010
1110011011110111
