1011000110110
1110010011111011
1101111001101000
1101100001100001
1100000101101100
1110101111000
10100101001000
1101100000110100
1001101111111
1100101011011
1101001001111110
1011100011010
1110001010100110
1110011100110000
1111101011100000
10100111000
1111011011101101
1101111101000011
1101101100001001
1100111100000
