1111111111010011
1111111111110000
1111111111110100
1111111111110100
1010
1111111111010001
10001
1111111111010000
110000
1111111111100111
1111111111011111
100101
11111
1111111111111011
1111111111111100
1111
1111111111111101
1111111111110101
11
1111111111100000
1111111111110010
1111111111010010
110000
110110
11100
1111111111100011
11010
1100
1111111111010001
10110
1111111111111001
10110
1111111111100111
110
1111111111101001
1111111111011111
1011000
1111111111011111
100100
110
1111111110000100
1111111111011000
1111111111100010
1000100
1000
1111111111011010
1111111111011000
101110
1111111111011100
1111111111100111
1100
100
1111111111111001
11110
1111111111101101
111110
11100
1011011
10011
1111111111100011
10111
10010
1111111111100000
10010
11001
111
101001
1111111111100000
100111
1000010
1111111111100100
10101
1
1111111111110111
1111111111111010
1111111111111101
11101
11110
100110
10001
11100
1111111111110100
1111111111110111
1011
1111111111011111
11011
10
11001
1111111111101110
1010
1
1111111111100111
1000
1111111111101100
1111111111000110
10011
101010
1111111111001011
110101
100001
110001
1111111111011100
11011
1111111111010100
1111111111011010
1111111111110110
1111111111110111
11111
1000
1111111111110100
1111111111101110
1000110
1111111111010101
110010
110
10100
11010
10000
1111111111111111
1111111111111011
1111111111111101
11100
11
1111111111100001
1111111111111110
1111111111111100
1111111111110010
1111111111111011
1111111111101011
111101
101001
10010
1000
1111111111110101
110110
100100
1010110
1111111111010010
10111
1111111111101101
1111111111110000
1000001
110011
1111111111101010
1111111111110111
11
1111111111110101
1111111111010111
1111111111111110
1111111111110100
1111111110101001
1111111111101111
1000
1111111111110011
1011
1111111111101101
11111
1111111111010101
11111
1111111111111011
1111111111101010
1111111111011000
100111
10000
1111111111111101
1111111111110111
0
101000
1110
11
110000
11010
1111111111100000
110001
1
1111111111111101
1111111111110110
1111111111001010
1111111111111010
110000
101001
1111111111011011
1111111111111011
1111111111111001
101
1111111111111110
11110
1111111111010110
1111111110111111
1111111111100101
1111111111101111
1111111111101011
1111111111111001
1111111111101001
1111111111110111
1111111111011111
1111111111101111
10010
110
1101
1111111111010001
1111111111001110
11
10101
1111111111110001
110
101100
1111111111100110
1111111111110011
1111111111100110
1001110
11001
101001
1111111111110111
1111111111100100
10100
110001
1111111111101100
100000
1111111111101001
100000
10000
11010
11111
1111111111100010
1111111111011110
1111111111111010
1111111111010011
1111111111101111
1111111111111101
1111111111111100
1111111111111100
1111111111111000
1111111111111101
1111111111110001
1111111111101101
1111111111110010
1111111111010100
1111111111011100
1111111111101111
1111111111110011
100011
1111111111111100
10001
1111111111011010
1111111111100101
1111111111101011
1010
1111111111001111
1111111111101000
1111111111011000
100000
10001
101
1111111111111110
110000
1111111111110111
101101
1111111111110101
1111111111010110
11111
1111111111101010
1111111111110111
1111111111000010
1
1111111111110010
1001100
1
1111111111011111
1111111111000100
100011
1111111111111001
1001
1111111111011000
110001
11011
1001110
1001
1111111111110000
11101
10010
111001
11
1
1111111111111010
1111111111011001
110111
1111111111001011
10001
11000
1001
1
100110
1111111111110101
1111111111001011
1111111111111101
1111111111010101
1111111111110111
1111111111011100
110101
1111111111111110
1001
11111
1111111111001101
100000
1000
1111111111011110
10000
100111
1010
1111111111011101
111101
101011
111
10101
10010
1111111111111010
1111111111011110
11110
1010
1111111111111010
1011
1111111111111100
1111
1010
101100
1111111111100111
1111111111010011
1111111111111110
1111111111110101
1111111111100110
1111111111100010
100100
11010
1111111111101101
1010
1111111111101111
1111111111101100
1111111111101010
101001
10111
10001
1111111111111011
1111111111001000
1000001
1111111111101000
1111111111110111
1001
1111111111111110
1010
1010
1111111111110010
1111111111111110
1111111111010110
1111111111010111
1111111111111011
1111111111110001
1111111111110101
100000
1111111111100010
1111111110111010
100
10011
1111111111011110
100001
1010
1111111111000110
1
11111
1111111111010111
101111
101111
1111111111010111
1111111111101100
1111111111111100
101
1111111111100100
1111111111111011
10
101100
101
1111111111010010
1111111111111001
1111111110111010
1111111111011111
1111111111011101
1111111111010101
1111111111100000
1111111111001011
11011
1111111111100000
10110
1111111111111101
100100
101
1111111111011101
0
1101
110001
1111111111100100
10111
1111111111101101
1111111111111110
1111111110101101
1111111111010011
0
100111
111
1111111111101100
1111111111011000
1111111111110111
100101
110101
100000
1011101
1001
1010
1101
110101
1111111110100010
101100
1111111111110100
1111111111111011
1111111111000110
101
1111111111110101
1111111111100101
1111111111101001
11101
1111111111011110
1101
1111111111100110
100100
100
1111111111011011
1111111111111011
100111
1111111111101011
110111
10000
100
1111111111101110
1111111111011111
1011
100100
10011
1111111111011000
1111111111001010
1111111111100000
10010
10011
110
11
1111111111011001
11100
1111111111110100
1111111111010110
1111111111101111
1111111111101011
1111111111110110
1111111111000110
10001
1111111111010110
10100
1111111111011110
1111111111111011
1111111111111011
1111111111001110
10011
1111111111101011
1111111111111000
100
1111111111100101
10101
1111111111010101
1101
100001
1111111111100111
1111111111010001
1111111111100111
1100
1111111111101010
101
100101
11001
10010
1111111111101111
1111111111101010
11
1111111111010111
1111111111110001
101100
11110
1111111111011110
1111111111001000
11101
10101
1111111111111110
11101
1010
1111111111111111
0
101011
1111111110101111
1111111111100101
1111111111011011
1111111111111001
1111111111111011
1111111111100001
1111111111100101
0
1111111111110010
1111111111100101
1111111110111110
1111111111011010
1110
1111111111110110
1111111111000010
1101
1111111111110001
1010
1111111111101011
10000
1111111111101011
11001
11
11110
11110
1111111111101111
1111111111100001
111101
1111111111011110
1111111111100100
10001
11011
1111111110100101
10111
111
1111111111111011
1111111111110010
1111111111011100
1111111111011111
100111
101010
100000
1111111111100100
110101
1010
11110
1111111111101011
1111111111101010
10100
1110
1000010
1111111111110010
0
11100
11111
101010
1111111111111000
1111111110101100
1111111111111101
110011
1000101
111110
1111111111111000
1111111111011011
1111111111101110
1111111111100001
1010
11001
1111111111011000
1111111110110111
10010
1001011
101
0
100100
1111111110111000
1111111111111001
1111
1111
101
1111111111110011
1111111111100101
1111111111101010
11011
1111111111011100
1111111111011110
1111111111111001
110110
0
101001
111
1111111111111101
1111111111011110
1111111111101101
11110
1111111111101101
1111111111110110
1111111111111011
1110
10101
1111111111101001
100110
10
0
1111111111000111
1111
1111111111011010
1111111111111010
1111111111111100
11001
11110
110101
1111111111110011
1111111111100101
1001
1001
1111111111110010
111101
1111111111111110
1111111111101010
1111111111111100
11110
1111111111101010
1111111111110001
1111111111100001
1111111111001100
100000
10100
1001
1111111111110101
110011
10
101111
1111111111010001
1111111111001101
10011
1111111111111010
1111111111000110
1111111111111111
1111111111111110
1111111111100111
1110
1111111111111101
11101
110110
10011
1100
1111111111100110
1111111111110001
1111111111001111
1111111110100101
11100
1111111111011011
1111111111011000
1
10001
1111111110110110
100101
1111111111011011
1111111111101011
1111111111111001
1111111111001101
110110
1111111111101101
1111111111011000
1010
1111111111110011
1101
100110
100001
101100
1111111111100101
1111111111110101
1111111111111100
1111111111111001
1111111111011110
1111111111001100
1111111111100001
11
1111111111011011
11111
1011
1111111111110001
1111111111111101
1111111111100100
10111
1111111111101100
10001
11000
1111111111110011
1111111111110111
11000
1100
1111111111111001
1111111111001101
1111111111100000
11100
100110
11001
1001
1111111111100000
100
1
10010
101111
1001
10101
10110
1111111111110101
10001
11
10
1101
1111111111100010
1111
1111111111100100
101110
100
10
1111111111000101
111101
1111111111111111
1111111111011111
1111111111011111
10000
10101
11010
1111111111010010
1000001
1111111111101110
10000
1111111111101110
1111
1111111111011011
1111111111101100
1111111111111101
1111111111101110
10110
1111111111111011
10011
1111111111101101
1111111111010110
1111111111110001
100101
1111111111011111
100110
111101
1111111111111000
1111111111101100
10
1111111111011010
1111111111100100
1111111111011110
1111111111100100
1111111111101011
1111
1111111111111111
1111111111100001
1111111111010100
1111111111110110
10001
1010
1111111111011111
1111111111111001
1111111111101001
1111111111100101
1
100010
1111111110111101
1111111111111101
100011
11111
1111111111011100
111
101100
1111111111100000
0
1
1111111111110011
11
1111111111111101
