11000
1111111111010100
10011
10001
1111111111001101
1111
11
11010
11
1001
1011
110
110
1011
1111111111101010
1111111111101000
1111111111111001
1111111111101001
1111111111011111
1111111111100110
11110
11100
11001
1111111111001111
1111111111100101
10101
1111111111001101
110001
101001
1111111111100101
1111111111111010
1111111111111001
1111111111110000
1001
100010
1111111111001001
1111111111101111
1111111111101001
100001
101001
1
11101
1111111111101100
11000
1111111111111101
1100
1000111
1111111111100101
1111111111101001
11010
1111111111101010
0
10
10011
11011
1111111111010001
11
1111111111010011
1111111111101111
1111
101011
101
1111111111100101
1111111111011010
10000
101110
1001
1010
101
101
100111
1111111111101110
1111111111111011
111101
1010
10111
1111111111010111
1111111111110111
1111111111011110
1111111111101111
1011
1011
1111
100001
1111111111110000
111001
1111111111010001
100
10001
1111111111010011
10010
111
1001000
110010
11110
1001
1111111110110011
1111111111111001
1111111111010101
1111111111000000
1111111111110110
100001
1111111111010101
110110
1111111111001110
1111111111101101
1111111111111010
1111111111110100
1111111111001110
1111111111111000
1111111111100010
1000010
1111111110110111
101101
1111111111000110
111010
1111111111110000
100
1111111111110001
101
100111
1111111111101111
1111111111011011
1111111111110111
1111111111110001
10100
100
10110
1001
10101
1111111111001111
1111111111010011
1111111111011001
1010
1111111111011101
1111111111111100
1111
100101
1111111111101110
11
110
1111111111100010
1111111111101101
1111111111110110
100101
1010
110100
101
1000000
10110
1111111111010110
1111111111101110
0
101010
1111111111111011
1111111111111010
1111111111111111
10100
100011
1111111111100101
1111111111101110
1111111111110011
1111111111110010
10000
1111111110110110
10
1111111111110101
1111111111100011
101100
101000
1111111111000100
0
1110
110111
11001
10101
10111
1111111110100010
1110
1111111110110100
1111111111100011
1111111111110100
0
1111111111101111
1011
10
1111111111100101
1111111111110000
100000
10101
1111111111111001
11100
1111111111101010
10011
1111111111101001
1000
10000
101001
11000
1111111111110101
1111111110111101
1111111110110000
10011
10001
111
10101
1111111111100110
1111111111101111
1111111111101011
11
1111111111010100
1111111111101011
111
10100
1111111111011010
1111111111111010
10110
10011
1111111111100110
1111111111001001
1111111111011010
1111111111110111
1111111111111000
11010
1111111111101000
1111111111101100
100110
1111111110100111
1111111111100101
10
11000
100110
1111111111000100
101111
101010
1111
1110
10101
1111111111100001
1110
0
1111111111110110
1
100011
1000010
110111
1111111111101110
100100
1111111111111001
101
1111
1111111111100111
1111111111101101
101100
100011
1111111111101011
10010
11011
110111
1111111111110101
10100
11101
1111111111101100
1111111111001101
1111111111111111
1111111111001111
100110
1111
1100
100101
11111
1101
101
11100
1111111111100001
1111111110010010
10
1111111111110001
1111111111111010
101
1111111111100111
1111111111100111
1111111111011011
1111111111100101
1000110
0
1111111111110011
1001
1
100010
100100
101101
1111111111100001
1111111111101100
11
1110
0
1111111111000011
101010
0
1001
101001
1111111111110111
1111111111011010
1000011
1111111111111011
0
1111111111100000
1111111111101000
1111111111100000
1111111111100110
11
1111111111010001
101010
1111111111011100
11101
1111111111101011
1111111111000101
1111111111111001
1111111111111111
1111111111111101
1001
1000110
1111111111110101
1010
1111111111110111
1111111111000100
100111
1111111111011101
100101
110010
1111111111011010
1010110
110111
1111111111001010
1111111111011100
1000
1111111110100110
0
1111111111111100
1000
1111111111111110
1101
10100
1000000
1011
1111111111101011
10000
101000
1111111111110101
1111111111111100
111000
1111111111111000
10001
1010
100100
1111111111001001
11010
1111111111110110
1111111111010111
11110
100
1111111111110101
1111111111110101
1111111111100110
1111111111010111
1111111111110011
1111111111110011
101
1111111111010100
11111
10001
110100
1111111111111001
101
100000
1111111111010101
1111111111111110
1111111111101010
100101
10000
111
1101
1111111111110110
1111111111100010
1111111110111010
1011
1111111111100110
1111111111110111
1111111111001000
11111
1111111111110110
1111111111100101
111001
1111111111100011
101000
1111111111110001
1111111111101011
1111111111011001
1011
100001
10000
11011
101111
1111111111100001
1111111111000000
111010
1111111111011000
1111111111100111
1101
1111111111011000
1111111111011001
1111111111110110
11000
111011
1111111111010101
0
1001
1111111111100010
1111111111011111
10111
1111111111111111
1111111111110110
110
1111111111100110
101001
1111111111101110
1101
1011
111
1111111111110100
1111111110110111
0
1011
110111
10001
1111111111111000
10
1111111111111101
1111111111010111
1111111111101111
1111111110111110
1111111111011000
1111111111010111
1001
110011
110
1111111111000000
1111111111011011
10000
1111111111101110
1
11000
100011
110010
1111111111010111
1111111111000010
11000
1111111111110101
11000
10000
1111111111010001
1111111111110000
1
101101
1
101
1111111111110111
1111111111000000
11110
1111111111101110
111
1101
1111111111101010
1111111111110101
111
1111111111011101
101100
0
1111111111111001
1111111111110101
1111111111111111
11010
1111111111111101
1111111111111011
1111111111000000
111
1011
100
110101
1111111111101011
1111111111100100
1111111111111011
1111111111100100
1111
11001
11
1111111111101101
1111111111011000
1111111111011000
1100
11011
100001
1101
110000
0
100000
0
1111111111110110
1111111111100010
1111111111000010
10000
11000
1111111111100011
1111111111101111
10110
1011
1101
1111111111001110
1111111111101011
1100
1111111111111100
1111111111110010
1111111111001111
1111111111010111
101
1111111111111011
1111111111001100
1111111111011101
1111111111111101
1111111111100110
10110
111010
1111111111100001
1111111111111110
11010
1111111111111111
1111111111011010
1100
1111111111100101
1111111111111101
11011
101100
11010
101110
1100
111
11001
1111111111101010
10011
1111111111011110
1111111111100001
11001
11001
11110
1000110
1110
110
11
110010
101011
1111111111010001
1101
1111111111100001
1111
10
1
1010
1111111111010111
1111111110111000
100111
1111111111011010
100010
1111111111101011
1111111111110100
1111111111111010
110000
1110
1111111111110011
1111111111111011
1111111111101101
1011
101
1011
1111111111011101
101000
1001000
1111111111101111
1111111111101100
1111111111111011
1
1111111111111000
1111111111110010
1111111111111011
1001001
1111111111110101
110101
1111111111110111
1111111111011011
1111111111011100
1000011
11100
1111111111011111
10000
1001
11010
1111111111011000
1111111111010101
100
10100
1111111111110000
100000
11
110010
1111111111110111
1111111111101000
1111111111001100
1111111111111100
100010
11110
1111111111110100
10001
1111111110110010
101100
1011
101000
1111111111110010
1111111111000010
10001
11110
110101
0
1111111111001100
1000111
1111111111111111
10
1111111110111000
1111111111111100
1111111111100100
1111111111100000
1000
101111
1111111111111001
1111111111111100
1111111111111011
1010
11110
1111111111010101
1111111111101000
1111111111100111
10010
1000100
1101
1111111111011010
111100
1111111111100001
11101
1111111111110010
101010
1111111111110000
100010
10000
100010
1111111111100100
101010
1111111111111000
110100
111001
1111111111101101
111
100111
11110
1111111111111000
1111111111101100
1101
1111111111011000
11100
101100
10000
10
1000110
1111111111100001
100111
110110
1010111
1111111111101111
100
1111111111000001
1
1111111111010111
101101
1111111111110000
1111111111010100
1100
1001
1111111111111101
1010
1111111111101101
1111111111010001
1111111111111010
110
1111111111100100
10101
1111111111111110
10110
1111111111101000
1111111111101101
1010
1
1111111111000110
10110
1111111111111011
100101
11011
1111111111011000
100110
111
0
10111
1011
101000
1111111111110011
1111111111100000
100001
10100
1011
1111111111110110
10011
1111111111111110
101001
100110
111110
1111111111111110
1111111111011011
1111111110111011
1111111110100010
1111111111110001
1111111111110100
10011
1111111111111000
1111111111001100
11100
1111111111110110
111001
1111111111101001
11010
10010
1111111110110100
1111111111101101
1111111111100011
1111111110111010
1111111111011101
11
1000
11111
1000101
1111111111101001
1111111111011101
0
1111111111111011
11110
1111111111101110
101111
10011
100
10000
1111111111111101
1111111111001010
1111111111100010
1111111111111001
0
0
1111111111011111
110000
100011
100000
1111111111101100
1111111111110000
1111111111110100
100101
10111
1111111111100000
1111111111000001
1111111111110101
