1111111111111100
1111111111101100
11011
10001
1111111111111000
1111111111101110
0
10100
1111111111010011
1111111111100100
1111111111100000
110001
1111111111101100
1111111111001000
11
1100
110101
101010
1111111111011001
1111111111110110
1111111111101010
1100
1111111111111001
10011
1111111111100110
1111111111110111
111
1111111110111100
1111111111101110
1111111111110110
1111111111001111
10000
0
1
1111111111110100
1111111111110101
1110
1111111110111110
110
10010
100101
1111111111010001
1111111111011011
1111111111101001
1111111111111000
10011
1111111111111010
1111111111110011
1111111111110010
1111111111110101
101
1111111111110001
100111
111011
1111111111101001
11111
1111111111110111
10000
1111111111111110
11000
1111111111011110
100000
111111
1111111110100011
11100
10010
1111111111111011
1111111111111110
1000
1111111111111011
1111111111001111
100011
1111111111011000
1111111111101010
101100
1111111111111101
101101
1111111111101010
1111111111011101
1111111111111101
11101
1111111111111101
110
101001
1100
101000
1111111111111100
1111111111001011
1111111111101111
101100
1111111111100110
1111111111110101
10100
1111111111101011
1000
100011
1111111111011110
1111111110110111
1011
1000
1111111111100100
100000
10010
1111111111011101
0
101010
111
1111111111010000
1110
1111111111100011
1111111111010001
1110
10011
1010
1111111110110010
1111111111111110
110010
1111111110110011
110001
11
1111111111101101
0
101101
11001
10101
100
1111111111111111
101111
1111111111101110
1100
1000
1111111111000001
1111111111111110
1111111111101000
1001
1111111111110001
1111111111110110
1100
1100
11000
101001
100
1111111111000100
1000
1110
10001
1111
0
111
1111111111010101
1111111111110011
11010
100000
1000011
1
11100
1111111111101010
1111111111110010
1111111111101000
10010
1111111111011111
1111111111011000
1000
1100
0
10111
11111
1111111111001100
10
1111111111111110
10000
1000
111000
1111111111101100
1111111111110101
11111
1111111110111001
10101
1111111111111101
1111111111111101
10100
1111111111010101
1111111111111011
11011
1111111111101010
1001
1111111110111000
10100
1001010
1
1111111111101011
1111111111010111
11110
100000
1111111111101101
1011
11100
1111111111111111
1111111111001101
11111
11011
1111111111011111
1111111111001001
1111111111110011
1000111
100
1010110
1111111111110000
10011
10110
1111111111110000
11
11
1111111111100001
1111111111111101
1111111111111010
1000
1111111111100011
1111111111011110
11111
1111111111100011
1100
10100
100100
1111111111110111
1110
1111111111111000
1111111111111101
1111111111000001
1101
1111111111010001
1111111111010110
100101
1111111111100110
11100
1111111111111100
1111111111101110
110
10001
1100000
10000
1111111111011100
1011001
101110
1111111111010100
1111111111010100
1111111111111101
1100
11100
1111111111011000
110110
1111111111111010
1111111111101000
1111111111011011
1111111111011000
111001
100101
1
1100
1111111111101011
1011
10010
1111111111001110
1111111111100111
1111111111010010
101110
1111111111011000
1111111111110111
1111111111101110
111101
1111111111110110
1111111111011100
1110
1111111111111110
1111111111101011
1111111111011100
101100
1111111111101011
100111
100000
1111111111000011
1111111111111001
1111111111110111
10011
10000
1111111111111110
1111111111100111
1111111111110000
1111111111111011
100001
1111111111000101
100100
1111111111101011
1010
1010
1111111111110000
1111111111011110
10101
10110
100010
1101
1111111111110101
1101
1111111111100111
1111111111011100
1111111111111100
1111111111111100
1110
1111111111111011
1111111111111100
100001
11111
11
1111111111110100
0
1111111111011101
1111111110111110
1111111111111000
1111111111110100
1111111110111001
1111111111010001
1111111111110000
1111111111110010
1100
100001
1101
1000
1111111111110011
1111111111011111
1111111111111001
11010
1000001
100011
11
101110
111101
1010
100111
110011
1111111111100000
1111111111111100
110010
1101
1001
111
1101
1100
11001
11100
1111111111101101
1111111111101111
101010
1111111111110100
1
1111111111010011
1111111111011101
101
1111111111011111
100100
1111111111110010
1111111111111001
1100
1111111111110010
1111111111111010
101011
1111111111110110
11110
0
1111111111100110
1111111110111100
1111111111100001
1111111111111110
100000
1111111111011101
1111111111101001
1111111111110000
110100
1111111111110001
1111111111100100
10010
10110
1000000
101000
1111111111110101
1111111110010101
11111
1010000
1111111111101010
111000
0
1111111111111101
1111111111101010
1111111111101100
1111111111011101
101101
111
10010
1111111111101101
1111111111010010
101001
101110
1111111111101011
100
1111111111111011
11
11101
110100
1111111111101000
1111111111010111
100
1111111111010010
1111111111100101
100001
1111
1111111111111101
11110
1111111111101011
1111111111100110
10100
1111111111110011
1111111111110100
1111111111001100
111
1111111111110001
101000
1111111111110001
1111111111111111
10000
10100
1111111111001010
1111111111111110
1111111111001011
1111111111101001
1111111111100111
1111111111010101
1111111111011100
1111111111000100
1010
10101
11000
10
1111111111111010
1111111111111100
10
1111111111111011
1
1111111111001101
10100
1111111111110100
1111111111110001
1111111111100010
1111111111101100
1111111111011110
1111111111100011
10010
1111111111000010
101111
1111111111111100
111001
100011
1111111111011100
1111111111110110
11011
101001
11011
1111111111001010
1111111111101100
11
1110
0
1111111111000101
1111111111100110
100
1111111111101000
1100
100101
1111111111110001
1111111111001001
1111111111110100
0
10000
10111
10000
1111111111010101
1111111111110100
1111111111111000
1111111111111111
1111111111111110
11101
1111111111011000
10101
101111
1111111111101101
1110
1111111111110101
0
101010
1111111111110101
1111111111101101
1111111111100100
111
1111111111011111
1100
1111111111101010
11110
1111111111000100
1111111111000000
10101
1111111110111110
10000
1111111111101000
10101
1111111111101110
100001
11000
1111111111101101
1111111111100001
1011
1111111111111111
1111111111110111
101
0
10
1111111111111110
1111111111110111
1111111110101010
11001
1111111111100100
110010
1000
100101
101100
1111111111111110
11010
1111111111011001
101011
1111111111000110
1111111111101001
1111111111011010
1101
1111111111110000
1111111111110010
1001
111000
0
101001
100
1111111111111011
1
10110
111000
100000
1111111111011011
1000
1111111111010010
100
110110
0
10101
1111111111000011
110001
0
1111111111101101
101010
1111111111001011
1100
10011
1111
1111111111100101
1111111111100011
0
11
1111111111110010
1111111111100011
11101
1111111111001010
1111111111111000
111001
11111
10011
1100
1111111111101110
11100
1111111111101111
100110
1111111110110111
10011
1001001
1111111111110011
1111111111111000
1111111111011000
1111111111111010
101101
10100
1111111111111101
101111
10011
1100
1011
1111111111011110
110
11111
1011
1111111111011000
1111111111010110
110010
1100010
1111111111010101
100010
10011
1111111111000101
1111111111111010
10000
1111111111010111
1001001
10110
10
1000111
1110
100011
110101
10111
1111111111011010
1111111111110001
1000
1000
100101
100101
1101
10111
1111111111110111
101010
1101
0
100100
1111111111011001
101001
101001
110
1111111111101000
11000
1110
1111111111011110
11011
1111111111110000
100000
1111111111101101
100000
1111111111101101
11111
1111111111111111
1110
1111111111000101
1111111111110111
1111111111001110
1111111111100101
100101
10101
1111111111111110
1
1111111111010100
10101
11001
10111
10010
1111111111110100
1111111111001100
11010
1111111111011110
1111111111011000
1111111111110110
1111111110110100
11010
11001
110
10000
1111111111110001
1111111111011000
1111111110111110
1111111111011101
101011
1111
1111111111100011
1011
1111111111100010
100
1111111111111110
1111111111100001
1111111111111001
10000
1111111111011101
11110
1001001
1111111111111100
1111111111101110
1101
1001
1111111111010111
1111111111101100
110000
11101
10110
1111111111011100
1111111111010011
1010
100011
100100
1000110
1111111111100111
1111111111111101
101010
1111111111010001
1111111111100000
100
10011
1111111111010011
11100
10011
11000
10100
1111111110110100
100
1111111111000101
1111111111100100
1111111111111011
1100
1011
1111111111111001
101101
0
110101
1001
1100
1111111111111000
1001
1111111111101010
1111111111011110
1111111111111111
1010
111100
100100
1111111111110010
1011
101
1111111111001011
1111111111000100
1111111111110010
100100
1111111111100100
1111111111111101
111100
0
1111111111001110
0
1
111110
1111111111110000
100001
1111111111011110
1111111111110100
1111111111110101
1000001
100
1111111111111011
1111111111101010
101001
0
101001
1111111111111001
1111111111011011
1111111111101001
1111111111111101
1111111111111100
1111111111010111
1111111111111011
1
1110
1111111111111000
1111111111100001
1000
1111111111110101
1111111111011011
1111111111011011
1111111111011011
