1111111111101110
11011
11010
10000
1000111
11000
1111111111100111
1111111111100111
11010
1111111111110110
1111111111100000
1001
11001
1111111111110001
1111111111110010
1111111111110110
1111111111111010
1111111111111010
1111111111011110
1111111111111001
1001
1111111111110000
1100
10001
1111111111101011
1111111111010101
1111111111011110
1111111111100100
1111111111000010
11100
1
1111111110111011
1111111111111100
11101
1111111111110011
1001
110
1111111111110001
1111111111101100
1111111111101111
1111111111101101
1111111111011110
1000001
100
0
1111111111111100
1111111111100111
0
1111111111110111
1111111111001000
1111111111011010
1111111111100111
10101
1111111111011110
101100
11110
1111111111011010
1111111111011101
100111
100100
1111111111110011
1111111111101001
1111111111100111
1111111111101001
111
100
101011
1111111111110110
1011
101000
10001
1111111111110111
1111111111111011
1111
1111111111010010
100010
1111111111110110
1111111111110001
1111111111110001
100110
1111111111101110
101110
1111111111110101
1111111111110010
1111111111101001
1000001
1111111111110100
11111
1111111111010000
0
1111111111011110
10111
100101
1111111111110011
101010
1111111111101100
10101
1111111111110111
1111111111101011
1111
100011
1111111111110001
1000101
1000000
1111111110100011
1111111111011100
1111111111101011
1111111111011000
1001001
1111111111010011
100001
1111111111110001
1111111111101000
11
1111111111110001
11001
1111111111111111
1111
1111111110110011
1010
1111111111111011
1111111111010011
1111111111111100
1010
110001
1111111111110001
1101
100001
1111111111100100
1111111111101110
10001
11101
1111111111011110
1111111111111001
10010
11001
1100
100100
101
1111111111011100
1001110
110
10011
1111111111111100
111
1111111111010110
101011
1111111111110010
1111111111111001
1111111111110111
0
1111111111011010
1010
100010
1111111110111011
111
100111
10010
1010100
1010
110011
1111111111110000
10010
10011
10100
10110
1111111111110010
100110
1111111111100110
1111111111010101
1111111111111110
1111111111111010
1001001
1111111111101100
10001
11
1000101
1111111111111101
1111111111010111
1111111111010011
1111111111111111
1110
1111111111111001
1111111111001001
1111111111001101
1111111111101111
1111111111111011
1111111111111001
101000
101110
1100
11110
101
1111111110111111
1111111111101010
100
1111111111001010
1111111111110011
1000
110
1101
1111111111100111
10110
1101
0
110110
1111111111011011
11010
101
100110
11111
100010
101111
1111111111110110
10001
10
1111111111100010
1111111110100000
1111111111110111
0
1111111111011101
111011
11000
1110
100011
111
1111111111011111
1111111111110011
1111111111110000
100000
100011
1111111111101111
10
10110
10011
1011010
101110
11011
1111111111100010
1001
110100
1110
1111111111100110
1111111111110010
1110
1111111111110101
11001
101
1000100
101111
100000
11000
1111111111011001
10010
1111111111101111
10011
1111111111001011
1111111111011100
11
1111111111001111
10111
100011
10010
1111111110110111
1111111111111111
1111111111001011
1111111111111010
1001
0
1111111111110000
1111111111110111
1111111111010010
1111111111010000
1111111111110011
1111111111011111
1111111111101100
1001
1111111111111101
1111111111110001
1111111111101011
101101
111110
10110
1010
1111111111101100
11001
1101
1111111111111110
110
1101
110010
100
1111111111111000
1111111111001010
1111111111110101
1111111111110011
101111
10010
1000001
1111111111011011
101
1111111111110110
1111111111110011
1111111111001100
1111111111001011
1000
11101
1000001
101001
1000111
1011
1111111111011110
1110
1111111111101100
1111111111001100
1010
10011
101
1111111111111011
1111111111110001
10
1111111111110100
101011
1111111111110101
11010
11111
11001
10
1111111111100011
1111111111100111
1111111111100000
1111111111001100
1010010
1111111110010101
1111111111111001
1111111111110110
1111111111001101
1111111111010101
1110
100111
1111111111100100
110
1101
10
100
1111111111011000
10011
1111111111101100
0
1111111111111101
1010
1000
1111111111010011
1111111111110011
1011011
1111111111000010
11100
10
11111
10001
1111111111010100
1111111111100010
101
1001
1111111110110100
1110
101
11000
1111111111011000
100100
10111
101010
1111111111110011
1111111111010000
1111111111101111
111110
1111111111111011
1111111111100110
10011
10011
100111
1111111111111010
1111111110111111
1111111111001101
1111111111111101
1111111111100111
1111111111110101
1111111111010111
1111111111011100
1100
1111111111011011
0
10110
11
1111111111111100
10000
1111111111111111
1111111111111001
1011
1011
1111111110111000
1111111111111101
1111111111000010
1011
11
0
10
1111
10111
1111111111101100
11001
1111111111101010
10
110111
1111111111100011
1010
111
110001
10100
1111111111101111
1
11
11
10
1111111111011100
1111111111101110
100101
10100
10000
1111111111100110
1111111111000000
1111111111110111
1111111111100100
11011
1111111111100001
11001
110
1
110
1111111111110101
11
11101
110
11011
1111111111100101
1111111111110001
1111111111111001
1111111111100000
1111111111111111
11110
1111111111110000
1111
10010
11111
101101
1111111111111001
1110
1000
11010
1000100
0
1100
1111111111101011
100010
101
1000000
1111111111111001
100001
100011
100111
1011100
1111111111011111
1100
111101
11001
11110
100000
0
1111111111111110
1111111111100111
1111111111001001
10011
1111111111111000
1111111111110011
1010
1111111111000000
1111111111110100
1111111111011100
1111111111011101
111001
1111111111010100
1111111111011100
1001
1111111111110010
11111
10111
1111111111110010
1111111111111010
1111111111100011
1111111111010110
1111111111110101
101
100001
1111111111100010
1000
10010
1111111111001101
1111111111010100
11100
1111111111101111
1111111111101011
1111111110111101
10010
1111111111100001
11100
1000011
1
101010
1001001
101010
1111111111101101
1111111111100100
11
1111111111111011
1000
1111111111101001
1001
1111111111111101
1111111111100111
1
1111111111101011
1111111111000101
1111111111101111
1111111111110011
0
0
1111111111100110
100000
1011
1111111111010000
1111111111000111
1111111111101011
1111111111100010
1111111111101010
1111111111101110
1010
10110
1111111111001101
1111111111101000
1111111111001010
1111111111111101
100000
100000
1111111111111110
1111111111101010
1111111111101101
11101
101011
1111111111111100
1111111111110000
1111111111000000
100100
1111111111110010
1111111111111111
1111111111010010
11011
10001
0
1111111111110010
1111111111110000
1111111111111110
1111111111100010
10101
1111111111111110
1111111111010010
100001
1111111111101110
11
1111111111100111
110
1111111111111100
111100
110
1111111111111100
1111111111000101
1111111111110111
1111111111110010
1111111111101011
11001
10100
1111111111100000
1010
1111111111100011
1111111111110010
10001
1111111111101110
11010
10
1111111111101010
1111111111111101
1111111111101111
10011
1111111111010011
1111111111011101
1111111111011110
111
1111111111100001
10010
1000
1000000
1111111111101000
1111111111110010
1111111111100110
10110
1111111111000101
101
1111111111101100
10100
1111111111011110
111
101001
1111111111011101
1111
1110
100
1
1111111111101001
1111111111011001
1111
100001
1111111111110011
1111111111111001
1
1110
1111111111000001
1111111111100100
101110
101011
11000
1111111111100011
1111111111011110
0
11100
1111111111010111
111
110011
1101
10001
1111111111010010
10001
110
1100
1111111111110000
1111111111011011
1111111111000001
100000
1111111111110001
11101
1111111111100101
11101
1111111111100101
11001
100100
0
10
1111111111101001
10011
101
100100
1111111111110000
1111111111110010
1111111111110110
1111111111100100
1111111111110100
1111111111100010
10001
111
1111111111010100
1111111110111110
0
1111111111101100
11000
100
1111111111111101
100011
110000
101101
1111111111101010
1111111110111110
1011
1111
11001
1111111111111001
1111111111011100
1111111111110100
11111
1111111111100111
1111111111110100
10110
1011
111
11011
1111111111111011
1111111111101111
110100
1110
101001
1111111111111100
1111111111010101
1100
1111111111101110
1111111111100101
1111111111101001
1111111111101111
100101
1111111111011111
10001
1001
10010
1111111111110111
111
0
1111111111100101
1011
111111
1111111111110101
1111111111110011
1111111111101001
0
1111111111111111
1111111111110000
1111111111110011
1111111111101001
1111111111001110
1111111111010001
110111
1111111111001111
1111111111001111
1111111111110100
10110
1011
10111
1
101101
1010
101101
1100
1111111111110000
110000
1111111111101001
100010
1000001
1111111111110010
100101
10001
1111111111100010
11
10011
11
100100
1111111110111000
1000001
1111111111100011
1011
100110
1111111111011111
1111111111110111
111
1111111111101110
1111111111011001
1
100100
1110
1111111111011100
1111111111101111
11010
110011
1111111111110110
1111111111101011
1010
1111111111110011
1111111111110100
10
111111
