110010
1111111111111100
1111111111101101
11110
1111111111010010
1111111111101000
1111111111010110
1111111111100011
10011
111
101001
101100
1100
1111111111001001
11
1111111111011011
101100
1101
0
110000
1111
1111111111100011
1111111111111011
100011
1111111111110100
1111111110011110
0
100110
101000
1111111111110111
11010
100001
1111111110101101
1001000
1100
11001
1111
11011
1111111111110101
11000
101111
101
1111111111100010
1011
1111111111100011
1111111111111110
1010
1111111111101001
10101
10000
1111111111111000
1111111111100011
1111111111001101
1111111111110111
1111111111010000
110000
11000
1111111111100000
1111111111010011
10101
10100
100010
1111111111111010
1111111111110010
10000
1111111111101101
101001
10111
1111111111111010
10001
101011
1111111111110010
0
1111111111100010
1010100
0
101110
1111111111110000
1111111111111001
1111
11111
110010
1010
1111111111100110
1111111111110101
1111111111110101
1110
100001
1111111111111111
1111111111010001
101011
1010
1111111111111010
100101
10010
10100
100011
101001
100011
100011
1
11011
110100
0
11
1111111111011000
1111111111111101
1111111111010110
11000
110010
1111111111111010
1110
1011
1111111111011111
101111
1111111111101111
10011
1111111111010100
100000
1111111111010001
1111111111101001
10110
1111111111100110
1111111111111001
1111111111110111
1111111111101100
1111111111101110
1111111110111010
1
1111111111001011
100110
1111111111110010
0
1111111111110011
1111111111111000
10100
100
1111111111111000
1111111111010111
1111111111111001
11
1111111111101101
1101
1100
1111111111111010
100111
11010
1111111111001101
1111111111011001
1111111111101101
10
1111111111110010
1111111111111011
1111111111010101
100
100010
1100
1111111111111100
1111111111100010
1111111111100110
11011
1111111111010001
10000
1111111111100110
100001
1111111111011111
100100
1111111111100001
10001
1111111111110100
1111111111110101
101111
111
1111111111110100
1111111111110111
11
1111111111000110
101
1111111111111111
11110
1010
1111111111110110
1000010
1111111111110011
1001110
1111111111100000
1001
100
1111111111111110
101
101001
1111111111101000
11101
1111111111010000
11111
1111111110100101
1111111111111111
100000
10
100100
101011
10011
1010
10000
1111111111101100
10010
1111111111011100
111101
110100
1111111111110100
0
1111111111011011
1111111111101111
1111111111111110
11011
1111111111011100
1111111111011110
1000
1111111111100000
100011
110100
1111111111110000
1111111111100000
1111111111100011
101
1111111111101111
1000110
1111111111111111
1
1110
11001
11100
1100
1111111111101011
1111111111110000
10111
1111111111110010
1111111111100110
1111111111111010
1111111111000110
101
1111111111110010
1010
1111111111111110
100010
101011
1111111111111101
10101
1111
1111111111100110
11101
11001
1111111111110101
10001
1111111111000111
10011
1111111111011000
1111111111111100
1111111111011000
111000
1111111111000010
0
10110
1111111111101010
10110
1111111111010110
1111
1111111111100101
1
1111111111111010
100110
11
100011
1111111111111011
1001
10
1111111111110100
1111111111000010
10011
1111111111110101
10110
11110
1111111111110101
100
1111111111010010
1111111111110111
1111111111001110
1111111111010100
10101
11000
1111111111010111
111
1111111111110001
1111111111100101
1111111111111111
111001
1111111111101110
11111
1101
10101
1111111111111111
110001
1000100
1111111111111001
1001
1111111111101001
100000
1111111111101001
1111111111001010
1101
11110
1111111110110101
1111111111100000
101100
111
1111111111100100
11000
1111111111110101
1111111111011011
1000111
1110
11111
1111111111111010
1111111111111100
1111111111110101
1111111111101111
110
1111111111100110
1111111110010011
1111111111111011
10101
11111
1111111111100010
1110
1111111111111010
1011
11110
11110
111100
100101
1111111110111000
1111111111110110
10
1111111111100111
1111111111110001
1111111111100000
111010
11001
10111
1111111111110011
1111111111001000
110
100011
1111111111000110
111
101011
100
1111111111110100
1111111111111001
1001
1100
1111111111001010
100011
10110
10
1111111111100011
101000
1111111111111111
1111111111010100
110
10100
11
100010
11101
1111111110111100
100000
11101
1111111111110101
1111111111001111
1111111111100100
1101
1100
1011
1111111111010011
10000
10011
1111
1111111111111011
1001
1111111111011010
1111111111111111
1111111111111000
1111111111100101
1111111111100010
1111111111100001
1111111111100011
1111111111110100
1111111111111110
1111111111100000
101110
10111
1111111111101111
11110
1111111111111110
111
100
1111111111110100
11011
1101
1111111111111011
101
1101
1111111111000111
1111111111100001
10010
10011
111
1111111111011101
100001
100100
1111111111110101
1111111110111011
100111
1111111111010100
1111111111101110
110001
0
1001
100
1011
1111111111101011
1111111111000101
1111111111110000
1111111111100001
1011
1111111111001001
1111111111100101
1111111111110101
1111111111001100
1111111111100000
1111111111101111
1111
1111111111111010
10010
1111111111111010
111
111
111010
1110
1111111111111011
1001010
10110
1111111111101101
0
1111111111111011
1111111111110010
10000
1111111111110111
10110
1111111111101111
1111111111100100
110000
1111111111101100
10010
101001
100101
1111111111100100
1111111111100111
0
101000
11111
1111111111101010
1111111111100110
1010
1111111111010110
1111111111111000
1000011
1111111111111000
1111111111001110
101
1111111111110111
1111111111001100
100111
1011
10
1111111111110101
1111111111111100
1111111111100100
10001
1100
1110
100011
110100
1111111110101101
1111111111100101
10100
1010
1111111111000101
1111111111111010
1111111111101110
1011
1011110
1101
1111111111111101
1111111110111110
1111111111111011
1111111111011011
1111111111111110
1111111111111100
1101
11000
1111111111100100
10000
10001
101110
11
11
11
1111111111011000
1111111111110101
0
1111111111001101
1010
1111111111111110
111110
1010
101
10101
100111
1011
1111111111100100
1111111111101101
1111111110110011
1111111110110100
1111111111100011
1111111111000101
1111111111111001
10100
10101
1111111111110010
10111
1111111111111110
1111111111111111
1111111111100110
101000
1111111111010111
1111111111101011
1111111111110001
1111111111111001
1111111111111011
1111111111111100
0
1001
11000
1101
1111111111110010
1010
111000
100
1111111111010011
11111
1001000
1111111111010001
101101
1010
1111111111000100
10110
1111111111110010
1111111111100010
1111111111111000
100
100010
10101
1111111111101101
1111111110110010
100011
1111111111001101
100101
1111111111111100
11001
1111111111110011
11001
1111111111110111
10101
10
1111111111010000
1110
1111111111101111
1111111111001011
100
110
1111111111110111
1111111111000110
1111111111111011
10101
1111111111100010
1111111111000111
1010
101000
100111
11000
1111111111001011
1111111111001011
11011
1111111111010001
1111111111111000
1111111111110111
11001
1100
1111111111100011
1111111111101000
1111111111100010
1111111111110000
1111111111111001
1
1111111111100110
1001110
101001
1111111111111000
10011
110000
1111111111000110
1
11010
1110
111111
10011
1111111111001111
1111111111111001
1000001
101010
101
1111111111011101
1111111111111110
1111111111111010
1011
10100
1111111111111011
1111111111100100
1111111111100011
100000
1111111111101000
10100
1111111111110101
1111111111111101
1111111111010101
1111111111100000
1111111110101101
1111111111000010
1111
1111111111100110
11010
10001
1111111111110010
1111111111111111
1011
111000
10010
1111111111001111
1111111111001110
1111111111111110
1111111111110101
1000110
1111111111110010
1111111111100101
1111111111010001
100101
1111111111110101
1111111111110101
1111111111101110
1111111111101001
1111111111111011
0
101001
10110
111
1111111111101111
1110
11011
1111111111110011
10011
1000
11111
1111111111100110
11
111
10101
1010
1111111111101010
1111111111001110
1110
1111111111111010
1001000
1111111111110001
10
1111111111001000
10110
11000
1111111111001101
1111111111011100
1001001
101
1111111110100100
101000
111010
100001
11001
1111111111110100
1111111111110101
10011
1101
1111111111011011
100111
1111111111110011
1111111111101111
1111111111110101
10011
110001
1111111111100110
101100
1011
110011
1000
10000
1111111111100111
11
1111111111111101
110
1000
11000
100001
11110
1011011
111101
10101
1111111111111001
110
10101
1111111111011001
1111111111001010
1111111111111101
1111111111101011
1111111111010000
1111111111011110
10110
11011
1111111111010001
1111111111111010
11000
1111111111101001
1111111111100001
1110
1011
111
11010
110001
1111111111100110
101111
1111111111110101
100000
10100
10110
1111111111011111
1111111111100111
1111111111011101
1100000
1111111111101110
11111
100110
1111111111110001
1111111111110000
10010
1111111110111110
0
1111111111111111
1111111111001101
1111111111110101
11000
1111111111100111
1111111111111011
1101
10111
1111111111001011
1111111111001110
