1111111111101000
1111111111101001
1111111111010000
1111111111111001
1111111111100101
1111111111100111
1111111111111101
1111111110110110
1111111111011110
10111
1111111111110110
1111111111100010
1111111111011011
1111111111010110
1111111111111000
100101
0
1111111111010100
1111111111110010
11100
1111111111100010
111110
1111111111101111
11011
110
10110
11010
111010
10100
1111111111010100
1111111111110011
110101
11011
1111111111110110
1111111111001010
1111111111110010
1111111111111101
1001
1111111111111000
1100
1111111111111101
1110
1111111111100011
1111111111110011
1111111111111111
0
1111111111101010
1111
1111111111110101
100101
1111111111001101
11
1111111111110000
1111111111111001
1111111111111101
10011
1111111111111010
1111111111011110
1111111111110100
11111
1011
11000
111011
0
1111111111100110
101001
1111111111100111
1111111110111010
1111111111101100
1111111111001010
1111111111101011
10010
11
1111111111011001
101000
0
1011
11001
1111111111100011
1111111110111110
101101
1111111110111100
1111111111111100
1111
101101
111
10111
111011
1111111111101111
1111111111101100
1111111111101010
1111111110111000
1111111111101101
111000
1111111111000111
111010
11001
110011
100111
1111111111110101
100111
1111111111010110
1111111111101000
111010
1000111
1111111111101101
1100
1111111111100100
1000
11010
1111111111111111
10111
1111111111000000
1111111111000101
10101
1111111111100010
1011
11101
1111111111111101
11001
1111111111111111
1111111111011111
111100
1111111111100011
1111111111110111
111001
1111111111111000
10011
1111111111011110
1111111111100011
1111111111011100
1111111111111011
11010
1111111111001111
10111
11101
1111111111011110
1111111111100001
1111111111101001
1110
1111111111100011
1111111111001110
1111111111111011
1111111111110000
100010
1111111111010111
1111111111100101
1111111111110101
10
101
1111111111100000
110
100100
1111111111110101
1111111111110000
1111111111110111
1111111111101001
1111111111010100
10000
1111111111101001
1111111111001100
10110
10
1111111111010101
10100
1111111111101111
1001
1111111111111011
1111111111000101
100010
110
1111111111100110
110000
1111111111110111
100000
1111111111011010
1111111111100110
10110
1011
1110
100000
1111111111101110
1111111111101100
1111111111101111
11
1111111111001111
1111111111010111
1111111111010000
1101
11000
111011
1
1111111111111011
101111
100011
1111111111101000
1111111111111111
100100
101000
1111111111110011
1111111111011000
1111111111110001
1111111111100110
1111111111011111
1111111111111101
1001110
1100
1011
11011
1101
0
1001
101011
11001
110111
1111111111011111
111
11101
1111111111100000
1111111111001110
1111111111001101
101100
100111
1111111111110110
1111111110101001
100110
0
11001
1111111111111001
1111111111110011
1111111111011011
1111111111111010
11000
110110
1
1111111111110001
110
101
10100
1110
1111111111111011
11101
1101
1111111111111010
11000
11001
1111111111111101
1001
100
1111111111110010
1111111111111001
1111111111111101
101
1111111111011101
1111111111110101
1111111111010010
11100
1111111110110010
1111111111101010
100100
100000
10011
1001
1
1111111111011011
1111111111110100
110
1111111111100111
100000
10000
1111111111111100
101110
110010
1000101
1111111111110100
1111111111110111
11001
10101
1111111111101111
1111111111110011
1110
1111111111011011
11100
1011
1111111111100001
101111
1111111111001010
111101
10111
1111111111100100
1111111111111000
1111111111111100
1
1111111111010011
11110
1111111111101100
11010
10110
11111
1111111111100101
10101
10111
1111111111110011
0
1111111111001111
1111111111010100
0
11011
10110
1111111111110011
1011
111100
1111111111111001
1111111111010111
1111111111000110
1111111111100101
1101
1111111111111101
1
1111111111001110
111
1111111111101001
1111111111110111
1110
1111111111100001
1111111111111111
1000
1111
1111111111111100
11011
1011
11100
10010
1111111111101010
1110
11000
1111111111111011
1000111
1111111111001110
1111111111101010
1111111111100101
110000
110101
1111111111011010
0
10010
100110
1111
1111111111000001
101100
10111
10010
10
1111111111111010
1111111111010110
100000
1111111111011010
1111111111001011
10101
10101
11
1111111111100110
1111111111111111
1111111111010101
10010
1111111111000101
1111111110101000
1111111111110100
1111111111011110
1111111111011011
1010
1111111111111010
110110
10110
1111111111101010
110000
1111111111110000
1010
100010
11001
1101
1111111111010100
1111111111111110
1111111111100110
1111111111110100
1111111111110001
11001
1010
1111111111111101
10110
1000000
1
10100
111
1111111111110101
11110
100
1100
101100
1101
1
100001
1111111111010110
10101
1111111111110011
1111111111110011
1111111111100111
101100
10110
11
1111111111010101
10
11000
1100
111
111
1111111111111110
1111111111010001
1111111111100100
1111111111010111
1010
10
111111
101
1111111111011101
1111111111111100
1111111111011010
1111111111011000
1111111110111100
1101
111001
1111111111111100
1110
0
1111111111011111
1111111111101010
1000010
1111111111110011
1111111111100001
1111
100
100101
11010
1111111111110101
1111111111010110
1111111111011000
1111111111001111
1111111111101111
1111111111111111
1111111111101111
11
0
1111111111100001
1111111111001110
1
11010
10110
1111111111101011
110010
101
110
1111111111110110
1111111111111100
10101
10110
1111111111111100
1111111111101011
100
1111111111111100
1111111110111011
1111111111110001
1111111111000010
1111111111100010
1111111111111000
1101
11011
1111111111101001
1001
11101
1111111111110101
1111111111111000
10010
1111111111101001
1111111111111110
1111111111111000
11111
1111111111111000
1111111110100100
1111111111011100
1101
110
1111111111111100
101
0
0
1111111111000111
1111111111100110
1111111111111101
1111111111101110
101
1111111111100101
1001
1111111111110100
1111111111100111
1111111111100001
1111111111110101
11101
111000
1111111111101100
1111111111000101
1000
10011
100110
11110
101001
1111
1111111111101001
1111111111111010
11010
1111111111100110
1110
101000
101000
1111111111011011
1111111111011011
1111111111111101
1111111111001001
1111111111110101
1111111110101110
1011101
11001
1111111111101001
10110
1111111111011101
100101
1111111111110110
0
10010
1111111111101100
10011
1111111111101000
1111111111111100
1111111111110110
10
1111111111111100
101001
101011
1111111111100101
101110
10001
1001
1111111111101000
1111111111110010
1111111111111110
1111111110111110
1011
110111
11001
10011
1111111111100110
0
1110
1001110
1111111111001111
1001
1111111111110000
10110
1111111111110010
110001
1111111111111100
1101
11111
1110
11100
11100
100000
1111111111110110
1111111111001001
1110
111000
0
1111111111000110
1111111111110110
1111111111110100
1101
1111111111101000
1111111111101111
10110
11010
100101
110000
1111111111100000
1111111111100110
1111111111111011
1111111111101111
1001
110001
1111111111101110
1111111111110100
1111111111111011
1111111111110001
1111111111101000
101100
1111111111111100
110
111
1111111111110101
10000
110
1111111111101101
101011
110000
10100
100001
1110
11100
111101
10011
1111111111101001
11011
1111111111111000
10000
1111111111111000
1111111111101100
1110
1
1111111111110010
10110
1111111111011010
101101
10001
10100
1111111111100001
100011
1111111111111110
1111111111101001
10
1111111111110111
0
1111111111100100
101000
100100
1111111111001010
1111111111100000
1000000
11000
1101
1111111111101100
110
1111111111011100
1111111111111001
101010
1111111111010110
1111111111001011
1111111111010001
100101
1111111111110100
10110
1111111111110000
101101
1111111111011000
10011
1110
101
1111111111010101
10001
1111111111101001
1111
100011
1111111111001010
1111111111101000
11111
100
1111111111110011
10100
1111111111111010
1111
101101
101111
110
10000
1111111111111110
1111
0
110000
101011
10000
101001
100010
1111111110110111
1111111111110110
1111111111100111
1111111111100100
1111111111111100
1111111111001100
100
1000011
10110
1111111111100111
1110
0
100
1111111111011001
1111111111111110
1111111111100001
1111111111101101
10110
1111111111011011
101001
11110
11
1111111110111011
1111111111111010
1111111111111011
110
1111111111110011
1111111111111101
1111111111011101
1111111111101011
1111111111111100
1111111111110111
1111111110111011
1111111111110101
110101
0
1111111111101010
1111111111011111
10011
1111
1111111111111100
11100
1111111111111000
1111111111010000
1111111111100111
11001
101001
1000110
11000
1111111111111100
1111111111110010
1111111111101111
1
101011
1111111111011011
1111111111111001
1110
100011
1111111111101110
1111111111100010
1111111111101000
111010
1111111111011011
1111111111000011
1111111111010111
111
1111111111001010
10000
1111111111000000
1111111111101011
1111111111111111
100011
1111111111100101
1111111111101011
1111111111100100
110
11101
1111111111100100
110001
1111111111110000
1110
1111111111101011
10111
10110
111001
1001
100011
1111111111000001
1111111111100011
10001
1111111111100110
1111111111110001
1001
10001
1111111110111101
