101111
1111111111000111
11
1111111111010101
1111111111010011
1111111111110111
1111111111100100
1111111111100110
11001
1111111111100010
10111
1111111111000101
1111111111000001
1111111111011001
1111111111010011
1011
1111111111001011
11010
10001
110010
11111
1111111111100101
11100
11000
1111111111010110
1111111111101110
1
1111111111110000
10100
1010001
1111111111111110
1000
1111111111100011
1111111111111100
10010
11011
1111111111100001
1111111111110101
1111111111010001
1000111
10000
110
10110
1111111111100100
1000000
101
1111111111100111
10000
1111
111110
100100
1111111111110001
101
1111111111011101
1111111111101011
111011
1010
1111111111100100
1111111111110001
110001
10001
1111111111001001
10
1111111111010010
111
10101
10000
10101
1111111110111000
1111111111011111
1111111111100110
10010
1111111111111110
111111
11111
1111111111100001
1111111111011010
1111111111110110
1111111111011111
11101
1111111111011110
1111111111110101
1111111111110001
10011
10110
100
10011
110
10000
1111111111111101
10001
1111111111100010
1111111111101001
1111111111110000
1111111111011000
1111111111101110
100110
111000
1000
110
100101
1111111111100001
101010
10011
1
111100
1111111111011000
1111111111101101
1111111111011001
1111111111101101
111010
111
1111111111110110
11110
10001
1111111111010100
11110
1111111111100101
1110
1111111111010101
10010
11111
1111111111101010
1111111111111010
1111111111001101
1100
1100101
0
11011
100001
10011
10011
1111111111111110
1111111111111011
11000
1111111111011100
11100
1111111111011111
1111111111011001
110
1111111111100111
1111111111111110
110010
10001
100001
1000
1111111111000011
101010
1011
1111111111010110
11010
1111111111110100
1111111111111110
1111111111110011
10110
1111
1111111111100010
1111111111111000
1110
1111111111101011
1111111111111000
1000010
100011
11100
1111111111110101
1111111111011101
1111111111100010
1111111111111000
1111111111111111
1111111111100100
1111111111111111
1111111111110001
1111111111010111
1111111111011010
1111111111001011
1111111111110111
1111111111111111
1000
1111111111111010
1111111111100000
1111111111111101
1111111111010111
1111111111110011
101100
0
100110
1111111111110100
10100
1111111111100011
100000
1111111111011101
110001
1111111111111001
101110
1111111111001101
100
10111
11111
10000
1111111111011101
100000
1111111111100001
11010
100100
1111111111110000
1111111110110111
1111111111111100
10100
10010
101000
1111111111010100
1111111111011101
1111111110011110
110110
111101
100010
101101
1111111111101111
1111111111010000
1111111111011110
1111111111101010
1111111111110011
1111111111100011
110110
1111111111100010
1110
1111111111101101
1011
11010
1111111111111110
11111
101
1111111111000101
1001
1111111111100010
111101
1111111111110010
1111111111111111
1111111111110101
10001
10100
1111111111111000
1111111111001001
1000
11100
1111111110110110
1111111111011101
1111111111010000
1111111111110100
1000011
1111111111010111
1000
1111111111110010
110011
110100
110011
1111111111011100
1000000
1011
100
1111111111110011
1111111111001101
1111111111100111
1111111111010100
10111
1111111111111011
101111
1111111111010100
11001
1111111111110111
11100
11
1111111111110111
1111111111111110
10111
11000
11110
1111111111101111
1010
1111111111110001
11100
111101
1111111111110100
1111111111101110
11010
100010
10000
10011
110
10110
100011
101000
1001
1111111111100100
1111111111111100
1001
1111111111100111
1111111111110110
1111111111110110
1111111111111010
1110
1111111111110001
101010
110011
1111111111011001
10111
1011
1111111111100000
10011
1111111111101011
1111111111010101
1111111111101000
110001
1111111111101111
1111111111010100
10100
1111111111101001
1111111110110001
1001100
1111111111000010
111010
11010
1111111111011000
1111111111011100
100111
1111111111111010
1111111111101001
1111111111100001
1111111111110011
101100
1111111110110011
1111111111101100
110001
1111111111111001
10100
1111111111010100
1111111110111000
1111111111101010
100001
1111111111111010
10110
1111111111101110
10110
1111111111110010
1110
1111111111011010
101
11111
1111111111101111
1111111111001110
1111111111100100
0
1111111111001100
1
100001
10111
1111111111101000
1111111111000101
1111111110111100
100010
1111111111100000
1111111110101101
100
101011
100111
1111111111011100
0
1111111111100110
1111111111111110
11011
11010
1011
10010
111
1111111111110000
10111
11001
1
1
10111
1111111111101001
110000
1111111111100011
111
1111111111111011
1101
110
1111111111100111
1111111110110011
110101
1111111111100010
1111111111111001
10
1111111111010110
1111111111100001
1111111111100010
1111111111011110
11001
1111111111110010
1111111111011100
100
1111111111110000
101001
1111111111110100
1111111111011000
1111111111101100
101100
11010
111010
1101
10010
1101
1111111111101110
11100
1111111110111111
1111111111111111
1111111111101100
1111111111110101
100110
10111
1111111111110000
100110
1111111111110111
1110
111110
10100
110110
100
1111111111111111
110010
11011
10100
1111111111110101
1111111111101111
1111111111111010
1111111111110110
1111111111101100
1111111111110001
10011
11101
10001
10001
1111111111101010
1111111111100001
1111111110000100
1111111111110101
1111111111011011
11011
111
1111111111111001
1001
1111111111101111
1111111111101100
1111111111010101
1111111111110001
1111111111001001
1111111111100111
1111111111100000
101010
1111111111011100
11
1111111111111000
1111111111001001
1111111111010010
1111111111101111
1111111111111101
1111111111101000
1111111111111110
1011
1111111111101000
101001
1111111111110000
100010
11011
1111111111100000
110
1100
1111111111101100
111010
10111
100111
101101
101100
1111111111110111
1111111111001110
1111111111111110
10111
1111111111001110
1111111111101101
101111
11110
1111111111100010
11111
10110
1000111
10
10111
10111
1111111111100010
1111111111001110
10011
1011
110101
1111111111101001
1111111111101000
111
1110
1111111111011001
1111111111010110
1111111111101111
11011
1111111111101111
1111111111100010
1111111111111001
1111111111011100
10110
10010
11000
0
1111111111011100
1111111111110010
100
1010
1111111111110001
1111111111110100
1111111111101010
1111111111111000
101110
10011
11
101111
1111111111110111
11111
1100
100
1111111111100000
1001110
11
1111111111011101
1111111111010010
1111111111110001
1111111111110000
1111111111011011
1111111111011111
10010
10
110110
1
11110
1111111111111110
1111111111100011
1111111111011100
1111111111011110
1011111
10
1111111110111100
1111111111111101
1111
10
1111111111111001
1111111111101101
10001
111
1111111111110011
1111111111000011
1111111111101000
101100
1000101
1111111111110111
10111
0
1111111111100100
101000
1111111111100110
1111111111100001
101
1110
1111111111111011
11111
1111111111110111
111100
1000001
1111111111111110
1111111111101100
1000
1111111111111111
11000
1111111111111011
10101
1111111111111101
1111111111111100
11001
11111
11111
101111
11111
1111
1000001
11001
1111111111110000
1111111111001111
1111111111001100
1111111111111001
1111111111100000
1011011
1111111111100111
101100
1111111111010001
1111111111101101
10
1111111111001100
100011
10011
1111111111111000
1111111110101010
1111111111110011
100110
10101
0
10110
101010
1111111111111101
111001
110011
1111111111111011
1111111111001001
100100
1111111111110011
101110
1111111111100001
1010001
1111111111011101
100000
1100
1111111111010110
100111
1000001
10
1111111111011010
1111111111101101
1101
111
1111111111101001
111
111
1111111111110110
1111111111101110
1111111111111101
1111111111101111
11100
1111111111110001
1100
11111
10010
100000
1111
101011
0
1111
110111
1111111111110011
11100
111
1111111111100110
11
0
11010
1111111111110110
110
11001
1001
1011
11111
1
1111111111101111
1111111111100110
1111111111100111
1111111111110001
1111111111001010
1111111111111100
101101
1111111111001101
100010
1111111111100100
1111111111110110
1111111111101111
1111111111110100
11100
101011
11001
1111111111101111
1011
10111
1001
1111111111100101
101101
1111111111111101
10001
101
1111111111101101
1111
111
11010
1111111111111110
100010
100001
1111111110101100
101
1111111111100010
1111111111110001
11100
1111111111000011
1010
1111111111100010
11100
11001
100000
1111111110111110
1111111111111111
1111111111101110
1111
1111111110111011
1111111111011111
1111111111011001
1100
1010
111
1111111111110111
1111111111100110
101110
1111111111111001
1111111111110101
10001
1111111111010000
1111111111100111
10110
1111111111101101
100011
100001
100
1111111111101101
100100
10001
1111111111101111
1111111111110110
1111111110111100
1111111111111111
1111111111010001
1111111111000101
1100
1110
1111111111111000
100001
1111111111001101
1111111111111011
1111111111011011
110110
1011
11000
1111111111111101
1111111111100000
11001
101011
1111111111100100
10
1111111111111011
0
1111111111100000
1111111111110111
1001
1111111111100010
11101
110011
1010000
110
1111111111001101
1111111111111110
10010
1111111111110111
1111111111011100
1111111111110000
1111111111110100
1000010
1111111111111011
