100001
11011
10100
1111111111101010
1111111111110010
1111111111111100
101100
11110
1111111111110011
100011
100010
1111111111110010
1111111111000100
1111111111110100
100001
1111111111010111
11000
101101
100010
1111111111110000
1
1001
1111111111001110
1111111110101011
1111111111010010
1110
10
1111111111101110
1111111111101101
1101
1111111111101010
1111111111111100
1011
10
0
1111111110101000
1111111111111010
1000101
1111111111110110
1111111111110011
0
1111111111100110
1001
10010
1111111110011100
0
1100
1111111111010110
1111111111111001
1111111111010000
1000011
100101
1101
11011
1111111111101110
110
1111111111010000
1111111111001101
11101
1111111111101000
1111111111100100
111
1111111111110101
1111111111111011
1111111111110101
1111111111101110
1111111111100010
11001
11001
1111111111101111
101100
101110
1
1111111111111011
1100101
1111111111011000
1111111111011000
1000001
1111111111111011
1111111111111110
1111111111111101
1010
1111111111101111
101
110110
1111111111100011
111
10001
1111111111101111
1111111111111100
1111111111111010
11110
11
1111111110111001
101000
1
11100
110100
1011
1111111111010001
10001
1111111111110110
1111111111100000
110001
1111111111110101
10001
1111111111000111
1111111111011111
11101
101101
11011
11001
10100
1111111111110111
100000
1111111111010011
1111111111110100
1111111111111100
10100
110
101010
1111111111110010
10111
101
11011
1111111111110011
111
11000
1111111111101001
1110
100111
1111111111100001
1111111111100110
110010
10101
1111111111111010
11
1111111111111011
101001
1111111111101000
1111111111111000
101
1111111111001111
100110
1111111111011110
10010
10001
1111111111110010
1111111111110100
1111111110111000
1111111111110100
1111111110110110
11011
101
100010
1
1111111111111101
1111111111100100
1111111111100110
101100
1001
1111111111111011
1100
101
1111111111101100
101111
1010
1111111111010110
1000
111111
1111111111011110
10100
111
111101
110000
10111
1111111111000111
11010
10101
11010
1111111111101100
1
0
1111111111100111
100111
100010
111
1111111111111110
1111111111011101
100101
1111111111111011
10100
100111
101101
0
1111111111111111
101010
1111111111110110
1111111111011010
11010
1
11010
100100
10101
1111111111100011
1111111111110101
1111111111001100
1111111111001111
1111111111111101
1
110010
1111111111111100
100001
111101
100011
1111111111110100
1111111111110101
11010
1010
1111111111100100
1111111111110100
1111111111011111
10
1111111111110001
1111111111011101
1111111111110111
1111
1111111111101010
10110
1011100
1111111111111000
1111111111010111
11101
1111111111011010
1111111111110001
10
111101
1111111111110100
11
101001
10000
1010011
1011
110
11101
1111111111101110
10100
0
1010
1111111111100011
111011
101011
10111
1010
10000
1111111111110010
1111111111010001
11100
1111111111111101
1111111111110010
1111111111011101
1111111111101110
11001
1111111111011111
1111111111000011
1111111111010001
11
1111111110110111
1000
100001
10101
10010
1110
101010
1111111111111111
1111111111011001
110
10001
1011
1111111111101111
1111111111100111
1111111111101100
111011
11010
10
1111111111110001
1101
1111111111110111
101
10010
101
100111
0
100001
11101
11100
1111111111010011
11011
1111111111110101
1001
100
1111111111010001
1111111111000100
1111111111111000
1111111111010111
1111111111000101
1111111111111011
1111111111110010
1111111111110111
10011
10000
1111111111111011
1111111111110100
100010
1111111111100010
1111111111101000
11
1111111111111000
1111111111100000
101010
111100
1111111111111010
1111111111100101
1100
1111111110100000
1111111111010111
1111111111110010
111100
1111111111011110
0
1011
111100
10101
100
111001
11011
1111111111111010
101011
100111
1111111111101110
1111111111011100
101111
1111111111111010
1111111111100010
100
101111
101110
1111111111101010
11010
1000011
1001
10001
10000
1111111111110110
1111111111111100
1111111111111101
1111111111001000
11101
101101
1111111111110011
1111111111100110
0
111100
1010
10001
1111111111010110
1111111111110000
1111111111010001
1111111111100100
1111111111010110
11001
1111111111011111
11010
1111111111111110
1111111111110011
111000
1111111111111100
10000
1111111111110011
1111111111101100
1111111111000110
10110
110101
1000
100001
1000111
1111111111010001
10011
1100
1111111111010110
11
100100
0
1111111111101101
10101
1111111111101010
1111111111110001
1111111111111000
1111111111011101
1111111111110010
1111111111100001
1000100
100
10101
1111111111001010
11000
1001
1111111111101011
1111111110110011
111011
1110
11000
110100
1000
1011
101111
1111111111101000
100011
10
1111111111110010
101111
1111111111100110
11
10100
1111111111101000
1111111111111100
110
1110
101011
1001
101111
1111
1111111110111001
11011
1111111111110101
1111111111110011
1111111111010011
11101
111
10010
10000
1111111111010101
110111
1111111111100011
1111111111101000
0
110011
11111
1111111111010110
1111111110100110
100000
1111111111001111
1000
1111111111100100
1111111111100110
10010
1
1111111111111100
1111111111111101
1011000
1111111111100100
1111111111110101
11100
1010101
11010
1000
1111111111101101
101
1111111111101100
1111111111100101
11001
1111111111010010
10010
1111111111010110
1111111111111010
11011
1010
100011
100000
1111
1111111111011110
1111111111111010
11110
110001
100010
1111111111110011
10
101101
1111111111111110
1111111111001011
101
1111111111111001
1111
110010
1111111111101111
110
1000101
11000
0
1011
10101
1111111111110000
1111111111011001
11101
0
1111111111110001
1111111111111110
1101
10100
1111111111100000
101000
1111111111000011
1111111111010111
10010
1111111111011111
101001
1111111111110110
10101
1111111111101110
1101
10111
1111111111100100
1111111111011010
101110
1111111111100110
1111111111111010
1000001
10111
1111111111110000
10111
1111111111110010
1011
10111
1111111111110110
1011000
1111111111101110
1111111111110100
10011
1000000
1111111111110110
1111111111011110
1111111111101011
1111111111110111
1111111111110101
1011
1111111111010000
100111
100
1001
1111111111101100
100001
1111111111100100
1111111111010000
1111111111001101
1011
1111111111011001
100000
1111111111110000
11001
10110
1111111111100001
1111111111011000
1111111111111101
100101
1111111111110111
111110
100
1111111111110001
1000010
1111111110011011
1111111111110111
10000
10100
1111111111110111
101111
101011
110
1111111111010111
1111111111111011
1111111111100000
1111111111011011
11110
1111111111110001
1111111111111000
11100
1110
1111111111111011
1111111111111101
1111111111010100
1111111111110010
1111111110110111
1111111111101010
11110
100101
1111111111011011
1010011
1111111111101111
1111111110101111
10111
1011001
100000
101100
10010
1111111111111001
1111111111110101
11001
1111111111110011
100
1111111111111100
1111111111110011
1001010
10100
100
1111111111001101
1111111110110111
11100
1
1111111111011111
110111
1111111111101111
1111111111110000
11
1111111111111001
100111
1000111
1111111111010000
111
100100
1111111111111111
0
1111111111011010
100100
1111111111110111
1111111111110001
1111111111101110
1111111111111110
1111111111111110
1001100
1111
101111
1111111111101000
1111111111011010
1111111111100000
1111111111100100
10
1111111111100001
10
1111111111110000
100
11010
1111
10010
1111111111111110
10001
10001
1000110
1111111111110110
1110
1100
1111111111101111
1111111111010110
1111111111010110
1100
1111111110111000
1001
1111111111110011
1111111111101001
11110
1111111111101001
1111111111110100
100000
1000
1111111111110000
1111111111010101
1111111111111110
1000
1111111111111111
1000001
1111111111100101
1111111111101011
101000
1111
1000001
1111111111001000
1100
1111111111011010
1111111111100111
1111111111110101
10011
1111111111100110
110010
101101
1111111111110110
1111111111100100
1111111111100100
1111111111010010
11011
10100
10011
1111111111111010
101111
1101
100011
1111111111110111
0
10001
111
10110
1111111111011101
110011
1111111111010010
11101
1111111111110001
1111111111100111
1111111111111001
1111111111100000
101
100111
10100
111
1111111111001010
1111111111111101
1111111111110110
10011
101
0
11110
100110
1111111111111100
101
1001
1001
1111111111111111
1111111111001001
1111111111010000
11
10110
1010
10001
1111111111110101
1111111111110101
1111111111011001
1
1111111111110011
1111111111001011
1111111111111011
1111111111001010
10
101
1110
1111
10100
111101
1001
100110
1111111111010000
11111
1111111111100011
111000
101
1111111111100111
1111111111011101
100110
0
111
1111111111111010
11111
100110
101
1111111111110101
101010
1010
10001
1111111111101010
1111111111000111
100010
1111111111111101
0
110
110010
1001
111
0
11111
