10011
101100
100111
1000
0
1111111111011111
110100
1111111111010110
11110
1111111111011000
1111111110111110
1111111111101111
100000
111000
110
0
1111111111100011
100000
1111111111100100
1111111111110001
1011
1000
1010
1000
1111111111100000
1111111111111101
1111111111110111
1111
1111111111111100
1111111111111000
1111111111101011
100011
1111111111110010
10110
1111111110111100
1111111111100111
1111111111100100
1111111111001101
1111111111100011
1111111111110000
1111111111000110
11101
1111111111110111
1111111111100010
1111111111000100
10000
100111
1111111111011010
1111
11000
1111111111001000
1111111111101000
100010
1111111111111001
1111111111100010
1111111111111100
1111111111101011
1101
1111111111110001
1111
1111111111111001
1111111111110111
1111111111010100
101111
11001
1111111111111000
1000101
1111111111110100
111
100
1111111111010111
1111111111100011
101000
101
101111
110111
101
1111111111110001
11001
1110
11001
100111
1111111111011101
100
1111111111111111
110
1111111111010110
1101
1111111111110100
1111111111110110
110
1111111111100110
1111111111111001
111000
11100
1111111111101011
101110
1111111110110110
0
1111111111101011
100000
10000
1111111111011110
1111111111111001
1111111111110100
11
111
11010
1111
11011
100101
1111111111101011
1111111111001001
100
1111111111001111
10001
11100
111101
1111111111111111
1111111111111101
100110
1111111111010101
1000101
1111111111111111
1111111111111100
1101
1111111111011110
1111111111110000
1111111111110110
11
10
1111111111101010
1111111111000110
1111111111111000
1111111111001110
101100
1111111111111100
1111111111000101
1111111111110001
100110
10001
10011
10
1111111111011100
10
1
1111111111110111
1111111111001111
101011
1111111111100001
1111111111101101
100011
100
1111111111100000
1111111110110101
100001
100101
1111111111111010
100
11010
10
1111111111100011
1111111111010101
1111111111100001
100101
1111111111101101
11001
1111111111001001
1111111111101101
1001
1111111111010001
101000
1111111111111010
1111111110111100
1111111111011011
1111111111111100
1111111111001011
1111111111110110
11
10010
100010
1100
10111
1111111111101000
1111111111001100
110
0
11101
1111111111100000
100110
1111
1111111111101110
10011
10
1111111111111000
1111111111001100
1111111111111101
11001
1111111111000010
1111111111110110
11010
1111111111100011
1111111111101010
1111111111101011
101011
11000
1111111111011101
1111111111011111
10101
1111111111001010
1111111111100111
111
11001
1111111111101110
111010
1111111111010101
110011
1111111111100111
1111111111111000
1111111111111111
1001110
1111111111011100
1111111111110101
110011
100111
10010
1111111111100011
101000
10110
1111111111101001
1111111111111000
1111111111001100
1111111111111111
1111111111110010
1000100
10001
1110
0
1010
1011011
1111111111101111
1111111111100011
111000
1111111111011111
1111111111010000
10001
1111111110101110
1111111111011111
1111111111111101
1111111111111101
110
1
100000
1111111111111010
100
11000
10001
11
1111111111111110
1001000
101
111
1111111111111110
11
1111111111110101
10001
1111111111101111
100101
1111111111110111
1000
1111111111111111
1111111111110000
1111111111100000
1111111111011111
1111111111011111
1111111111110010
1111111111110011
100100
100001
1111111111110011
1111111110101001
1111111111011110
1111111111111110
1111111111110011
1111111111101100
100101
11011
1111111111100001
1111111111101111
100000
1111111111111000
10011
1111111111111110
1111111111000000
10101
100101
1111111111010111
1111111111101111
110000
1111111111101111
1101
1111111111011100
100010
1111111111101101
111000
101101
11011
1111111111001111
1111111111111110
1111111111011101
110011
1111111111111111
1111111111101001
10111
1111111111111110
10011
111
101
1111111111110011
1111111111111010
1001
1111111111011001
1000
1111111111101011
1111111111100000
0
1111111111110001
1111111111110010
11010
1111111111111101
1000
1011
11
1110
1111111111001001
1111111111111101
110101
1111111111101001
10010
1111111111101111
1111111111111011
1111111111101001
10010
1001
10001
111000
1111111111110000
0
1111111111010011
10010
1001
1111111111011010
11
10
1111111111110110
1111111111011001
100010
1111111111111000
1111111111100011
1
101
1111111111101100
0
10110
1111111111101001
1101
1111111111000001
1111111111111001
100001
1111111111100101
1111111110100100
100
101
10100
1111111111011010
1111111111101100
1111111111100100
1010
1111111111111101
10100
1111
1111111111100010
110100
11110
1111111111111000
1111111111010110
11111
1111111111110111
1111111111100011
1111111111110101
1000
1111111111111110
101111
1111111111110100
1110
1010
10110
1111111111111100
1111111111110000
1111111111111000
1010
1000
111110
1111111110110100
100000
1101
1111111111111000
1001
10101
1111111111110000
1111111111111010
1111111111101010
1111111111100100
1111111111110110
11000
1111111111001001
1101
1100
1111111111111101
101110
1111111111110011
1111111111111000
1001
11100
1111111111110110
100100
100110
10000
100001
1111111111101001
1111111111101111
11000
11
10111
11101
10
1111111111010110
1111111111100010
1010
1111111111001111
11111
1
1000
1111111111111111
1111111111000010
1111111111010001
1111111111100100
1111111111111010
1111111111011100
1111111111010100
1111111111000001
1111111111011011
1111111111010011
1100
111000
1111111111101110
1111111111110110
100000
1111111111110010
1111111111010001
1111
110000
101001
101010
1111111111100010
1111111111001001
1111111111111101
100001
1011
1111111111110001
1111111111101001
1111111111111111
1111111111001000
1111111111011000
11110
1011
0
101110
101100
1111111111110000
1000
1111111111111010
10001
1111111111110011
10010
1111111111011001
1111111111100101
1101
1111111111100011
1111111111110111
1111111111000101
1010
1111111111101001
0
1100
0
1010
1111111111111010
1111111111101010
1101
10011
1111111111111110
1111111111101000
1111111111011110
1111111111110010
101
1000
1111111111111011
1111111111010111
1111111111101111
101101
1000
1111111111100101
1111111111101010
100000
10111
1111111111010110
11110
10110
1111111111001110
1111111111110100
100100
1111111111111100
1111111111010101
10000
101100
100
1111111111101111
1111111111110110
101
1111111111111001
1111111111101110
1011
100100
111011
11010
11
1111111111000010
1
101100
1111111111110111
1111111111100100
1111111111100111
1011
1111111111101001
0
1111111111101110
1111111111111111
1110
100
11
11110
10100
110000
11
1111111111111001
1111111111001110
11
110111
1111111111011101
100001
110
101101
10001
100100
100001
110111
1111111111110011
101
100
1000100
1111111111111101
1
1111111111111101
11
1111111111111011
1111111111111011
1111111111111111
101101
110
1000
1111111111010011
1111111111110100
10
110111
1111111110101110
1111111111111101
1110
10010
1111111111011100
1110
10010
1111111111111111
1111111111111111
1111111110111000
100100
10110
10001
1111111111111000
101010
10111
1010
101110
1111111111110101
11
10110
101101
101
1111111111111000
10
1101
1111111111100110
1111111111101001
1111111111101010
1000110
10100
1111111111100010
101
10010
1001
1111111111111111
1111111111110000
1111111111111011
10101
1111111111011000
1111111111110011
1000001
1111111111101101
1111111111101100
1111111111101010
1111111111001100
1100
100101
1111111111011011
11101
1111111111110001
1111111111100001
1111111111110000
1000
11000
1111111111101001
1111111111101011
11011
1101
11100
100010
11000
10
1111111111010101
11100
1111111111111101
1111111111011010
1111111111110001
1111111111110000
100111
1111111111010010
1111111111011010
1111111111101101
1111111111110111
10111
1101
1000111
1111111111100000
110111
110110
111
10100
100000
11
1111111111001111
11000
100011
1111111111111111
1011
1111111111111111
1111111110111100
1111111111110000
111000
1111111111011001
1111111111111000
1111111111111001
1011
1111111111001111
110010
1111111111101001
1111111111111101
1111111111111100
1011
1111111111110110
1111111111000100
1111111111110100
1001001
1111111111110100
1110
1111111111010101
1010
1110
100
110101
1111111111101001
1111111111111101
1000
1111111111110011
11100
1111111110111101
10111
1111111111111111
1111111111111000
1111111111110111
1111
1001
10011
1111111111100111
1001
111010
1111111111100010
10001
1111111111101001
1111111111100010
101
1111111111110001
1000
1111111111100011
1010
0
1111111110111110
1111111111101101
1111111111101110
1111111111100100
1111111111111101
1010011
101
1111111111011011
100101
1111111111110001
100010
110010
1111111111100101
1111111111110101
1111111111111000
101110
11011
11100
1000
1111111110101010
1111111111011001
111
1111111111101111
1111111111111001
1111111111111101
1111111111101001
10
1111111111011101
11100
101101
1111
101011
101010
110000
10
1111111111011110
1111111111100110
1111111111111011
10001
1011
10001
11010
101
1111111110100100
1111
1111111111100100
1111
1111111111000101
1111111111101000
1111111111110101
1000
100100
1111111111010011
101010
1111111111011100
10110
1111111111111111
1111111110111100
1111111111111011
