1111111111010000
11101
1000
100100
1111111111010100
100110
1
1111111110111111
1111111111010110
101111
1111111111110110
11
11100
1111111111111101
1111111111010101
101011
1111111111111000
1101
1111111111111110
1111111110100011
110011
11100
11111
1111111111101101
1111111111001010
1111111111111100
1111111111100100
1111111111110110
110010
1111111111011101
1111111111111111
1111111111011100
1111111111110100
1101
101100
101000
100110
1111111111110010
110
1111
10111
1111111111110011
10111
1111111111111010
1111111111111100
1111111111001001
10101
111101
1111111111011110
100110
1011
1101
1011
101
101100
1010
100100
1111111111110000
1001001
1111111111011001
1001000
1111111111110010
1111111111101010
1111111111111000
1111111111110010
111000
1111111111110110
10011
1111111111100101
1111111111100101
1101
1111111111100111
1111111111101000
10010
1111111111111111
100
1111111111110010
1111111111111110
1111111111011011
10010
1111111111100010
1111111111000111
111
11010
111010
1111111111111010
11101
1111111111111000
101000
1111111111001001
1101
1111111111101010
1111111111101111
101111
1111111111100110
1111111111111011
1111111111101011
10000
101000
11000
1111111111101101
100000
1111111111110101
1110
1001
101101
101
1111111111110110
1111111111111110
111
1111111111010011
1111111111010001
1111111111110110
1111111111110100
1111111111110100
1111111111101100
10001
1111111111110001
0
1111111111110011
1111111111001001
1111111111101111
1111111111101010
1110
11
1111111111000010
1111111111100111
100
11
0
1111111111110011
1111111111100001
1111111111110110
100100
1111111111101000
1111111111011011
1111111111100001
1111111111110111
100001
1111111111111101
1100
1111
1111111111111001
1001
1111111111110000
1111111111101111
10101
1111111111011001
1111111111100111
1111111111111010
1111111111110010
1111111111101011
100
1111111111110110
1111111111110010
1110
1111111111010011
100101
1111111111110111
1111111111100101
1111111111100001
1111111111011011
110101
1111111111100011
11
1111111111100010
10110
1111111111111111
1111111111101001
100100
1111111111110001
110000
1111111111111001
100
1111111111101000
10111
110
1111111111110011
1111111111111111
1111111111100110
11111
1111111111100111
1111111111110100
1111111111111011
111011
1111111111110010
1111111111011100
1111111111011110
11101
1111111111011001
1111111111111111
1111111111101101
11110
1111111111000101
1011
1000
0
10011
10001
0
1111111110110100
100111
11001
1111111111010100
101
100
1111111111100101
1111111111111001
1100
1111111111010001
1111111111011100
1111111111011010
1000000
1011
10010
1111111111100101
110111
11010
100000
1111111111110110
101
100101
10101
1111111111100111
11101
10101
1111111111110010
100001
1111111111010011
100
1111111110110100
1111111111111101
1111111111101100
1111111111110000
1111111111111001
1111111111111010
1111111111110101
111
111
110100
10
1111111111110000
101
1111111111110011
11001
1111111110101111
1111111111101111
1111111111110001
1111111111010101
1111111111111110
0
1111111111100100
101000
1111111111111010
1111111111010010
1111111111110000
1010
0
1111111111101110
1101
110
1111111111111000
110
1111111111100011
101001
1111111111101100
1111111111011111
10100
101111
1111111111110010
1111111111110111
1111111111110010
101010
100
101010
1111111111010111
11001
1111111111001110
1111111110110000
1010
101
101101
1111111111001011
1111111111011000
1111111111001111
1111111111101011
1
1111111111101000
1111111111010001
1111111111110101
101011
100000
1111111111101001
100011
10101
1111111110110001
11011
110010
1111111111100101
1111111111110110
1111111111100101
1111111111011010
1111111111011111
10111
100000
111
1111111111111100
1111111111011011
101000
10001
11
1111111111101101
1111111111100110
1111111111110010
110
110011
101011
1111111111111110
1111
1111111111111001
1111111111101010
1111111111101101
1111111111110111
1111111111011010
1111111111101101
100
1100
1100
1111111111010001
100010
1111111111101011
1111111111110111
1001
1111111111011101
11100
11000
1111111111101000
1111111111110101
1000010
10101
10111
11101
10110
111
1111111110111101
1111111111110110
1000
10000
1001
1000
1111111111100111
1111111111000001
10101
1111111111010110
1111111111101010
1000110
1111111111011100
100
1111111111111011
1111111111110001
1111111111100111
1111111111111010
1111111111110110
1110
1
1111111111111001
0
1111111111111110
1000000
1001
0
1111111111101010
1011
1111111111100111
1111111111001111
1111111111100110
1111111111111101
1111111111011011
1111111111110101
1011011
1111111110111001
1111111111111101
11010
1111111110111001
1111111111010100
1111111111011100
1111111111001111
1111111111101100
1111111111100101
0
110
1111111111111001
101000
1111111111010011
1111111111011010
101101
1111111111000100
1111111111011010
110100
100010
10
1111111111000100
1111111111111011
10011
1111111111111111
1111111111010100
1111111111011001
1111111111101110
1111111111011100
1111111110101011
1111111111101110
10100
10100
1000
1000
1111111111111001
110100
10111
1111111111111111
101
1111111111111000
10000
101
10001
1111111111101011
11111
1111111111010001
100
0
1001
110101
1111111111100111
111001
1111111111110011
11
1111111111000011
1111111111100100
1111111111110011
1111111111001101
1111111111000110
1
1000
100011
1111111111100010
100001
1111111111111100
1111111111101101
1111111111011101
1111111111101111
1111111111110101
1111111110101010
10001
1111111111100010
110110
1111111111100100
101010
1111111111111000
1111111110100111
1111111111100110
1111111111111100
11101
1111111111111010
1111111111111101
1111111111111011
100
10010
100010
100000
110000
1111111111100010
1111111111101101
11000
1111111111011010
1111
1111111111101011
1001010
111000
10011
1111111111100111
1111111111001111
0
11101
1111111111000001
1111111111100111
1111111111010101
11
1111111111100011
1111111111111000
0
1111111111011110
1111111111001100
1111111111011101
11011
100000
1111111111110110
1111111111111100
1111
10011
11011
10100
1011010
100010
1111111111111010
1000
11
10101
11001
10110
1111111111111111
11
1111111110111101
1111111111101011
1111111111100000
110
0
1111111111011010
1000100
1111111111101111
1101
1111111111010010
11
1111111111101000
1001
101
100000
1111111111101101
1111111111101100
1111111111101000
1100
1000
101000
11100
1111111111010011
1111111111000111
101
1000
1111111111011100
1111111111101010
1111111111110101
100000
1111111111100110
10101
1111111111010011
1111111111101111
1111111111111110
1111111110110110
1111111111110000
1111111111110001
1111111111001001
11
1111111111010010
10
1111111111001111
10111
1111111111101110
1111111111110110
10011
1111111110111111
10110
1111111111110101
1100
1111111111100011
1010
100100
110001
10111
1000
1111111111100111
10000
1111111111000111
1111111111101010
101101
0
101010
110000
110000
1111111111011100
1111111111001101
10110
100100
1111111111110010
10011
101
1111111110110100
1111111111110001
10000
1000110
110
1111111111111010
101101
1111111111010100
11001
1111111111101111
101010
1111111111011011
100110
10011
1111111111111100
111111
1111111111010101
101100
1111111111110000
1
0
100011
1111111110111110
10
1111111111101011
1111111111011000
1111111111011111
1111
1011
1111111111011010
1111111111000011
1111111111101000
101000
100
10100
1111111111011110
11001
1111111111110111
1111111111111000
1111111111100100
1111111111110110
1111111111111010
1111111111111010
1111111111010111
1111111111111100
0
1111111111011110
0
101
1111111111010001
1000
10110
1111111111101010
1111111111111101
1111111111101101
10100
1100
1111111111011110
1111111111011101
1111111111101111
1111111111011001
11001
110
1110
1111111111110101
11101
1111111111010111
1111111111111111
110010
11010
1111111111011011
1111111111110101
1111111111000110
1111111111110001
1111111111111111
110
100
1010101
1111111111100100
1111111111111111
1111111111000110
1111111111110111
1111111110111110
1
0
1111111111101101
10100
1111111111001101
1111111111111111
11001
1010
1111111111110100
1111111111101110
1111111111111010
10101
10100
110
100011
1111111111111011
11010
1111111111101110
1111111111100101
100
1111111111101100
10001
1001
111100
1111111111101001
1111111111111101
1111111111100000
1111111111011001
100101
10110
1011
1111111111111010
1111111111110100
11010
1111111111100001
1111111111101001
111
1111111111100001
1111111111111010
100010
1111111111101000
101011
1001
1111111111100011
1111111111101001
1111111111010111
1011
1111111111001011
110
1111111111100111
110000
1111111111101101
1010
110000
1100
1111111111100011
1000
1111111111101001
100
1111111111010110
1111111111111010
1111111111101110
1111111111001110
1
1111111111100011
1111111111110010
0
1111111111101100
10011
1000
11
0
1111111111111101
100110
10111
1111111111101011
10011
1111111111101100
0
100
1111111111101110
1111111111101011
11000
11011
10111
1111111111110010
1111111111110111
1111111111110010
1011000
1111111111111110
1111111111111111
101
111000
11110
11100
10000
1111111111101110
1111111111110101
1100
1111111111110010
1111111111111011
1111111111010110
10
101101
1111111111101110
1111111111110011
1111111111110111
1000000
101100
1111111111110000
1001
1110
1111111111011010
100001
11001
1111111111101010
111
1111111111100111
