1111111111111111
1000111
1111
10010
100010
1111111111011111
1111111111111101
1111111111111101
1111111111110111
110101
1111111110111110
1111111111111010
110000
1111111111100011
1100
100111
1111111111111100
0
10111
1111111111111110
1111111110111011
1111111111010001
1111111111101100
101111
1110
1111111111010110
1111111111101110
1111111111001111
11010
11110
10011
1111111111111000
1111111111001011
100101
1000000
1
10111
1111111111101001
1111111111111100
100
1111111110101111
1111111111100100
1111111111111001
100001
1111111111110100
1111111111111000
1111111110110110
1001101
1111111111101101
1111111111000110
110110
11100
1101
111
1111111111111011
1111111111100010
11111
1111111111101100
11111
101000
1111111111010110
1111111111111010
10111
1111111111110100
1111111111111011
1111111111100000
101
0
1111111111111101
1111111111100001
1111111111101011
1111111111111001
1111111111101010
1111111111110000
1111
1111111111101111
11000
1100
1111111111100000
10100
1111111111111111
10000
1110111
1111111111010111
1000010
1111111111111010
1111111111110110
11110
1111111111011001
1111111111110000
0
1111111111101001
1111111111100100
100000
1110
1111111111011110
1011
1111111111001100
1111111111010010
1111111111110111
101
1111111111010000
1111111111001010
1111111111110111
1111
1111111111010000
11001
1111111111111101
101000
10011
100100
0
11100
1001011
1111111111101010
100011
1111111111101010
1111111111111111
1111111111101110
1111111110111010
10000
1111111111101110
1111111111101011
1111111111010010
1000
1111111111110110
1111111111010001
1111111111010010
101000
1111111111101011
11101
1111111111100010
1111111111011101
1111111111110100
11111
1111111111010010
10
100100
1111111111111101
1111111111111011
1111111111011110
1001
100110
1111111110111111
1100101
1111111111011110
1111111111110111
11000
1111111111011001
1111111111010001
11011
11000
10110
101110
1100
1111111111110101
1111111111011111
1111111111111011
1111111111101011
1001000
111
1111111111110000
100101
1111111111101000
1111111111010110
1111111111111001
1111111110111010
1111111111101101
1111111111000001
11100
1111111111010000
1111111111100000
1111111111001001
110
1111111111011011
10100
10010
1111111111111100
1100
1111111111101001
1111111111101101
1111111110111001
1111111111110010
110111
10001
1
1111111111011111
1111111111010001
100110
10001
1111111111110110
101101
1111111111101111
1111111111101111
1011
1111111111101001
10110
1111111111010001
11100
110
1111111111001100
1111111111101000
1111111111101101
1111111111101010
100
1111111111111101
1010
1
11100
11100
1010
1111111111011100
1111111111100101
1111111111100100
100
1111111111110110
1111111111111101
1111111111101001
1111111111010101
1111111110111000
1111111111100110
1111111111110001
111
1111111111101101
1111111111110011
111
110111
10111
100011
1111111111100111
11101
101
1111111111110000
1111111111101010
1111111111101011
1111111111111010
1111111111101101
1111111111001011
1111111110110011
10001
11111
110001
1111111111111011
1111111111110011
1010
1111
1111111111101010
11011
101010
1111111111101011
100110
1111111111011001
10101
1111111111011111
1111111111110000
1111111111101111
10001
1011
1011
1111111111100000
1111
11111
1111111111110000
1111111111100000
1111111111100000
111110
1111111111100011
1111111111011011
101
11010
1111111111011011
1111111111000100
1111111111111100
1111111111101011
1001
1001001
1010100
101
1111111111100010
0
1111111111111101
110110
1111
100111
1111111111110000
10010
1111111111011111
11011
1001
101
101100
11111
1111111111110010
1111111111110001
1101
101100
1111111111000111
1111111111101111
100
1111111111010110
1111
100001
11101
1111111111110101
1000001
1111111111100010
1111111111101111
1101
10111
1111111111110110
1111111111111001
1111111111111011
1111111111110001
101011
1111111111111000
1000
1111111111110101
1111111111101011
1000
1111111111111111
11010
1111111111100100
100100
1111111111110111
10
1111111111101110
100000
100110
1111111111110111
100000
0
10001
1000100
1111111111101010
0
1111111111010011
10111
1111111111010100
101100
0
1111111111111010
10011
1010
1111111111000110
1111111111111011
1111111111111100
1111111111001000
100001
1111111111101011
100
1111111111110101
1110
10010
10100
1111111110111111
111
100100
1111111111011111
1111111111001011
100101
1111111111101000
1111111111110100
1111111111110010
1111111111100011
10010
1111111111011100
10100
1111111111010011
1111111111101100
1110
10100
1110
1011
11
1111111111110110
1111111111110111
1011
1111111111001100
1111111111101110
101110
1111111111110101
1111111111010100
1111111111011011
1111111111111111
1010
1011
1111111111111111
1111111111101010
101000
10100
111000
1111111111011110
1111111111111000
1111111111011100
10000
1111111111111011
101100
11111
101
1111111111110110
100011
1111111111010001
101100
1111111111101101
100000
1111111111110010
10011
1111111111011000
1
1111111111110011
1111111111010011
1111111111001101
101110
0
1111111111110011
1011010
1111111110110001
111101
10101
111
1111
10001
101000
1111111111110110
1111111111110110
1111111110101110
10
1111111111100101
1100
1111111111000111
1000
1111111111100110
1111111111110111
1111111111100011
1111111111010010
1111111111100011
10100
1111111111001101
1111111111101001
1111111111011000
1101
10000
1111111111000001
1111111111010011
100111
10111
111001
1111111111111000
1111111111111101
1111
1111111111011000
0
1011
1111111111101101
1111111111001101
101011
10
1111111111101111
1111111111011010
0
1111111111011000
1111111111011111
1111111111101110
1111111111111100
100
11
1001
100111
1001
1111111111100010
1111
100110
111101
101010
1111111111100000
100111
1111111111110001
1001000
1111111111001111
1
0
1001000
1000000
1111111111000111
1111111111101011
11001
1111111111101100
1111111111110010
0
1111111111000011
1111111111101100
1111111110111000
1111111111011111
1111111111100011
1111111111111101
1111111111010100
1111111111111000
110011
1111111111101011
10111
1111111111101101
1111111111111111
1111111111110111
1111111111110011
100100
1111111111110110
11011
110101
10111
10011
1001101
1111111111100110
1111111111110001
1111111111111111
10010
110
1111111111100010
11100
10001
1111111111111110
1111111111110011
101001
1111111111110010
1111111111110010
1111111111110110
1111111111100111
1101
1111111111101101
1111111111110000
1
10001
111
1111111111011101
111
1111111111100100
1111111111101100
1111111111111110
1111111111011110
1111111111110110
1111
11010
100110
101
11010
1011
1111111111010111
1111111111010100
10101
1111111111101001
10100
1010
1111111111110110
1000110
1111111111111001
110111
1111111111101110
111011
11010
11010
1111111111101111
1111111111011111
1111111111100110
111100
10001
1111111111111011
1111111111111100
1
10001
1111
1111111111101011
1111111111101110
1111111111101100
1111111111111111
1111111111111011
1111111111101000
1111111111011110
10000
1111111111111011
110
10110
10011
1111111111010010
1111111111010000
1111111111100101
1111111111100010
10101
1001
10
11111
1111111111000011
101011
111001
111000
10000
10000
10111
1111111111111011
111
1111111111110010
1111111111101001
1010
1111111111110101
1111111111100101
1111111110100001
1111111111011000
100011
111100
10001
101000
1111111111010101
1111111111111000
1111111111110101
111011
100000
1111111111111111
1111111111110110
101010
1111111111110110
1111111111011000
0
10001
110
1101
1111111111110011
1111111111111001
1111111110110110
100011
11
1111
1111111111010101
1111111111010001
1111111111110011
100100
101000
10000
1111111111010110
1111111111101011
1111111111011000
1111111111101000
11
10000
10110
10010
1111111111100100
100100
100
11000
1111111111110000
100
101
1111111111011011
1100
101111
1111111110101100
1111111111110110
0
0
1111111110101010
1111111111001001
1111111111101110
10000
1111111111101000
10110
10
1111111111101011
1111111111101010
1111111111100010
1111111111111010
1111111111110011
11100
101101
1111111111101000
1111111111110001
11111
111001
1111111111011100
111111
100000
1110
1111111111100110
1111111111100011
1111111111101101
1010
1101
100010
111
101000
1111111111011101
1111111111111001
1111111111101011
1111111111001010
1111111111001111
1111111111111011
1110
1100
10100
1010
101010
1110
11111
110
1111111111011010
1111111111001101
10011
1111111111010000
1111111110101100
10001
100010
1111111111101111
1101
1111111111110101
11110
11011
10001
1110
1111
1111111111101010
10101
111
1001
1111111111101111
1111111111101000
1111111111110001
1111111111111001
1111111110101011
1111111111100101
1111111111101011
11
100101
1111111111111001
1111111110110101
100
10100
1000
101111
10101
1111111111111001
111
1111111111110011
1111111110111101
1111111111110000
1111111111110110
11
11110
100100
1111111111111010
1111111111100111
1101
10110
1011100
10011
10
10011
1
1111111111111100
1111111111111101
1111111111000111
1
100000
0
1111111111101111
1110
1010
1111111111111111
1111111111101110
10001
1111111111101011
111010
100101
1000110
100
1111111111101110
1111111111101010
1111111111111001
1111111111111110
1111111111111011
1111111111111101
10001
1010
100110
100
1111111111000111
10010
110000
