1111111110111101
1110
101010
1111111111100111
1111111111111110
100100
1111111111011001
10
10010
11101
1111111111011010
11001
0
10010
1111111111110100
10011
1111111111000101
1001011
11000
11110
1111111111100110
1111111111011110
1111111111110011
10101
11011
10100
0
10100
1111111111100100
110000
1101
1111111111110010
1111111111111001
1111111111110000
1111111111110011
100
111000
11010
111101
10100
1111111111000011
11011
111
100101
1100000
111
1111111110110111
1111111111111011
11100
1111111111011010
101011
1111111111010001
1111111111011011
1111111111001010
1111111111011110
111
1100
11011
1111111111101101
10101
1111111111110010
1111111111000110
1111111111001010
1111111111011000
111001
111011
10101
1111111111110000
1111111111110011
11010
1111111111001101
100
1111111111000110
1
1111111111110110
1111111111111001
10100
1111111111111111
1111111111111110
1111111111011101
0
1111111111110101
1111111111111010
1111111111100100
11010
1010
1111111111110011
1111111111101100
11101
111110
1000
111010
1000
111000
1111111111011100
101010
0
1111111111111000
1111111111100100
10110
101
1111111111011111
1111111111111010
11111
10111
1111111111110110
1111111111010010
1111111111000110
1111111111111101
100101
1111
1111111111101000
1111111111111001
1111111111101000
1111111111110100
1111111111011101
101101
1100
1111111111100111
1111111111111011
1010010
1011
1111111111100000
101011
1111111111011001
1111111111111100
1111
0
1111111111100101
1111111111110110
0
1111111111111110
1111111111100100
1111111111010100
100100
1111111111100100
1111111111100010
1111111111010110
110011
110110
1000
1111
1110
1111111111011010
1111111111110100
100100
1111111111101000
1001
1111111110111101
1111111111111001
10001
1111111111110110
111010
1111111111100011
1111111111000111
1111111111100110
101110
1111111111010010
0
1001
1111111111010100
1111111111101011
1111111111110001
1111111111011001
100001
1111111111111111
1111111111110101
100101
1111111111010011
1111111111110010
1111111111100101
1000001
11000
1111111111101000
11
111001
10010
1111111111110000
110
1111111111111010
1111111111001100
1111111111110110
1111111111011011
101
1111111110101010
1111111111001111
1111111111100010
1111111111100101
1111111111111111
1111111111100101
1111
1011
1111111111001010
111110
11110
1111111111011011
1111111111101011
11100
111111
1100
10001
1111111111111100
101001
1111111111100010
11000
1111111111011000
1111111111101010
1111111111010001
10010
1111111111010011
1111111111101110
1111111111011000
1111111110000111
1111111110101101
1111111110110111
1111111111011001
1111111111111010
1111111111101110
10010
1000
10110
1111111111110110
1111111110111100
1111111110000101
1111111111110011
1111111111010011
111010
1111111111010111
1111111111111101
1111111111011010
111010
1111111111101010
1111111111111001
1111111111110011
1111111111110111
1111111110110110
1111111111011000
101010
1111111111111001
1111111111100001
1111111111101110
1010
1111111111001110
1111111111010101
1111111111100010
111
11010
1111111111110001
1111111111111111
10101
10100
1111111111111011
1111111111101101
10110
1111111111111010
1111111111111001
1111111111110001
11001
1111111111111000
101
10100
111100
1111111111010000
1111111111110000
1111111110110001
1111111111011111
1111111111110101
1111111111000000
110
1111111111110000
1111111110110100
1111111111101011
1111111111011110
1111111111001100
10010
1
1111111111110111
1111111111110100
11010
111
1111111111001111
11000
10110
11
11100
1111111111110000
11010
1001
1111111111000101
1111111111110001
1111111111011110
1111111111001100
10011
100
1111111111011011
1111111111001110
1111111111111101
1111111111101010
1111111111010000
11
1111111111101000
1111111111010101
0
11000
1011
100000
11010
1
11001
1001
101110
100111
101111
100111
1010
1111111111101100
1111111111101000
0
1111111111110110
11110
1111111111101111
1111111111101010
1111111110110111
1010
1111111111110100
101001
1111111110111110
1111111111010001
1111111111100100
1111111111101001
10111
101
111111
1111111111111111
101001
1111111111100111
101010
100010
100011
1111111111001101
1111111111011100
1111111111111111
1111111111110000
110001
10
1111111111001010
1111111111101111
1111111111101001
1111111111001010
100100
1111111111100110
1111111111101100
1111111111111011
11000
1111111110010010
1111111111100001
1111111111001101
11100
1111111111100001
10101
1111111111101010
1111111111101010
1111111111110011
1011
10000
1111111111011000
110101
1111
1111111111111011
100011
100111
1111111111110001
1111111111000101
1111111111101110
1111
1111111111110101
1111111111111000
11110
1111111111011110
1111111110101110
1111111111101000
100110
1111111111010010
1111111110111100
1111111111011110
1111111111110111
1111111111101110
100
1111111111101000
1111111111101110
11010
1111111111010011
1111111111001110
1111111111101001
1111111111111000
1000
111
1111111111110101
1111111111110010
100000
1111111111110100
1111111110110110
1111111111110101
10011
1111111111100001
11
1111111110111000
1111111111101111
11
1111111111110001
1111111111010101
1111111110110011
1111111111010110
110
1111111111110010
10
1111111111011011
100010
1111111110110110
101
1111111111100110
1111111111111110
1111111111010111
1101
1111111111100100
1111111111100110
1111111111101110
1111111111111101
1111111111011111
1111111111100000
1111111111111101
1111111111100111
1111111111101011
10101
1111111111011101
0
1111111111011101
1111111111010100
1
111011
1011
1111111111111010
1111111111110010
101
1111111111101110
1111111111100000
1111
1011001
1111111111000001
11101
1111111111110000
11101
0
1011
1
1111111111011110
110
1111111111110010
11111
1111111111101100
11011
1111111111000100
1111111111000110
1111111111101101
1111111111011011
1110
10110
1111111111100100
1111111111100101
1111111111110011
1111111111011111
1111111111110101
101010
1111111111101011
1111111111110101
1100
1000100
111110
111110
111011
101
11
1111111111010110
100
1111111111010001
1111111111001110
110
1111111111110001
1111111111100101
101
1111111111100110
1111111111101010
1111111110101011
1111111111100110
11
1
1111111111100001
1111111111000000
1111111111111100
1111111111111011
1111111111110000
110010
1111111111110100
1111111111111010
11000
10100
110100
0
110
1111111111111101
1111111111100010
1111111111110010
1111111111100101
1111111111011111
1111111111000010
100110
1110
10
0
1111111111010000
1111111110101011
1111111111000110
1111111110111111
100000
1111111111101000
11010
1111111111110101
10000
1111111111110011
100001
1111111111011000
1111111111111001
11
1111111111000111
1111111111111100
10100
1111111111011111
10010
1100
10
10010
1111111111111001
1111111111000111
1111111111000101
1111111110010101
1111111111100010
1111111111101010
1111111111011101
1111111110110000
1111111111010101
1111111111100110
1111111111101001
1111111111101100
110110
1111111111100101
110100
1111111111101101
1111111111111000
1001
1111111111101000
100100
1111111111100000
1101
1111111111011101
1111111111011111
101100
1111111111010111
1111111111000010
1111111110111110
1111111111110001
1111111111000001
1111111110110100
1010
1111111110111010
1111111111011111
1111111111101011
1111111111101010
1111111111100010
11110
1111111111100110
101010
1111111111110000
1111111111111101
11
1111111111011101
1111111111110101
1111111111111011
1111111111110110
1111111111000001
110
1111111111011111
1111111111110100
1111111111111010
11111
1111111111000011
100
1111111110111111
1111111111110110
1111111111110011
1111111111100111
1111111111101101
11101
1111111111100011
1111111111011100
110
1111111111001101
1001110
101001
1111111111111010
1111111111111010
1111111111111011
1111111111010000
11011
10110
1111111111011010
1111111111101100
1111111111110111
101001
1001
1111111111010101
1111111111010011
101
1111111111010101
10100
1000111
1111111111010011
1111111110100110
1111111111110000
1111111111011011
100
1111111111100110
1111111110111011
11111
1111111111100000
1111111111011010
1011
1111111111101001
100000
100111
10101
1
10101
1111111110100000
1111111111100001
100011
1111111111111110
110001
1111111111110001
101001
1111111111101000
1111111111111100
10110
1110
1111111111010011
0
10110
1111111111101000
1111111111110011
1111111111111111
100010
1111111111110100
1111111111011101
1111111111100001
1111111110110100
1111111110111111
1111111111010111
1110
101001
1111111111010011
1111111111111010
1111111111111111
1111111111010110
1111111111101110
1111111111110010
1111111111010100
100100
1
1111111111100000
1111111111010101
1111111111010100
1111111111100100
10
1111111111011111
1111111111111100
1111111111101111
1111111111100001
1111111111110010
10110
1011
1011
1111111111010100
11101
10010
1111111111111010
10
1111111111100011
10111
101110
10100
1111111111001000
1111111111111000
1101
1111111111000110
110101
1111111111110110
1101011
100100
10110
1110
1111111111110001
1111111111011111
1111111111101010
1111111111011000
11111
1000
1111111111111100
1111111111010010
1111111111111010
1111111111101010
11000
1111111111110010
101000
1111111111111011
1111111111100101
11011
1111111111110101
1111111111101100
1100010
10111
1111111111110001
11011
1000010
11101
1111111110110101
100
10100
101010
1111111111101011
10111
1111111111110101
1111111111111000
11000
10011
1111111111101001
1111111111100011
1
111110
1111111111111100
1100
1111111111111100
1111111111010110
1111111111111101
1111111111100000
11111
1111111111100101
1011
111
1111
1011
1111111111011100
1111111111010100
101
1111111111010101
110100
0
1111111111110100
1111111111010110
1100
1000
1111111111101110
1111111111000110
0
1010
1111111111111011
11110
110100
111
101100
1111111111011101
101101
11110
0
1111111111101110
1111111111101111
