1111111111101000
1101
1111111111110000
1111111111110111
1010
1111111111110111
10
1001010
11001
1111111111100110
1111
1100
0
1111111111111011
1111111111011110
1111111111101100
110
1111111111011011
1111111110111011
1
100101
1111111111100101
100001
1000
1111111111110110
1111111111001110
11110
1010
1010
10
1001000
1111111111011101
1111111111101111
10110
1111111111110110
100100
1111111111110100
111101
1111111111111011
1010
1000000
1111111111100001
0
110100
1111111111010101
1001
1111111111111111
1111111111111110
100010
11110
100110
1111111111111100
1111111111110111
10011
1000111
1111111111110110
1111111111111101
110
1111111111111010
1111111111010110
100011
1
10011
11011
110010
100001
1111111110110111
110101
1111111111100100
100111
1111111111000110
1111111111010001
111
1111111111110000
1111111111111110
111
110011
1111111111010011
1111111111001110
110
1101
1111111111100011
1001101
1111111111101110
1000111
100100
1000
1111111111111101
1111111111100001
10101
1111111111111111
10101
1001
1111111111111000
1111111111101101
1010
1010
1111111111111001
1111111111100011
100111
101
111111
10001
1111111111111001
1111111111110101
11110
0
1111111111101110
1111111111110011
1111111111100100
101000
1111111111110110
11000
1111111111111100
1111111111100110
10110
11100
1111111111111010
101010
111000
1111111111000100
11110
1111111111100010
11000
1110
10010
1111111111101001
101
1111111111110011
1111111111111000
111
111010
110100
11100
1111111111111000
1111111111010010
1111111111111100
1111111111001101
0
11001
1111111111101011
1111111111001111
1101
1111
1000010
1111111111110110
111100
101010
1111111111110000
1111111111101011
110011
1100
101
101000
1111111111011101
1111111111111001
100110
100010
1010101
111
10101
100000
1111111111100010
1111111111011000
0
1010
1111111111101111
11111
1111111111001110
1111111111111110
0
1000
1111111111101001
1111111111010100
1111111111100001
1111111111111100
1100
111
101101
1111111110110111
100
100100
1111111111111001
110
1001
11001
1111111111110101
1111111110110111
1111111111011100
10111
1111111111111001
11
1111111111011011
11110
110000
111101
10011
1111111111110101
11000
10110
1111
101101
1111111111100011
111
1000
1001100
1111111111110100
1111111111111010
1111111111100101
1111111111001001
1111111111001001
10101
1111111111110101
1010
1101000
1111111111101110
10
1111111111110101
1111111111111000
10110
100000
100111
100111
1111111111111100
1111111111011101
1111111111100000
1111111111101100
11010
101
1111111111010101
110011
1111111111011000
1001
111010
1111111111101001
100101
10
1111111111100000
11000
100010
1001
1111111111111001
1111111111110111
1001110
1111111110111111
1111111111010110
1111111111100111
1111111111001110
1010
1111111111111110
1111111110100101
1111111110111101
1111111111001011
1111111111100111
0
1111111111101000
1010111
1111111111000010
1
1
11110
1111111111111011
101
1111111111101000
11001
110010
1001101
1111111111010010
11000
1111111111101010
101100
1111111111111000
1111111111011110
1111111111101011
1111111111110100
1001
1111111111101000
101000
111110
1111111111011001
1010
1111111110110010
1111111111110101
11010
1111111110110110
1111111111001110
10110
1111111111110001
0
10001
1111111111110100
1010
1111111111010101
1111111111001000
1111111110111001
10001
1111111111111111
1111111111101000
1000100
1111111110110001
1111111111111000
101110
1010
100000
0
1111111111101001
1111111111101001
10101
1111111111101111
1111111111011110
1111111111111101
1111111111000110
1111111111011110
1011
1001
1111111111110010
1100
1111111111101111
1111111111010010
11010
1111111111100010
1111111111100110
1001
1
11000
1111111111111001
1100
111
1000011
1010
1011
1111111110111011
1111111111101001
1010
1111111111110001
10111
1111111111111000
11010
101110
1011
1100
1111111111001111
1111111111110111
1000
0
1011
10001
1111111111000010
11010
1111111111000001
1111111111111100
11
1111111111111001
1111111111011110
11100
1111111111101110
1111111111101100
1111111111110110
1111111111100010
11011
101
1111111111110001
110
11011
1101
1111111111110011
1111111111010000
10011
1111111111011000
1111111111110000
11101
1111111111101110
1111111111110100
1111111110111001
10111
1111111111101110
1111111111111101
1111111111101010
1111111111001000
10101
1111111111111011
1111111111110010
1111111111010101
1111111111001001
1111111111101100
1111111111010001
100100
1111111111011101
1111111111110101
1111111111011111
1111111111111010
1111111111111101
100100
1101
1101
10011
1111111111101100
1001
1111111111110001
10011
110
100011
1001
1111111111111110
101101
110001
11111
1111111111110100
1111111111111001
10000
1001010
110000
1111111111111110
1111111111100101
10001
101101
0
1111111111110001
11100
100010
11111
1111111111000110
11010
1111111111110000
1101
1111111111111110
10101
1111111111111100
0
1110
10101
1111111111111011
1111111111101111
1111111111111000
101
11100
1111111111010001
1101
1111111111101011
1111111111110100
1111111111000101
101001
1111111111110001
110000
10
10110
100000
1111111111110000
10111
1111111111101110
111011
1111111111100101
110101
101
1111111111011010
1111111111110010
110000
11000
110101
101011
1101
100000
100110
1111111111100111
101
1111111111001101
100001
110
1111111111001011
1111111111110000
110
100000
100110
1111111111101010
1111111111111010
1111111111100000
1111111111110101
0
1111111111101010
11
1011
111001
1111
1111111111111011
1111111111011011
1111111111101100
1111111111100110
1111111111111111
1111111111010001
10100
1111111111111100
1111111111001111
111
100011
1111111110111110
1111111111110001
10110
1111111111111110
1111111111010110
1111111110111010
1010
110100
101011
10010
110001
1111111111011010
1010
1111111110111101
1111111111111001
1110
1101
1010
1111111111101001
1
1010000
1111111111100101
1111111111111110
100
1111111111110100
1000
1111111111111100
1111111111101110
100001
1101
1111111111111111
1011
1000
1111111111100010
1000
1010111
1111111111110111
11011
1111111111100101
1111111111111101
11110
1111111111110011
1111111111101011
1111111111000000
100010
1111111111110110
1111111111001101
1111111111110010
10010
101111
1111111111100000
101100
10110
11110
1111111110111100
0
1111111111111110
1111111111100010
1111111111011100
10101
100
1111111111101001
11010
0
100110
101100
1111111111100001
1111111111011101
1100
10101
1100
101010
1111111111111000
110
1010
1111111111111100
10111
1111111111110100
1111111111011000
111011
1111111111101000
1011
1111111111010110
1111111111011111
1111111110111001
1111111111111010
101
1111111111100111
100010
100110
1111111111011000
10110
1111111111100111
10
1111111111100101
1111111111111011
1111111111110101
101111
100110
1111111111011010
1001
1111111111111000
100
1000
1001
10
1001
1111111111001001
1111111111101110
1001
10011
1111111111011101
1000100
10000
1111111111101000
11010
1111111111100011
111011
11001
1111111111110001
11011
1111111111000110
10101
101
11000
1111111111111111
1111111111101001
10001
110
10000
11
10110
1000001
1010
1111111111111001
100111
1111111111100010
1111111111110110
10111
101110
0
111001
100111
1111111111110000
101101
11000
11100
10101
11010
11010
1111111111111001
1111111111110010
111
1111111111010100
1111111111110101
1111111111111101
1111111111001111
101
1111111111110110
110100
101110
1111111111111111
1111111111000001
1111111111011110
1111111111111100
0
10
11010
10011
111
0
1111111111110111
10101
100000
1111111111110110
10000
110000
110011
1111
10000
1001101
110001
11011
1111111110101001
1111111111110001
1111111111111101
100010
1101
101110
110
1111111111101110
101000
1111111111111111
11101
101
1001
1111111111100011
101100
1111111111101110
101111
100011
1111111111110000
1111111111111000
1111111111011010
100001
11011
1100
10010
100101
10100
101000
10111
1111111111110000
1111111111101111
1111111111101000
10101
1011
1111111111101111
1111111111111001
101011
10101
10010
1111111111100001
1111111111110111
100111
1100
1101
1111111111110111
1111111111110010
1111111111000011
1111111111111011
101111
1111111111110011
1111111111100010
101011
11101
1111111111111001
1111111111111101
11
10001
1111111111100101
1111111111100110
1111111111011110
11111
100000
10100
1111111111010010
101
1111111111100111
10
1111111111100100
1111111111101100
1111111111111001
101
1111111111100011
11111
10
1111111111110000
11111
1111111111001111
10101
11100
1111111111110100
1111111111101100
1111111111111110
101100
10100
1111111111110100
101
11010
1111111111010100
1111111111111100
1111111111110100
10011
10011
1111111111001111
1111111111100111
10001
1111111110111010
10010
100000
1000010
10
1111111111111110
1111111110110111
100
10111
1111111111010010
1000
1111111111001001
