10101
1111111110111110
1111111111100110
1111111111111111
100001
1111111111010101
1111111111111010
110000
111
1111111111000111
1111111111000100
110111
1010
1111111111111010
10011
10010
0
100100
10101
0
10110
1111111111111101
10000
1111111111111000
1011
100000
1111111111101010
1100
1000
1111111111101111
1
100001
1111111111101101
1111111111101011
110
11
1111111111001111
1111111111111001
1111111111011111
101100
1111111111101111
10110
111
1111111110111101
10011
1111111111111010
101111
1111111111101010
1001
1111111111101010
10000
100010
1111
1110
1100
111100
0
1111111111111000
1111111111110010
10101
10010
10111
1111111111110100
1111111111110011
1111111111100011
1011100
10001
1111111111110001
1111111111100110
1111111110111001
11000
1111111111000101
110101
100111
1111111111101101
1111111111111001
1111111111011000
1111111111110011
10011
1111111111001111
101011
1111111111100101
1111111111111000
1111111111111011
101101
101101
1111111111101101
1000011
1111111111111010
1111111110111000
110100
10000
101110
1111111111101001
1111111111100100
100
1010
1111111111010100
1111111111001101
10000
1111111111100011
101011
10111
1111111111111110
1111111111110111
1111111111010000
1111111111111010
1011
1111111111111000
1111111111111011
1111111111110101
1111111110101100
1111111111110011
1111111111011110
110001
1111111111110000
1111111111111111
1111111111100011
1111111111001100
100000
1111111111100000
1111111110101011
1111111111000001
110010
100010
100
110111
1111111111111100
1010
1111111111101111
1101
11
1111111111010110
10110
10101
110001
101010
1111111111111110
1111111111111101
1
1111111111111111
1111111111001101
1111111111110100
1111111111011110
10111
1111
11001
111001
1100
1111111111101001
1111111111111100
1111111110110110
1110
1111111111101110
1111111111110110
101111
1111111111101010
1110
1010
1011
1111111111000110
1000
1111111111011010
1111111111110101
1111111111101111
1111111111110000
100100
0
100
110100
111
101111
1111111111011110
101000
1001
1111111111111111
1111111111101000
110100
10
0
11
1111111111011111
1111111111010110
1101
1111111111110100
11010
1111111111000111
0
110100
11100
1111111111111101
1111111111001100
10011
10
10110
1111111111010011
1100
1111111111110100
1101
100010
101011
1111111111001011
10
1111111111111001
101
110
1111111111111000
1000011
1111111111111001
1111111111100011
11
1111111111011011
1111111111101101
1111111111011110
1111111111110010
1111111111110011
1111111111100100
1111111111100100
10010
1111111111011001
1111111110111110
1111111111011000
11000
1111111111011100
10101
10101
1111111111010100
1
1111111111111000
10001
1111111111011100
100100
1111111111010010
1111111111101110
1111111111111010
1111111111100100
100
1111111111111100
1111111111001011
1111111111110011
1111111111111001
101
10
1110
1011
101
110100
11011
101000
1111111111110001
111010
1111111111110011
1111111111100111
1111111111111111
1111111111011110
1100
1001
1001
1111
1111111111101000
1111111110110011
1111111111010110
1111111110111111
1111111111100111
1111111111100001
1111111111100001
100110
1111111111011000
1111111111111011
1111111111101101
1111111111000010
1
1111111111111010
1111111111011010
101010
101
10110
11000
1000010
1111111111011011
1111111111110101
111111
101001
1111111111110011
1111111111010011
0
101011
1111111111100010
10011
1000
1111
0
1111111111010001
11000
1111111111100110
1111111111010101
10001
1111111111110001
1111111111100110
1111111110100110
10
111010
1000111
100100
10
1111111111010101
1111111111101111
1111111111100011
1111111111101010
100000
1111111111110111
1101
0
10001
1111111111011011
1111111111101000
110
1111111111100000
1001
101
1111111110100100
11
1111111111011111
10101
101101
11100
1001
1111111111100001
1111111111101010
110110
11100
1111111111010100
0
1111111111101110
100010
1111111111110001
1111111111100011
110
10001
1111111111111111
101001
100001
1
1111111111111101
11010
1111111111110100
1111111111110001
1111111111010000
110000
10100
1111111111100010
110101
1111111111111111
10100
1011
1111111111011100
10010
10001
1111111111010100
1001000
1111111111010110
1111111111101100
1111111110111110
0
11110
1
101110
10100
1111111110111111
1111111111010010
1111111111011101
1111111111010101
1111111111101011
1111111111101000
101000
1111111111101100
1111111111010010
1111111111101101
101
10000
1111111111111111
1111111111101000
1111111111110010
1111111111110111
1111111111101110
10101
1111111111010111
1111111111110101
1111111111110001
111
1111111111010010
100101
110111
111110
1
1111111111101011
11111
100101
1111111111110110
1111111111110111
1111111111110100
110000
1111111111110110
1111111110111010
100111
1111111111001001
100000
1111111111111000
101010
110110
1111111111111000
11011
1111111111011100
11
1111111111111000
1111111111010001
1100
1011010
10010
1111111111100011
10101
1111111111110111
10010
1111111111010100
1010001
1111111111111010
1111111111001000
1111111110111000
100
1111111111000011
10101
1111111111100000
1111111111011000
0
10010
1111111111111010
1111111111011010
1111111111000001
1111111111111100
11101
1111111111100001
1111111111110010
1111111111111100
1100
11110
100110
1111111111100001
1010
100010
1111111111100101
1111111111111110
100110
1111111111111100
110000
101001
1000111
1111111111101110
1111111111111110
10111
10100
111100
1111
111
1111111110110010
1111111111011100
1111111111101001
1111111111100000
1111111111101111
1111111111110100
1111111111100110
1111111111110100
1111111111101111
1011
0
1111111111110100
1111111111001111
1111111111000010
10110
1000
11100
111001
11001
1111111111101010
1111111111100010
1111111111111111
1111111111011011
0
10101
1001010
1111111111101101
101001
1111111111010110
1111111111000000
1111111111100010
110
1111111111001000
10011
1010
1111111111101101
1111111111100101
1101010
111
11
1111111111100111
1111111111111110
1111111111011111
10000
1111111111100110
1111111111010011
0
1
0
1111111111110100
1111111111001011
1111111111011111
1010001
1100
1111111110100111
110110
1111111111110111
0
1101000
110000
11101
1111111111010001
1111111111101010
10110
1111111111100010
1111111110111011
1111111111011110
0
1111111111110111
100000
110100
1111111111110110
100110
10001
110011
101010
10
110
1111111111101101
110101
100111
1001010
11
1010
1111111111111111
1111111111100100
11110
10
1111111111111000
10101
1111111111101111
111010
1111111111110111
110010
1111111111101000
10000
1111111111001010
1
110010
1111111111000001
1110
11010
1111111111101101
111
1111111111110101
1111111111011011
1111111111111101
110010
10000
1111111111010001
1111111111111001
1111111111101001
1111111111100000
1111111111000010
1111111111011010
1111111111110111
11111
1111111111101011
1111111111111001
1111111111011110
1111111111010010
100011
1100
11
10110
1111111111100110
1111111111111011
1111111111110011
10101
110100
100111
101001
1111111111111000
1000
100001
1111111111010010
1111111111100111
1111111111000111
10
100111
1111111111111001
1111111111100010
1111111111111011
1111
111
1111111111100001
10100
1111111111100001
1111111111101111
100010
1110
10110
1111111111010001
1111111111100101
1011001
100000
1111111110111011
1111111111011011
1111111111011010
1111111111100101
1001
1111
100100
10101
10010
1111111111111101
1111111111100000
111100
1111111111101010
10110
1111111111010111
10011
1111111111101111
1111111111101010
0
111101
1111111111111110
11000
101111
1110
1111111111111111
101000
0
101
100111
100100
11100
1111111111011111
1111111111001010
1111111111101110
1111111111100111
101000
100110
1111111111011100
101100
1111111111111101
10111
1111111111111000
11010
1111111111110101
1111111111010101
1111111111101010
1111111111010100
1111111111000011
10000
100110
100101
0
1100
1111111111110100
100101
1111111111001011
11010
10111
1001000
1111111111001100
101101
1000
1110
1111111111110101
0
1001
10000
1001
1111111111100001
110
110
101011
111
1111111111100101
100011
10000
1111111111111011
111110
1111111111010001
11011
1111111111111100
1111111111110100
1111111111100001
1111111111100010
1111111111110011
1111111111111101
110010
11110
11110
1101
1111111111100101
1111111111101101
10111
10111
1111111111111000
1111111111110000
100010
1111111110101001
1111111111100101
10011
1111111111110011
1111111111111011
1111111111100110
111001
1111111111100111
1111111111111010
1111
1111111111111001
1111111111011101
1111111111101001
1111111111110111
0
1111111110110110
10
1111111111011010
1111111111110000
1111111111100100
1111111110110011
1111111111111110
1111111110111010
11111
1111111111100011
11000
1111111111011001
100001
1111111111000011
1111111110101111
10100
1111111111100000
1111111111110000
1111111111110000
1111111111110011
1111111111100100
1111111111110111
1111111111010100
10000
100000
1111111111001010
110010
1111111111111101
1111111111100000
100010
111000
101011
1110
11001
1111111111110111
110011
11100
1111111111011110
100011
10
10111
1000100
1111111111111110
1111111111111000
1111111110101111
1111111111100001
100001
11001
1111111111100100
10101
100
1111111111000011
1111111111011011
