10
10111
1011
101101
10000
1111111111111010
100001
1000
1111111111100010
110101
1111111111100110
1111111111100010
1111111111001011
100
10110
101111
111000
1111111111011111
1111111111101100
1001
1
1111111111011111
1111111111001101
1111111111011010
1111111111111111
101101
10011
11100
100101
1111111111010111
11111
101111
1010
111010
1
1111111111101110
11011
1111111111101110
10
1101
111001
100
1000
1111111111100111
1111111111010010
1111111111101101
1111111111010101
110
1010
100111
1011
1111111111101000
1111111111101011
10
1111111111110110
11010
1111111111111011
1111111111010010
1111111111111010
1111111111110101
1111111111001010
11001
10010
1111111111111101
110110
1111111111111110
10111
1001
101110
1111111111111111
1111111111111010
1000001
1111111111011010
1111111111001011
100001
1111111111101001
110001
1111111111001111
1111111111100110
110001
1111111111010100
101101
1111111111000001
1111111111111111
1111111111101100
1111111111101000
1111111111011101
1001111
110110
1111111111010001
1100
1111111111110010
1111111111110000
1111111111010101
1111111111101011
1111111111111101
1111111111111111
1111111111110011
1111111111000111
1111111111110001
0
1100
100
0
10011
100000
0
100100
1111111111000111
100100
1111111111111101
101011
10011
1111111111110111
1111111111010111
111
1111111111111101
1111111111010011
1111111110101100
1111111111110111
10110
101000
1111111111101000
1111111111110110
1111111111110000
1111111111111000
1111111111101011
1111111111110010
10011
100000
0
1011110
1111111111111010
10101
1111111111010001
100011
1111111111000110
0
1111111111111010
1111111111100011
1111111111111001
11001
1111111111100010
1111111111100110
1111111111110011
1100110
1001
1111111111101100
1111111111111110
10111
1001
1111111111101001
1111
101011
101110
111110
10010
1111111111010000
1111111111100011
1000010
1111111111010000
1111111111101010
111
10111
110100
111010
1000
1111111111010010
1111111111011100
11111
1111111111100011
10111
101010
1111111111011010
110
1110
10000
1111111111110000
1111111111111011
1111111111101101
1111111111101011
11110
1111111111010011
1111111111111011
11010
1111111111111010
1111111111110001
1111111111110111
1111111111011000
1111111111110000
1111111111100011
1111111111111101
100111
1001
1111111111111100
1111111111111010
10010
110111
1111111111100001
1111111111100110
100111
1101000
1111111111101111
1110
1111111111001101
1111111111101001
1111111110111001
11
111010
100001
1111111111011101
1100
1111111111110011
1010
10010
1111111111101001
1111111111110101
11011
1111111111110100
1101
101001
1001
1111111111110111
1111111111000010
1111111110100010
1111111111110111
1
1111111111110101
1111111111100011
1110
1111111111110100
1111111111001110
10011
10011
1111111111110011
1111111111011101
111
1111111111010100
1111111111111100
101110
11011
1111111111010101
1000
1111111111111100
1111111111111110
10100
1111111111101101
101
10101
1011
1111111111111001
1111111111110110
1111111111011110
111
1111111111011000
1111111111100111
1111111111111010
101110
100
11010
1111111111101111
10100
0
0
11000
100111
1111111111101110
1111111111001011
10100
1101
11010
10000
100011
1111111111100110
1001
0
1111111111001100
110011
1111111111110000
101
111
1111111111110100
1111111111101000
11111
101110
1111111111111100
10010
101011
100010
1111111111110010
110001
1111111111011000
0
1111111111011011
1111111111110110
1111111111110100
1111111111111011
1010
1111111110111011
1111111111011010
1111111111000011
101
1111111111101101
100011
1111111111101100
101011
1001
10000
1011
1111111111110110
1
1111111111111000
1111111111101101
1111111111010101
1111111111001111
1111111111000000
100000
1111111111111000
1111111111110110
1111111111101000
110
11100
11100
11
1111111111101010
1111111111001111
1111111110111010
100
1111111111111001
1001
100000
110111
1011010
111
10110
110111
1111111111001111
1111111111110111
1111111111110101
1111111111011001
1111111111010111
100100
101000
1111111111001111
11100
1111
111
100100
11000
100000
1
10010
1111111111011001
111000
0
1111111111011110
101011
1111111111011100
1111111111000000
1111111110111101
10000
1111111111111111
1101
1111111111010001
1111111111111110
1111111111101010
101111
1111111111110111
0
1111111111101010
10111
1001
10
1111111111111001
111
10111
1
1111111111110001
1111111111110111
1111111111100110
1001
110000
11010
1111111111110010
1111111111011100
1111111111110010
1111111111011010
100
1110
1111111111111010
1000
10
1111111111111100
1111111111100010
1111111111010110
10000
111010
100011
11010
1111111111010101
1101
11111
1111111111100100
10101
1111111111110010
1010
11000
1010010
101010
10101
1111111111110011
1111111111001110
1111111110111111
1111111111011111
1111111111011011
1111111111110001
1111111111011111
1111111111100111
1111111111011101
1111111111111010
1001
1111111111110000
1111111111110110
1111111111100100
110100
1111111111010110
101
1001
10000
1111111111010000
1
1111111111100010
10
11
11010
1111111111011111
1111111111110010
1111111111100100
111
1111111111100110
1111111111100110
1111111111110110
1111111111110111
100011
10
1111111111101100
1111111111010111
100010
1111111110111001
1111
10
101011
1111111111101111
1111111111110110
100010
1000010
110100
1111111111011001
101011
1000
10011
1111
1111111111111010
111001
1
111
1111111111110010
111
1111111110110001
10110
1111111111101001
11
1111111111011110
1111111111100000
1111111111111011
111
1111111111100111
1111111111110010
1111111111101000
0
1
1111111111100111
11100
1111111111101011
10001
1111111111110010
10010
1111111111101011
11100
1100
1111111111011010
1111111111111110
101010
10111
1000110
1111111111111000
10010
1000
1111111111101011
1111111111100111
1111111111000111
11011
1111111111110111
100111
11001
1111111111100110
1000011
1111111111111000
1111111111111011
1111111111110011
1111111111001111
10111
101100
1111111111101100
1100
10010
1111111111001001
1111111110111100
100
1000100
1111111111011110
1001
101
10000
11011
1111111111101111
1111
1111111111111001
1111111111100101
1111111111110100
1111111111111100
111011
101011
10011
1111111111010110
111
1010000
111
1001100
1111111111111111
1111111111100101
110110
1111111111101001
1111111111111001
1111111111111010
1111111111111101
1111111110111110
100010
1111111110111001
10011
1111111110110010
1010010
1111111111010100
10010
100100
1111111111000010
1111111111101100
1111111111100110
110101
1111111111101111
1111111111001110
1111111111110111
1111111111110001
1111111110110110
1111111111101001
111
10101
1111111111110010
1111111111011011
1111111111011101
1110
10100
1010
1111111111110011
10110
1110
10001
1111111111011110
1111111111001110
1111111111111000
11011
1111111111100011
11011
111
10111
1111111111110010
1111111111110110
101
1111111111110110
1111111111100010
1000
1111111111111000
10101
100001
101110
100100
1111111111011111
100010
1111111111100010
101100
101000
1111111111000110
1111111111101010
11011
1000001
1111111111010101
10010
1111111111111101
11
1011
1111111111101010
1111111111110101
100010
10110
111101
1111111111010100
1111111111111110
1111111111100000
1111111111111100
1111
1111111111011100
1111111111110001
1111111111111011
10001
10110
1111111110101010
1111111111110000
10101
1000
11111
1111111111110000
100000
1111111111101001
110100
1111111111101101
1111111111011101
1111111111110001
100000
101101
1000
1111111111110001
11010
1111111111100001
1111111111110011
1011
1111111111011110
1111111111110101
1000
100011
1111111111011010
100
1000
1111111111011011
10101
10000
1001
1111111111101111
101101
1111111111111000
100001
101101
101101
1111111111001001
11001
100001
101
1111111111100110
11111
1111111111111100
1111111111001111
1111111111110011
10010
100001
10101
1111111111110111
110
100111
1111111111001111
110
11101
11
1111111110111101
1111111111101100
1111111110110100
100
11000
1111111111000110
1101
101101
1111111111110011
10
1111111111111101
1111
1111111111110010
1100
1111111111101110
100011
100000
1111111111111101
1010100
1111111111110001
1111111111100110
1111111111001111
1111111111110011
1111111111011110
1111111111100110
1
10101
1111111111110001
1111111111111111
10011
10100
1111111111000100
1111111111001111
10111
100
1111111111101111
1111111111100111
10000
1111111111001111
11001
1111111111000101
1111111111101011
1111111110011100
0
1111111111100010
110
110011
10010
1111111111001011
1111111111110000
1111111111101011
1111111111000000
110001
1111111111001010
1111111110110111
1111111111011110
1101
11001
1111111111000010
1111111111100011
11
1000100
11
1001
101011
1111111111101010
1001111
1111111111011110
11001
1111111111011111
0
1111111111101001
1111111111111001
10
11000
1011
1111111111011101
0
1111111111011010
1111111111010111
1111111111101110
1001011
1111111111100100
1111111111111101
1010
1111111111100000
1100
11011
1111111111111011
1111111111100111
1111111111011110
1000
0
100010
1111111111101001
1010
1111111111110000
1010
1111111110111111
1111111111010101
101001
0
1011
