1110
1111111111110000
1111111111110111
1111111111110100
101
101000
11010
1010
10001
1111111111100101
1111111111111001
100100
101101
1111111111111111
10001
1111111111011101
1111111111101011
1
11110
1111111111101100
1111111111010111
1101
1111111111110001
1111111111010100
1111111111111000
1111111111100101
101101
11011
1111111111010101
10000
1111111111100011
1111111111110000
1111111111010010
1111111111011111
10
1111111111111100
100001
1000111
111
100111
1111111111111010
10111
110110
1111111111010100
0
1111111111100000
1010101
1111111111010000
101
1111111111101010
1111111111111110
1111111111011100
1111111111101000
1111111111010011
11110
1111111111101011
11101
1111111111101010
11011
10001
1111111111100011
1111111111010111
101010
10101
1010
101001
1111111111110011
110110
1111111111100011
1111111111111110
1111111111100100
1010
1111111111010100
0
1111111111110001
1111111111010101
1111111111100111
10011
1111111111110001
1111111111100110
1111111110110111
1111111111010100
0
1111111111110000
1111111111111110
1111111111100000
1111111111011010
1111111111110111
1111111111011101
101111
1011
1111111111100110
1111111111110010
11100
1000
1100010
1111111111101101
1111111111101010
1001
1001
10110
1111111111101111
1111111111100110
1001
1111111111111000
101
1111111111110001
1111111111111010
1111111111101100
0
1111111111010011
101
11011
110001
1010
1111111111100001
1111111111101010
11000
100110
110
11001
11100
1111111111111111
1111111111111100
1101
1111111111111111
1111111111101110
10110
100110
101
1100
1000
100001
1111111111111111
101111
100
1
1111111111100100
100000
1111111111000011
1111111111111110
1111111111101000
11000
1111111111011110
101000
0
111
1111111110111010
10111
1010
111101
1001
1111111111101110
1101
110001
1111111111111000
100
0
100
1111111111110010
101011
1000
1100
101
1111111111110011
1111111111001101
11000
101
11110
111011
1111111111011001
0
1111111110111100
1111111111001110
1111111111100101
110000
1111
1111111111111111
1111111111110101
1110
1111111111010011
10010
1111111111111101
11000
111
1011
100011
11111
0
1111111111011010
1111111111101010
10100
1111111111100010
1111111111100110
101
100
1111111111100100
101
11100
1111111111110000
101000
1111111111111001
0
1111111111000111
1111111111110110
1111111111110101
10010
1111111111100110
1111111110110110
1111111111011100
11
1111111111101100
1111111111100101
10111
1111111111111111
1111111111011000
1111111111110101
10001
1111111111111111
1111111111100011
1111111111111001
1100
1111111111100110
101101
10100
1101
101100
110110
1111111111110000
10001
1111111111111111
1000001
101
1111111111011100
1111111111101010
100011
1111111111001111
100
1111111111110001
1111111111110000
11000
1111111111111101
1100
10101
1111111111011110
1111111111100001
1111111110010110
11001
1100
1111111111110010
101110
100100
111
1111111110111011
11000
10
1
10000
1111111111011010
111011
11010
101100
101100
1111111111001101
1111111111000000
1111111111001101
1111111111100100
1111111111000101
100111
1111111111011110
1111111111010000
1110
1111111111101100
100101
100011
1111111111011011
111101
0
1111111111111111
1111111111100000
1111111111110010
10110
1111111111101111
10100
11001
11100
100010
1111111111010000
1111111111101100
1111111111100101
11111
1111111111100101
1111111111100000
1111111111111110
1111111110111111
11101
1001
1111111111011101
0
1111
1111111111011000
100010
1111111111111001
1111111111011000
1111111111101001
1111111111100000
1
11010
1111111111001000
110101
10111
1111111111011011
11110
1111111111100011
11001
1001110
11100
1111111111011100
10010
101111
1111111111101011
1111111110011100
0
101010
11000
1111111111111100
1000
1111111111011101
1111111111110111
1111111111111100
111101
1111111111111000
1110
1111111111101111
1111111111000111
1111111111101000
1111111111101111
1111111111100101
101001
11101
1011
111111
1
1111111111110111
101010
1111111111111000
1111111111100111
11010
1111111111011111
1111111111111011
110100
1000011
1111111111110001
101001
111
100011
110000
1111111110111000
1111111111110101
101011
1111111111111011
1111111111101111
1111111111101110
1111111111100100
1111111111110100
1111111111101010
111001
1111111111001001
1000010
101111
1111111111111110
1001
100011
1000
11111
100101
1111111111110000
111011
11001
1111111111110111
1111111111111111
1111111111110110
1111111111100100
11101
101111
1111111111100110
1111111111100101
100110
1111111111100100
110100
100
11111
0
1111111111111011
0
100001
11011
1
1111111111111011
11111
10101
111100
1111111111100110
10111
111000
11101
1111111111101001
11001
11
111
101000
1111111111110111
1111111111011100
101
1010110
1111111111011000
1111111110111110
1111111111101011
1111111111100001
1111111110101110
10010
1111111111110101
1111111111000101
1111111111010011
1
1111111111111011
0
1111111111011100
11
100000
1111111110111000
1111111111111000
1000111
11110
1111111111110110
1111111111111010
1111111111100111
100111
1111111111101001
1001001
1111111111111011
1111111111010010
1001101
100000
1111111111110101
1010101
1111111111100111
11011
100110
1111111111110101
1111111110110101
1111111111101100
11110
1
101
1111111111101011
1010
1100
1111111111010011
1111111111111010
1000
111101
1111111111101101
1111111110111100
1111111111101011
1111111111110110
110000
1111111111111001
11011
11001
11100
1111111111101110
1111111111101010
1111111111110001
1111111111111001
1111111111101101
1111111111011011
11010
10000
1111111111010110
11101
111101
1111111111010000
11011
1111111111110101
1111111111111100
1111111111011011
1111111111111111
1111111111011011
1111111111110100
11110
1111111111101110
1
1111111111111011
10
1111111111001001
1111111111111110
1111111111001111
1111111111101100
1111111111111011
1111
1111111111110101
1111111111100010
111111
1100111
1111111111101010
1111111111110001
1111111111101001
110101
100110
11100
1111111110111011
110
100010
1111111111100010
1111111111111111
1111111111100001
1111111111100001
0
1111111110100101
1111111111111100
1111111111100000
11101
1111111111000111
1111111111101011
1110
1111
1111111111011010
1111111110111101
1111111111111011
1001100
1101
10011
1111111111111100
1111111111100111
100000
10111
111
1111111111111010
10110
1111111111111011
1111111111110101
11000
1111111111000011
101
1000
1111111110111101
11011
110101
100110
11010
1111111111001101
100110
1111111111010111
11101
101
100110
10110
110
1111111111000111
101111
1111111111100011
1111111111011111
1111111111110000
100100
1111111111101110
1111111111111110
1111111111111110
0
1111111111110111
1111
1111111111001101
1111
1111111111111000
10000
1111111111100111
1111111111110110
0
11111
1111111111111100
1111111111110010
1111111111001011
1111111111101000
1111111111110010
1000
1111111111111010
1111111111100010
100000
111
1111111111100111
101
1111111111101100
1111111111110101
1111111111100000
1111111111000011
1001
1111111111111101
100001
1111111111011100
10001
10111
1111111111111010
1111111111110010
1111111111100001
10
1111111111110100
0
1111111111000000
101101
110
1111111111111000
1111111111101010
1111111111011101
10010
11101
1111111111101111
1111111111111110
1111111111111010
1111111111010010
100111
10110
1111111111110001
0
1111111111101100
1111111111001011
1011001
1111111111101000
0
1111111111101000
1111111111111000
10110
1111111111110001
1100
1111111111111110
0
11
1111111111101110
1111111111010010
11011
100000
1111111111100101
1111111111011110
1111111111111100
1111111111010111
11100
1111111111110010
1111111111010100
1111111111110111
1111111111100100
101110
101
1111111111110111
1111111111101101
1111111111011111
1111111111111001
111010
100001
11110
0
1111111111100111
1101
11111
1111111111100100
100111
1111111111111100
1111111111110110
1110
1111111111111010
1111111111100000
1111111111001100
1111111111110110
1111111111100001
10100
1
1111111111101010
111
1111111111000100
1111111111100011
1001101
10
1001
100
11011
1111111111110101
1111111111001000
100
101010
11000
100000
1111111110111001
111
1111111111101110
111
1111111111111110
1111111110110111
1111111111011101
1111111111111010
101011
11101
1001011
1010
1111111111011110
0
1111111111101010
1111111111100101
1111111111110101
1111111111100111
11010
1111111111001001
1101
1111111111011101
1111111111010101
1111111111010010
11001
1111111111111111
1000
100
1111111111100000
1111111111110100
1111111111110011
1000
1111111111110001
1000011
101100
1111111111001001
1111111111100010
1011
1111111111111001
111
11000
1111111111111100
10110
111100
1111111111101010
10001
1000
1100
1111111110111100
1111111111100000
1111111111110111
110111
111
1111111111000001
10010
1
1111111111011100
1111111111011111
101010
1001000
11100
1111111111010011
1111111111101001
100001
11110
10110
1111111111011011
1111111111010100
1111111111110000
0
111
111011
1111111111110011
1111111110111100
1111111111110010
1101
110111
1111111111111110
1111111111101011
1
1111111111101110
10000
10101
1111111111101000
1111111111001010
10100
1111111111101101
11010
111011
0
111
1111111111011100
101
11011
1111111111110010
