1111111111101010
1000
1010110
1111
100
1111111111101100
1111111111110101
1111111111111010
11001
1111111111010111
1111111111100111
1111111111110111
1111111111111000
101010
1111111111010010
11010
1111111111111101
1111111111010001
111
110
100010
1111111111110111
1100
1111111111001101
1000000
1111111111011110
0
10101
1001
1000111
1110
1111111111110101
100
1111111111111110
11110
110101
1110
1010
11010
1111111110101011
10100
1111111111010111
101011
11
100010
10010
100110
1111111111111101
10101
1111111111111111
0
1111
1100
10100
111010
1111111111011001
1111111111111100
1111111111101111
11001
1111111111111001
1000
1111111111111011
1111111111010101
110100
1011
1111111111111001
1111111111011110
1000100
1101
100010
1111111111110100
1111111111110110
110
1111111111111010
100111
101001
1111111110111110
11100
1111111111101101
100010
1111111111100111
100001
111
1111111111100000
110001
1111111111110010
1111111111010010
1111111111100110
101000
1111111111110111
1111111111101001
1111111111101110
1111111111010011
1111111111110111
100011
1110
111111
11010
10
1111111111011100
1111111111111010
1111111111110000
1111111111101000
1
1111
1111111111111100
100011
1111111111100110
1111111111010010
1111111111011111
1110
1111111110101010
111010
1111111111101100
10100
1111111111110101
0
1111111111011001
1111111111111100
101100
101010
1111111111010110
1111111111111000
10010
11010
11011
110010
1111111111011100
1111111111011110
10
1000011
1111111111110111
100
1111111111111111
1111111111110101
1111111111110100
1100
1111111111101000
110
1000110
11001
1111111111110100
110110
1111111111110110
1111111111110011
1111111111101011
0
1101
1111111111101001
1111111111111010
1
1111111110111011
1111111111111010
1111111111110010
1111111111101110
100100
10
1111111111110011
1111111111011001
11011
11000
1111111111110111
10101
1111111111010001
1111111111110100
1111111111110000
100010
10011
101100
1111111111101010
1111111111010011
1111111111110100
101000
10010
1111111111100110
1111111111101100
1111111111111101
1111111111000111
110100
1001111
1001101
1001
1111111111101111
1111111111110011
10010
1111111111011111
1111111111111001
101101
1111111111110100
11001
10101
1111111111011010
100011
0
1000000
110010
100100
1111111111000101
1111111111110010
1111111111010001
1111111111010010
1111111111111100
1111111111111001
101001
11000
11
1111111111010100
110001
1000
1111111111011101
100101
111010
1111
1111111111101010
1111111111110010
1111111111000000
1101
11111
101011
10111
11010
111100
1111111111100110
1111111111110101
1111111111101100
100011
1111111111110011
1101
101
10100
1111111111100110
10101
1
10
1111111111010111
11
1111111111010110
1011
1111111111110110
110010
1111111111100111
10011
10011
1111111111111000
1111111111000010
1111111111111110
1111111111110100
1111111111000110
0
1111111111011010
11110
101110
1111111111101110
1111111111000000
1111111111100000
1
1111111110101010
101011
11011
1111111111111100
1010
1111111111011010
1111111111111101
1111100
1111111111110010
1001
100110
100000
1111111111110011
1000
10010
101100
11
111000
1111111111111100
1111111111101100
1111111111110110
1111111111110010
101100
1111111111100010
1111111111111100
1111111111010100
1111111111110111
1111111111101001
10000
11010
1111111111001101
1111
11011
1
101100
1111111111100000
1101
10101
10001
1111111111111101
1111111111110101
1101
1111111111010010
1
1111111111101101
1111111111101111
11110
1111111111011111
1111111111111101
1
10000
101001
1111111111110100
110000
1000
1010
1111111111101010
100
1111111111111011
10111
1111111111011111
100011
1000010
10100
1111111111101001
11001
1111111111100101
10001
0
111001
100
111001
1111111111110001
1111111111111001
1011
101001
1111111111100111
1111111111011001
1111111110111101
100000
101010
1111111111010100
1111111111100101
1010
1111111111011000
1111111111110110
1111111111010000
11101
1111111111011000
110011
10011
1111111111011101
1111111111110110
1111111111000110
111
1111111111010111
10100
10
101110
1111111111110010
1111111111101110
1111111111111000
100010
1111111111100000
1111111111111100
1111111111111010
1111111111101000
1111111111101011
100110
10001
1100
1111111111001110
1111111110111100
111011
1111111111011101
1111111111110110
1111111111100111
100011
1000
110
1111
1111111111111111
11011
1111111111010110
110011
110000
1111111111111001
1
1111111111010010
1011
1111111111000101
11000
1111111111000011
100011
1111111111101110
1111111111110100
101100
1111111111011101
10001
1111111111010101
10001
10100
1111111111100011
11011
1111111111010100
1111111111100101
0
0
1111111111110111
100010
110110
1111111111100110
0
110000
1111111111110101
1111111111101001
1111111111100111
1111111111100110
1111111111111101
10100
1111111111110001
110010
1111111111100000
1111111111110001
1111111111111010
1111111111001001
1111111111101101
1111111111101011
1111
11010
0
1111111111111011
1111111111111101
100001
1111111111000100
1111111111101110
1111111111111110
110
1110
1111111111000010
1110
1111111111001011
1111111111111111
10100
101111
1111111111101001
1111111111001110
1111111111110010
11110
100010
1111111111000010
100001
10000
1111111111001100
101
101010
1111111111100100
101
1111111111011111
10
1111111110011101
1
1111111111101110
1111111111111001
1111111111011111
1001
1111111111100111
1111111111111011
1111111111111001
1101
101100
1111111111111001
10001
1111111111101101
101
1111111111101011
1111111111111110
1111111111110101
100010
1111111111110010
1111111111110101
1111111111000011
1111111111111000
1111111111110111
1111111111100100
1111
1001
1111111111111001
1111111111100111
10110
10101
101010
1111111111110000
101101
1010
1111111111110111
100100
100011
100
110010
101010
10011
0
1111111111100110
1111111111110000
1111111111101010
1111111111111100
1111111111110010
1111111111111101
1111111111111010
1111111111011110
11111
1111111111111010
0
10000
1111111111000100
10100
1111111111111001
1111111111101101
10000
1111111111110100
1011
11101
1111111111100110
1111111111110101
1111111110011001
1111111111000101
1111111111110001
1111111111010000
1111111111000001
1111111111111001
110
1111111111110000
1111111111000111
1011
1111111111111000
1111111111100001
1111111111111100
1000011
0
10100
1111111111010101
110
1111111111001100
10
1000
1111111111011001
1111111111111000
1101
1111111111101000
10
1111111111101010
1111111111010011
1111111111001001
110110
1111111111110001
111100
0
100011
110011
101010
1010011
1111111111111001
1111111111100010
101111
1111111111111110
111
11000
11000
1111111111110100
1111111111001000
11011
100001
1111111111011001
1111111111100011
1001
1111111111110000
1111111110111110
10111
101101
1000
1100
1111111111010011
1111111111101100
100010
1111111111111010
10110
1111111111011111
11000
1111111111001001
11000
1111111111100111
1111111111000101
10
1111111111111101
1111111111111101
1111111111110111
11111
1111111111100111
1111111111010100
1111111111011001
1111111111111100
100010
0
110
10100
1111111111111100
1001
1111111111110101
10011
1111111111101110
1
111110
100
1111111111010001
10000
111000
0
1111111111111001
11
1111111111010000
10101
1111111111010101
1111111111111011
11
101
1100
10011
100
10111
0
1111111111100111
10010
1111111111110010
1111111111001011
1111111111111011
101100
1111111111100001
1111111110110110
101
1111111111111010
100001
1111111111001001
1111111111010000
1111111111101010
1111111111110001
1111111111101100
1111111111011100
1111111111111010
1111111111101001
1011
110001
0
100001
1111111111111001
110
1111111111011010
100011
1111111111101101
1111111111110101
1111111111110000
1111111111111111
1110
1111111111111000
10011
1111111111111101
1111111110110010
1111111110110000
1110
110
1111111111011011
111101
110
110110
10100
1000
1111111111010011
101101
1111111111100011
111110
1111111111101111
10110
100
1000001
1111111111101001
10111
1111111111100100
10010
1111111111111110
1111111111010001
11010
1111111111000111
1111
101001
110
1111111111101001
1000010
1111111111011100
1111111111111110
1111111111101010
1111
1000
1111111111111011
100011
11100
101001
1111111111100111
1111111111110110
1111111111000111
1111111111110010
1111111111100011
10101
110
1111111111111001
1111111111110101
1111111111111111
101100
100110
100001
1111111111111100
1111111111001110
10001
1111111110111111
1111111111111111
1111111111100001
1111
11
110
1111111111110111
1111111111101100
11110
10111
1111111111100111
10111
1111111111101111
1111111111100010
1111111111101110
1111111110110101
1111111111111001
10110
1111111111100001
11110
1111111111110001
111
1111111111100011
1111111111101001
1111111111110111
11001
100
1111111111100100
1111111111011101
1111111110111010
1111111111111111
1111111111100001
110010
10101
0
1111111111111000
1111111111110000
101000
1111111111101010
1111111111100001
1111111111011011
1111111111111011
1111111111011010
1111111111111110
11100
1111111111101011
1111111111110011
1010001
10111
1000
10000
10101
101
1111111111111000
1111111111000100
1011
1001110
1101
1111111111011011
0
10100
1111111111110001
1111111111010000
1111111111101000
100101
10010
