100010
11
101000
1111111111110010
1111111111000001
1111111111111010
101111
1111111111101010
1111111111111100
100110
110000
1111111111100101
100001
1111111111010000
11110
111
1111111111110011
1111111111010000
11100
1111111110011110
1111111111100001
11101
11000
1111111111100101
1111111111101000
1111111111100011
1
1111111111110000
1100
100111
11010
1111111111010011
1111111111101100
1111111111111101
11101
1111111111111100
10000
1111111111101010
101000
11000
1111111111011111
1111111111110100
1111111111001010
1111111110111000
1111111110110110
10000
11000
1111111111101001
1111111111100011
1111111110110111
1111111111110011
0
1010
100010
1111111111000100
1011
100011
1111111111101001
100100
1111111111010101
0
1111111111111101
1111111111110110
1011
10
101001
101011
1111111111111001
0
1111111111001011
10011
1111111111101111
101011
1111111111100100
110
1111111111010110
100101
1100
1111111111001011
1111111111011100
1011
1111111111101111
1111111111100110
111010
1111111111100010
1111111111001010
101101
1111111111000101
10010
1111111111011000
11010
1111111111001101
10010
1000
100010
1111111111101100
100000
1111111111111010
1111111111111110
101111
1111111111101010
1111111111101011
1100
1001
0
101
1111111111011001
1111111111011100
111
1111111111111111
1111111111100010
1111111111011100
101
111001
1111111111101010
1111
1111111111101000
111
1111111111110100
1111111111101010
1111111111010010
1111111111101000
111011
1111111111010011
10000
10100
1111111111001101
1111111111111011
1111111110101110
1111111111010100
1111111111101011
1111111111011111
1111111111001111
1
1111111111110100
100011
111001
10110
110011
1111111111111011
1111111111101101
111
100000
100110
11011
10110
1111111111111101
100
111000
0
101000
1111111111111100
10000
1111111111100010
10000
1111111111110110
1111111111011001
110100
10000
111000
1111111111011000
1110
101100
1111111111111010
1111111111111011
1111111111101010
110
1000100
1111111111111000
10
10000
1111111111111100
1111111111101010
1111111111111010
10
1010
11110
1111111111011000
11001
10110
11110
10011
1111111111110111
101010
1111111111100111
1111111111111111
1111111111000100
1011
1111111111111101
1111111111100101
1111111111100001
1111111111110000
101001
1111111111111111
1111111111111110
1011
1110
1111111111011101
1111111111110001
10011
11
1111111111111001
1111111111110001
1111111111100010
1111111111101110
1111111111110010
1111111111101101
111
110111
1111111111010100
1111111111100001
1001
101010
1111111111101110
1111111111110010
1111111111011110
1111111111101111
1111111111111010
100101
10011
1100
1111111111101011
100001
100110
1111111111110010
0
1111111111000001
11111
1111111111111111
1111111111101101
1111111111111011
1111111111010101
1111111111001111
1111111111111110
1111111111101110
11
101011
10110
10011
111010
1111111111001110
1111111111011000
1101
110
1001010
1111111111010110
1111111111110011
1111111111111101
1111111111100000
1111111111010001
1111111111100110
1111111111010100
10110
10000
1111111111010000
110000
1111111111100111
1111111111110101
110
11001
1111111111110110
1111111111111111
1111111111110100
1
1110
10011
1111111111011100
1000100
1011
1111111111001110
100
1111111111011110
10111
110000
100
1111111110101101
11111
1111111111011101
1111111111011111
1111111111001010
1110
1101
1111111111110111
1111111111111010
1111111111001001
1111111111110110
1111111111101011
110100
1111111111110111
10001
1111111111010110
1111111111101100
1111111111010110
1111111111100001
1111111111001000
111100
10011
1111111111110100
110000
1111111111100000
1111111111010111
1000
1111111111100001
110000
1111111111111100
1111111111100111
101111
1111111111011110
100100
1111111111011111
10
1111111111111011
1111111111010101
1111111111110100
10111
1111111111100111
1111111111010100
1111111111010001
1111111111010011
1
1
110111
1111111111110100
1110
1111111111101001
1111111111010000
0
1100
11
1111111111000000
101101
1111111111110001
10010
1
1000010
110100
1111111111101001
1111111111111001
1111111111100011
1001100
0
1111111111111010
1010
1111111111110100
1111111111100100
11000
11010
1111111111100000
1111111111111001
11111
1111
1111111111100010
1111111111110110
10011
10
1111111111010000
1111111111010110
110
110
1111111111001010
1111111111110010
11001
11010
1111111111010000
1111111111001111
1111111111011010
1111111111101010
10110
110001
100
1111111111101000
1111111111110001
1111111110011111
1111111111111001
1111111110110100
10111
1111111111010110
100001
10110
1111111111110100
110001
100100
1111111111011011
101110
1111111111110100
1111111111001011
1111111111100001
1111111111101101
100110
101
1111111111101100
1111111111001011
1111111111110001
100001
1111111111011001
1111111111101101
1111111111101110
110001
1010111
1111111111001001
1111111111111101
1111111111101001
0
1111111111110001
1111111110111001
101001
1000
1111111111101110
1111111111011011
1111111111001001
1111111111101010
1111111110010011
1111111111001110
1111111111100110
0
1111111111101001
1111111111100100
111000
1010
1111111111101110
1111111111100101
11111
1110
1111111111101001
1111111111110111
110001
1111111111110100
1111111111100001
10110
11100
11
1101
1111111111100101
111
1111111111111001
1111111111100101
1111111111111100
1111
1111111111001100
1111111111111110
11011
11101
1111111111101000
100101
1111111111110111
1111111111101101
1111111111000101
1111111111010001
1111111111111000
1111111111101000
1111111111101101
1111111111110000
1111111111010001
1111111111110011
10010
1111111111110101
1111111111101111
10110
1111111111101111
1111111110111010
1000
100110
1111111111111001
1111111111100011
1111111111111000
1111111111111001
1111111111110001
1111111111101101
110011
101
1111111111100000
100110
111001
10110
1111111111100101
110010
1111111110011111
1000
1111111111111000
1111111111010000
1111111111100010
111010
1111111111011100
1010
11
1111111111100110
1111111111010111
1111111111111011
1001000
1111111111011101
1111111111001100
11100
1111111111111000
1100010
1111111111011111
1111111111110000
10100
1111111111011100
1100
1101
1111111111110100
1111111111111111
1111111111101000
11
1100
10010
1111111111101111
1111111111111101
1111111111111110
110111
1111111111111111
1111111111110101
110100
1100
10100
11
1111111111110101
1111111111001111
1111111111110010
1111111111001111
1111111111000101
1111111111011100
1111111111111110
1111111111010010
101000
100010
11111
101100
10001
100111
1111111111110011
1111111110110110
1111111111101111
1111111111000001
1
1100
1111111111110100
1111111111001100
101011
11110
111000
101
1111111111111010
1111111110101110
1111111111111001
10000
1111111111001111
10010
1111111111110010
11011
1111111111111001
1111111111010100
1111111111010010
1111111111010001
1111
1111111110101010
1111111111101100
1111111111011001
101101
1111111111101011
11111
0
1111111110100110
110
1111111111101100
1111111111110000
1111111111110110
1001
1111111111101011
1111111111000001
1000
1111111111101100
1111111111000011
0
1111111111001100
11110
1001001
1111111111110110
1111111111000110
1110
100
1111111111100100
100001
1111111111011110
100001
110
1111111111101011
1111111111101011
0
11010
1111111111111110
1111111111110010
1101
0
101110
1001
1111111111101001
1111111111101100
1111111111110100
0
111
1111111111010111
100
1111111111100111
1111111110110011
1111111111110101
101101
1111111111110000
1111111110111111
111110
1111111111100000
1111111111110101
1111111111111110
1111111111100001
10001
1111111111101011
1111111111110100
1111111111111001
1111111111101001
1111
10101
1111111111010010
1111111111000100
1111111111101001
1111111111100011
110
1111111111100010
1111111111101100
1001010
1111111111111100
1111111111110001
1111111111111101
1111111111010001
1111111111110000
1111111111110010
1111111111111010
1111111111100010
0
10101
1111111111100010
1111111111011110
1111111111111101
1111111111010111
11
111
10
1111111110101111
10111
1111111111111111
1111111111011110
11001
11
1111111111011001
1111111111111000
1111111110111001
11110
11
1111111111101011
1111111111101110
1110
111
1111111111101101
1111111111011011
10000
110
1111111111101000
1111111111110001
1111111111111110
1111111111011110
1111111111111101
1111111110111101
101010
1111111111101101
1111111111011100
0
0
1111111111111111
11000
1111111111111011
1011
100
11
1111111111011111
1
1111111111101000
110000
0
1111111111110101
100111
100
1111111111101111
1111111111110011
10010
1111
10000
1111111111110100
1111111111101000
1100
1
1111111111110010
110
1000
1010000
1111111111111000
1111111111010101
1111111111110111
1001
100
110100
1111111111111111
1111111110111000
11000
0
1001101
1111111111000010
11111
1111111111011101
1
1111111111100010
1111111111111110
1111111111101101
1111111111111010
1111111111101011
1111111111110110
1111111111100111
1000111
1111111111111111
11111
1111111111110011
101101
10110
1010000
1111111111101010
1111111111100011
100011
110000
1111111111001011
10
1111111111110100
11011
1111111111111101
1111111111011000
1111111111111100
1010
1111111111010001
10000
1111111111111111
1111111111101110
1111111111111111
11001
1011100
101101
1000
1011
111110
100010
1111111111110110
111
11
10100
1111111111111100
1111111111111010
100011
100
1111111110101011
110010
11010
11000
1111111111101101
100011
1111111111100001
1111111111110110
1111111111100000
1111111111011101
100100
1111111110110001
11001
1111111111101000
1111111111010100
111111
1111111111100110
1111111111010100
1111111111011000
1011
