1101
110000
110010
1111111111110001
110
1111111111110011
110000
1111111111010110
11011
111100
1111111111100000
1111111111110001
10100
100010
1111111111101111
1111111111101100
101
1111111111101011
1111111111110000
1111111111111111
1111111111110110
1111111111101000
1111111111111100
10010
10110
1111111111010101
11
1111111111111111
1111111111101010
1111111111101011
1111111111100100
110010
100110
1111111111111101
101101
1111111111011111
1011
1111111111000110
1111111111101001
0
1000010
1111111111101100
1111111111111010
11010
110
1111111111110010
1111111111110110
1111111111000110
1111111111110001
10001
1111111111100010
1111111111111100
1111111111100110
10010
1111111111101110
1111111111110110
1
1111111110101101
1010
1
1111111111001100
1101
111
11111
1111111111110000
1111111111010011
1111111111010100
1111111111110111
1111111111110101
10110
1111111111100100
100111
1111111111100001
11101
1111111111010110
1111111111110100
1111111111101111
1111111111010101
1111111111010010
1111111111110010
11110
1111111111101011
1111111111111011
1111111111110000
1111111111011111
1000
10100
1010
1111111111100111
0
1111111111110010
1111111111111100
1111111111110110
1111111111010011
100
1101
1111111111100000
1111111111101110
1111111111100101
100000
1111111111100011
1111111111100010
10111
11000
1111111110001111
1111111111100001
1001
1111111111100100
1111111111011010
1111111111011100
1111111111101110
101010
11100
1111111111111010
1111111111111111
10
11001
11111
1
1001
1111111111110100
1111111111011101
101001
1111111111110010
1111111111100001
1011
1111111111110101
100000
1010
10110
111010
1101
10000
1111111111101100
1111111111110101
110001
1001010
1110
1111111111100011
1111111111110001
1111111111110010
1111111111100110
1111111111011110
1111111111000101
10011
1110
1111111111101101
1111111111111111
100
1111111111000001
0
111
1111111111101011
1111111110111111
1111111111010111
1001
110000
1111111111100010
1111111110111001
111101
1000
10001
1111111111100110
1111111111110000
100
11111
11011
1101
1000
101001
1111111111011010
1000101
1111111111010000
1111111111000100
1111111111100111
101001
10
1111111111011011
1111111110111101
1111111110011101
1111111111011101
1111111111111000
100010
110
10110
101101
100101
111
1111111111101011
1111111111101000
1111111111111111
1010111
1111111111110000
1111111111101110
101000
1111111111111100
1111111111110101
1000
101101
11001
1111111111101011
1111111111101010
1111111111110101
1111111111001110
1111111111100001
1111111111011000
101
1111111111100100
1111111110111010
1110
11010
1111111111111000
1010
10111
1111111111101111
1111111111011010
0
10
100001
1100
101011
1111111111011000
101
1111111111111010
1111111110110011
1111111111111100
1111111111010010
10101
0
1111111111110110
1111111110111101
1111111111110000
1111111111111000
100100
1111111111100000
100111
1111111111101110
1111111111110101
1111111110111000
10110
1111111111101101
100000
10
1010
1111111111110110
11010
1111111110111011
101100
1111111111110010
11011
11000
10001
100100
1111111111111101
1111111111111100
1111111111010111
1111111111111100
111
1101
1111111111100101
1111111111100011
1001
1111111111111011
1111111111101110
1111111111110110
1111111111010000
1111111111111100
1111111111110000
1111111111100010
1111111111100101
1000010
101101
1111111111011110
111
111011
1111111111000100
111011
1111111111110000
1111111111001000
100001
1111111111110111
1111111111111011
1010011
101010
10010
11010
1111111111100100
10011
1111111111010101
1111111111011100
10000
1010
1000111
101101
1111111111111100
100000
10110
1111111111110010
101011
1110
11000
1111111111011001
10110
1111111111111010
111
1101
1111111111111000
101
11101
100001
1111111111101001
101101
1101
1111111111011000
10010
1111111110100011
1110
1111111111111000
1111
11000
1111111111110011
1111111111111100
101011
1111111111010000
1111111111110010
1111111111011111
1
11010
101111
10000
10110
111000
1111111110010000
1111111111100011
1111111111110110
101
101000
1111111111010001
1001
1111111111100111
1111111111100011
1111111111110100
100001
1111111111111001
100011
101011
11110
1111111111011101
1111111111011011
1111111111111100
1000
10
1111111111101010
11010
1111111110111110
1111111111111110
1100
1111111111111100
1111111111011011
1111111111101010
10001
110
1111111111101000
10011
1111111111010100
1001
1111111111110110
1111111111111101
10011
11101
1111111111010000
10000
1111111110111110
1000
1111111111110110
111011
101000
110
0
1111111111100000
1111111111011011
1111111111101111
111000
0
101000
1111111111000110
111111
100
10001
101
100001
1111111111110010
1000100
10111
10001
1111111111101100
1111111111011011
1110
10110
1000
1111111111110010
111101
11101
100101
111
1111111111111000
100111
11100
1111111111111111
101
1111111111100110
110111
111
100000
100001
10111
1111111111110001
101110
1111111111010101
100001
1111111111111010
0
1111111110111110
1111111111111101
1111111111000100
1111111111100101
1111111111101001
100010
1001001
1111111111011011
1111111111111110
1111111111111100
11001
1111111111111110
1111111111111001
100
10
101
11100
1100
1111111111101111
1111111111111101
1111111111110110
1101
1111111111111011
100011
10000
1001111
1111111111101001
10000
1111111111011100
10011
1111111111011000
1111111111111000
100
10001
101011
11000
0
1101
1111111111100011
0
1111111111101110
111
1010
1111111111011000
1111111111100100
111101
1111111110100101
1111111111100111
1111111111111111
11101
1011
11100
100
1010
1111111111110110
10010
100111
1111111111101010
1100
1111111111011101
1000101
1111111111111100
111010
1111111111010101
10000
1111111111111001
1111
1111111110010101
0
10100
100101
1001101
1111111111111000
1111111111101101
1111
1111111111111011
1111111111011011
1111111111111010
11100
1111111111101111
0
1111111111110011
1100
1111111111110101
1111111111100001
1111111111110111
1111111111100011
1111111111001110
1111111111110011
1111111111110011
1111111111100100
1111111111101100
100100
1111111110111010
1111111111001001
1111111111001001
1010
10011
100000
0
1011
101111
100011
1111111111110110
1000010
100101
11100
100
110
1111111111101110
101011
0
1110
1111111111011001
111100
100010
11001
1111111111111011
10000
1111111111011011
110
1111111111100111
1111111111110010
1011
10101
10011
1111111111111000
1111111111100000
1111111111011001
1111111111001100
1111111111100110
11010
11011
110110
1111111111101011
1111111111010101
11000
101100
1111111111110101
1111111111100110
1111111111111110
1111111111110101
11110
11000
10010
11010
1010
1111111111100100
1111111111011000
1111111111100100
1111111111111110
1111111110111110
1100
10011
1111111111011111
10001
1111111110111111
1111111111001000
1111111111011001
10101
11000
1000
110111
1111111111110110
11011
0
101110
1000
1111111111110010
1
1110
1111111111001111
1111111111111000
1111
1111111111111110
0
1111111111011010
1111111111001110
1111111111000111
1111111111001101
1111111111011100
1111111111110111
1111111111101100
1111111111101110
1111111111101110
1000
100011
1111111111101001
1
1111111111110100
1111111111100111
1111111110111101
1111111111101100
1111111111111100
101001
1111111111010101
10010
1101
111
10001
1
1
101111
1111111111101001
10010
1100
1111111111011010
1111111111000111
1111111111100111
1111111111111101
1111111111100001
1111111111100110
10101
1111111111110110
1111111111010100
0
1111111111110111
101101
1111111111101101
110
1100
11
11100
1111111110111011
1111111111111001
1111111111100110
1111111111111101
1111111111101010
101110
1111111111001111
11000
1111111111101000
1111111111101111
1111111111100101
10
10110
1111111110111101
111
101100
1101111
1111111111111010
100110
1111111111100111
11
11101
1111111111100110
101001
1111111111011110
1111111111111001
10
1111111111110100
10
1111111111011100
111
1111111111100111
1111111111000100
1111111111001111
1111111111000011
1
1111111111110110
1111111111110101
1111111111000101
1111111111011100
1111111111101001
100001
111101
1111111111111111
1111111111101100
1111111111000100
110111
1110
100100
1111111111110101
10010
1111111111100100
100
11110
1111111111011101
1111111111110010
1000111
1111111110111010
1111111111110111
1111111111011100
0
100001
1011001
101
11001
10001
1111111111001110
1
100000
1111111111011000
1111111111110011
1111111111111101
10100
1111111111100010
10011
1111111111101011
11110
1111111111011111
11011
11000
11011
11111
1111111111000101
1001
1111111110111101
1111111111101010
1111111111110001
1111111111101001
101
1111111111001001
100110
101110
1111111111111010
11100
101010
1111111111110100
11100
1111111111100110
1111
11011
1111111111000111
1111111111110011
1111111111101101
1111111111110101
101
1001100
1111111111100111
1001111
1111111111100010
1111111111011010
1111111111101101
1010101
1111111111111101
1111111110111010
1111111111111010
10101
1111111111111110
101000
1111111111101101
1111111111010110
1111111111001111
110010
1111111111101011
1111111111000100
1111111111110010
100
111011
1
1100
101101
1111111111100001
10110
100010
1001111
100010
1111111111110000
1101
1111111111110110
11000
