1111111111110010
1111111111000100
111011
10001
1011
1111111111001110
1111111111101100
111011
0
1111111111111001
101000
1000
1111111111100110
1010001
1111111111010000
101101
1101
11101
1111111111110011
1111111111110100
1111111111110001
1111111111011100
10
1111111111101101
1111111111100000
0
1111111111100011
1111111111110110
1111111111110100
1101
1111111111010100
10001
1111
100111
1111111111101100
1111111111110010
1111111111010001
1111111111111100
1111111111101110
1111111111110011
101011
1111111111111100
1111111111100100
101000
11100
1010
1111111110010001
100
110
101101
1111111111111101
1111111111101001
1111111111101111
1011
110
1111111111101001
100
101010
1111111111100011
101010
10100
1111111111110000
1100
1111111111101000
1111111111101100
1111111111111001
1111111111101101
1100
10
1111111111111111
1111111111101000
1011
1111111111110101
11100
10001
101110
1111111111101111
1111111111010111
111110
1111111111111100
1111111111110010
1111111111100010
1111111111110110
11000
100011
1111111111111011
1111111111100001
11000
100100
11101
1111111111111011
1011
1010001
1111111111110011
1111111111100111
1100
1111111111111001
1111111111011000
10
1000
1111111111001100
1111111111101100
1000
1111111111011110
1111111111011110
1111111111010011
1011
1111111111110100
110111
10001
111010
1111111111100101
1111111111000101
1011
1111111110111000
101011
101000
1111111111100101
1010
1111111111111100
101110
1111111111111100
1111111111001100
1111111110111001
1111111111101100
1111111111111000
1111111111100001
1001
10010
1111111111010111
1111111111011010
1111111111110110
1111
1111111111100011
101111
1111111111111000
1111111111100101
1111111111100010
1111111111111100
1111111111010001
1111111111110111
1111111111111010
1111111111110011
1011001
100101
100101
1111111111010011
10111
1100
1110
1111111111101100
1111111111100100
1111111111100111
11111
1101
1100111
100111
101
1111111111110001
1111111111011100
1111111111111011
1111111111101000
100
1111111111011111
1111111111111010
1111111111000110
1
1111111111111110
1111111111100111
10000
1111111111110101
10011
11101
10100
1111111111111000
1111111111111001
1111111111111010
1111111110111001
1011
1000
1111111110110100
1111111111111010
10111
11110
1010000
1110
11110
1111111111111111
101101
100101
1000
1110
100101
10101
100101
1111111110111101
1111111111101101
1111111111100001
1011
100011
10111
1111111111110101
10110
1111111111010000
100110
1111111111110100
1
10110
101
1111111111111011
111110
100001
100101
1111111111111011
11
1001001
1111111111110000
1111111111111111
1111111111111110
1111111111100101
11010
1111111111000010
1111111111111001
1
1110
111
1111111111111100
101101
1111111111011111
110110
1111111111101010
10110
100
1111111111011101
11110
1111111111110111
1111111111010110
101001
10001
101111
110011
11111
1111
1111111111111100
11001
101
101011
110
1111111111111110
10011
1111111111011100
1000010
1111111111111111
100100
1010
10011
10101
100100
1111111111110000
101010
1111111111111100
101100
10
1011
100101
1111111111111011
11111
1111111111111011
111
1111111111110100
1
10001
0
11111
100101
111011
100
1111111111101101
110
11100
1111111111101001
1111111111000000
1101
1111111110110101
1111111111110010
1111111111100101
11111
100100
1111111111100100
11101
1111111111111000
110010
1100
1111111111011101
11010
1100
0
11101
1111111111110100
1111111111011111
111010
111011
1111111111110110
1111111111110000
11100
1111111111100101
1001
1111111111111111
10000
11110
1111111111100110
101
111101
110
1
10111
10101
111000
1000
1111111111110010
111100
1100
1111111111101101
1111111111111001
1111
10
1101
1000011
1011
1001
1111111110011001
1111111111100111
1111111111101011
1111111111110000
1111111111111110
1010
100
1001
1111111111111011
10001
0
0
1111111111111010
11001
1111111111101100
1111111111101100
111
11001
1011
1111111111110000
10101
110001
1
1111111111111101
1000
111100
1000011
100
1000111
1111
10
111
101
1111111111101011
101000
111
1111111111101100
1111111111001100
1111111111100000
100001
1111111111101000
1111111111111110
11
1111111111100111
110110
1111111111100011
100010
101001
1111111111101011
1111111111100000
100000
1111111111111110
1000
1010111
1011
11000
111
11100
1111111111100010
1111111111100100
1111111111101010
101111
10
1010
1111111111011000
1111111111110001
1111111111100100
1111111111111000
1111111111101000
1111111111100011
1001
1111111111100011
10110
100001
1111111111011011
1101
1111111111110011
1011
110
1111111111110100
1101
1010
1111111111101000
0
100110
1111111111110111
1010
100100
100111
1111111111001011
1111111111111110
1111111111110010
1111111111111001
1111111111101101
1111111111110110
1111111111110011
10101
10101
10011
100011
1000010
110000
1111111111110000
1010000
1111111111110010
1010001
1111111111101101
0
101100
1111111111010101
1111111111101011
1111111111001111
1111111111111101
1100011
1010
101100
1111111111110101
1111111110111101
110
1001
10111
10
1111111111111111
1111111111111101
1101
100010
1000
100
1000010
1111111111111100
1111111111011000
100011
101100
110000
100000
11001
10010
111000
1111111111010011
1111111111001011
111010
1110
1111111111111101
1111111111011011
1111111111010111
1111111111111011
1111111111110000
1111111111111110
1111111111011110
1111111111111100
110101
1111111111010100
11000
11
100101
11111
1111111111111001
1111111111101110
1000
111
1111111111110110
1101
1000101
101
1111111111101101
1010
1010
1111111111100100
101101
11110
1111111111110101
1111111111111000
1111111111001101
1111111111101010
11101
111011
101100
10101
1111111111010011
1111111111010111
1111111111011011
110101
100001
1111111111011101
1111111111111001
100001
1011110
1111111111111000
10111
1111111111001111
11110
1111111111101001
11110
11110
1111111111100011
10000
1111111111111110
100000
1111111111111111
1111111111010101
1111111111011010
100
1111111111110100
1111111111110011
1111111111111111
101011
10110
1111111111111101
1000
1111111111001100
1111111111111101
11110
10000
10111
1001
1111111111101110
110000
11110
101
101011
110100
100100
1010110
11010
1111111111011101
1111111111011001
101011
11101
1111111111010011
11
1111111111111011
1111111110111001
10010
1111111111110111
1111111111111100
1111111111111111
1111111111101100
1111111111100011
11000
1111111111110001
1111111111111011
1000001
11
1010
1111111111110111
1111111111010011
110100
110010
110011
1111111111100011
100011
1111111111110110
1111111111110101
111
101101
1111111111111000
1101
11010
11100
1111111111100011
1
1111111111100000
1111111111110100
110010
11101
1111111111100101
1111111111111011
1111111111111010
110
100100
1111111111111011
1111111111100111
110000
1111111111011111
11100
1111111111110101
100000
111100
1111111111100010
1111111111011101
1111111111110111
1110
1111111111100000
10001
1111111111111000
1001
1111111111111101
1111111111110011
1011100
100110
101100
11001
1111111111100110
1000111
1111111111110111
1110
10111
10
110111
1000010
1111111111111010
1111111111110110
1101
1111111111101101
1111111111101100
1111111111110111
1111111111110001
1111111111110001
1111111111010001
1010
1111111111111010
1110
1011
1001011
1111
1011
1111111111111111
1111111111111101
111000
1111111111110101
111
100001
1000
1111111111011011
10001
1000
1111111111111011
101
1111111111111101
10100
10111
1111111111000011
1010011
101101
10000
1011
1111111111101111
11111
100101
10011
1000
1111111111010100
1111111111101110
101
1111111111110110
1111
1111111111001110
1111111111111010
11000
1111111111111100
10010
11000
11
10000
100001
1010
1111111111101001
1101100
1111111111001011
1111111111111111
100101
1111111111000101
10101
1111111111000111
1111111111111010
1111111111100000
100
100110
1111111111011000
1111111111101010
1111111111010010
1111111111101000
1100
1101
100010
100101
11000
1011
1100
101
10101
1111111111101011
1111111110101010
1111111111100001
1111111111101110
10110
11011
1111
1111111111000010
111101
1111111111111001
1001000
1111111111010000
1111111111111110
1111111111101101
1011
1000111
1111111111110000
1111111111110000
1111111110110110
11100
10110
1111111111100101
1111111111001001
1000
100101
111
1111
1001
10111
1111111111111100
101010
1111111111010010
100001
0
100111
1
100010
10001
1111111111111000
1111111111100100
1111111111010001
1111111111100111
101110
10
111110
1110
1111111111011111
1111111111011110
100001
1011
1000001
1111111111100101
11010
1100
111001
10111
1111111111111111
1111111111110101
111
111100
100100
11011
1110
1111111111010001
1
110000
1111111111110101
1111111111011000
1011
1111111111110010
1111111111110011
1111111111100011
111
