1111111111111010
1111111111110110
1111111111111000
1111111111111111
100110
110
11110
100010
1111111111110010
1111111111111111
111000
1010
1111111111010000
1111111111001111
100100
1111111111111110
1111111111101000
1111111111010010
1111111111110001
111111
111
100101
1111
10000
1111111111111000
1111111111111100
1111111111000100
1111111111011101
10101
10101
1111111111111111
11
11010
1111111111110001
1111
111101
1111111111010101
1111111111011100
1
1111111111000001
1011
110100
10110
1111111111100101
10011
1111111111110101
101111
1111111111111010
11
1111111111111101
1111111111010000
100010
1111111111101001
1111111111111001
1111111111110000
10111
1111111111100111
101100
11111
11001
1111111111101100
101
1111111111110010
101
1111111111111100
1111111111101010
100000
1111111111011111
1001001
1111111111011101
10000
1111111111111000
111000
101001
101111
100010
1111111111111110
1111111111001101
1111111111100110
11011
1011
10
10010
1111111111010011
1111111111010100
111101
1111111111010110
10011
1111111110111111
1111111111101100
1111111111000011
1111
1111111111100000
1111111111101001
101001
10111
1111111111101101
100010
10000
10111
1111111111010001
110011
1000
1111111111100110
1111111111010101
1111111111101110
100001
1111111111011111
1111111111111001
1111111111110101
110100
1100
1111111111100010
1111111111110111
10000
10110
1111111111110111
10
1111111111011001
1111111111100010
11011
1111111111000000
1111111111011010
1111111111011100
100011
1001100
1111111111111100
11
1111111111011111
1111111111101010
1101
1111111111100011
1111111111001101
1010010
1
1111111111110000
101010
1111111111101100
1010111
1111111111111110
11
101000
10011
1111111111111111
110
1111111111000000
1111111111110100
0
1111111111110001
1111111111111001
1101
1111111111111110
1111111111110101
0
110011
1111111111101101
1110
1111111111110101
10
1111111111110100
11100
0
1111111111100001
1111111111100000
1111111111111111
1111111111010101
100111
1111111111011110
100010
10
1111111111100100
11110
1111
1111111111010111
1111111111000000
101010
110011
101
1111111111101111
101110
1111111111101001
1111111111101111
11111
1111111111001010
1111111111011001
11100
111
1111111111101111
1111111111101111
10001
1111111111111100
1001
1111111111111010
1111111111101010
1111111111101101
1111111111100000
1111111110111000
10110
100000
101010
1000
1000001
1111111111110010
1
1111111111101001
110001
1111111111100011
10000
1111111111011001
1111111111100110
101
1010
1111111110110100
1111111111111011
10110
1010
1111111110100101
1111111111011011
1101011
1111111111110000
100111
1111111111101000
11010
1111111111100100
1111111111110011
10110
1111
1111
1111
1111111111011110
10100
1111111111100110
101100
1111111111110000
101100
100
101110
1111111111111110
11011
1111111111010101
1010
1111111111101100
1111111111111110
1111111111111000
1111111111111010
11
10011
1111111111110000
100011
11011
100010
101001
0
11011
1111111111010111
1111111111101000
10000
111111
1111111111011011
1110
1111111111010111
1111111111111010
1111111111111000
1111111111110110
11111
101
11000
11110
1111111111111100
101110
1111111111011100
1111111111110110
1111111111100110
1010
11
1111111111100101
1111111110100100
100111
1111111110001110
101001
1111111111000001
1111111111011111
1111111111101011
1111111111001010
1000011
1111111111111001
1111111111110001
10000
1111111111111101
1111111111101111
1000
1111111111111001
110111
11010
1111111111110111
100011
1111111111111000
100000
101
1111111111101111
1111111110110100
1111111111011111
10011
1111111111100110
1111111111100110
1111111111101011
1111111111001001
100
11011
100
11010
11111
1111111111101100
11111
1000
1111111111100110
1111111111111011
1111111111100100
1111111111010111
1111111111110001
11100
101001
1111111111011111
10010
10010
11011
1111111111110011
1111111111010101
101010
1111111111011010
1111111111011100
1111111111011000
0
1111111111001111
1100
10100
1111111111110101
1000
11111
1111111111110110
1111111111000011
1111111111100110
1111111111000110
11000
1111111111010111
1111111111111111
1111111111111011
1111111111010111
1111111111100100
1
1001111
10001
1110
1111111111111011
1111111110111100
1111111111111111
1111111111011111
1010
110
11010
110111
10001
1111111110110101
1111111111001110
111
1111111111101101
1111111111010111
1111111111111000
1111111111000111
100
1111111111001110
1111111111110000
1111111111010101
111
1100
1111111111111001
1110
101
100111
11011
1111111111001110
110
1111111111111010
1111111111110110
1111111111110100
1111111111100110
1111111111100110
1111111111110111
1111111111101100
1111111111110001
11011
1111111111110011
1111111111101100
1111111111100101
10010
10101
1111
1111111111101101
1111111111110110
1111111111101011
10100
1111111111101100
1111111111110111
1111111111011111
1111111111110101
10111
0
1111111111100110
1111111111010010
1111111111100111
1000
1111111111100111
101001
1111111111111111
1111111111111011
100001
1110
1111
100001
1111111111101101
1111111111110001
1110
11101
101101
1111111111110001
1100
111
1111111111110100
1111111111010011
1111111111100010
100101
1111111111010100
111
1111111111110110
1111111111111100
1111111111101100
1111111110111110
1111111111010001
1111111111100010
1111111111110110
100011
101
100101
10110
1111111111110001
1111111111100101
110100
1111111111011101
1111111111101011
1111111111110100
11010
10
111
1111111111110000
1111111111101011
1111111111100001
110
10101
1111111111101010
11
110
110001
1111111111010101
1001
1111111110101101
1111111110111011
1111111111001101
111
10000
11100
10110
11100
1111111111001100
100011
1111111111101000
1111111111100101
1111111111010011
1111111111110101
1111111111101010
11101
11
1111111111100001
1111111111001000
100010
1111111111011100
101000
10111
110101
1111111111110100
1111111111100101
1111111111011000
0
1111111111010100
1111111110110110
110101
10111
1111111111101001
10011
1111111111100010
100000
111011
11101
1111111111110000
1111111111011000
1111111111101111
1111111111111010
1010
10100
110
1111111111111101
101100
1110
1111111111011101
1111111111100110
101010
1111111111000011
1100111
1101
1111111111111101
1111111111011000
10001
100
1111111111111000
1111111111111110
101001
1000
1111111111101100
10011
1000100
10000
1111111111110110
1111111111111111
1111111111111100
1111111111100110
101
1111111111000110
1111111111101110
1111111111100011
11000
100010
1111111111110111
1111111111101100
1111111111111111
1111111111011110
1111111110010110
1111111111101111
1111111111100001
1111111111011110
1111111111111101
1111111111001110
1111111111111100
1010
1001100
111001
1111111110110001
1111111111000100
1111111111110000
1111111111010010
1111111111011111
1111111111101111
11110
1
110
1111111111110001
1100
1111111111100111
1110
100000
10
1111111110101100
1111111111001100
1111111111111010
1111111111111010
1111111111101100
10011
1111111111100101
1111111111011011
1111
1111111111110010
1101
1111111111110011
1111111111000010
1111111111100101
100001
1111111111111000
1111
1111111111011110
10
1110
1111111111110011
1111111111110111
1111111111110110
1111111111011001
100101
1111111111100101
11001
1000
1111111111110111
10110
100010
11101
1111111111001100
10101
1010
1111111111111011
1110
1101
1111111111111000
11011
1000
1111111111111100
10001
100
10
100010
1000101
1111111111111000
1111111111100101
110
1111111111110011
1111111111010000
1111111111110000
1111111111011011
111001
10000
1010
111100
100110
1111111111101101
10000
1111111111110110
1111111111100111
11000
11
100110
100000
1111111111110110
1111111111110100
1111111111001000
11011
1111111111011010
10001
1111
11111
11111
0
1111111111111010
11
1111111111100111
100000
1111111111110011
0
101010
111101
1111111111011000
0
1111111111000011
111
1111111111010010
1111111111111100
1111111111011001
1111111111011101
1110
11101
1111111111111111
1001001
101011
1111111110010010
1111111111100001
1111111111010100
1111111111100001
1000
1111111111111010
1111111111101101
1100
1111111111101010
1101
1111111111110000
1111111111011111
1111111111100011
10011
1111111111011101
110
1111111111110000
10001
1111111111011111
1111111111111011
110100
1111111111101000
1
1111111111110111
1111111111000010
1010
1111111111100010
1011
100111
11101
11
1111111111110111
1110
1111111111110010
1111111111101100
1111111111100001
10001
1111111111001000
1111111111111110
1000
10110
100000
101
10010
10011
0
1111111111101001
1111111110011001
1111111111110011
1111111111110100
11110
101
1001000
1111111110110000
1111111111111111
11001
1111111111111110
1111111111100110
10111
1111111111111001
1111111111111001
1111111111101010
10011
1111111111110101
1111111111111100
100000
100
11101
10110
1000
1111111111111001
11100
111101
110101
101110
1100
1111111111101101
11001
1111111111010111
1111111111011100
1111111111100011
100101
10001
1111111111001111
1111
1111111111111000
1111111111100000
1111111111010010
110110
1111111110110111
1111111111101110
1010000
1111111110101111
1111
1000
11011
110101
10000
1111111111010010
1111111111100001
1111111111110100
1111111111101010
1111111111101010
101
11
1111111111001010
1111111111001110
1000000
1111111111100110
100000
1111111111111111
1111111111111111
10110
1111111110111000
10101
1111111111110001
11110
