10110
10001
110
1111111111010001
11011
11111
110111
101101
100000
1111111111101100
100
1111111111101011
11000
1111111111111100
11110
1101
10010
100010
1111111111111010
1101
1111111111110101
100011
10100
1111111111111100
110
1111111111110101
11101
1111111111111011
110001
1000
1111111110111011
0
0
110011
1111111111111001
1111111111100001
10111
10110
1111111110111100
1111111111100011
10111
1111111111010110
100111
110101
11
1111111111101101
101
1000
1110
10
110101
1111111111100110
101
1111111111101011
1111111111110101
1111111111111000
110010
1111111111110100
1111111111101011
1111111111011000
1111111111100110
1111111111110000
1011111
1111111111010000
10001
111
10010
1111111111011100
1111111111010100
11000
1111111111110010
1111111111110101
100111
11000
1111111111110000
1000
1111111111000110
110101
1111111111110111
1111111111010010
10001
1101
1111111111110110
1111111111111111
1111111111111111
1111111111001111
10100
1111111111101101
1111111111111000
1111111111110011
1111111111101001
11
111110
11001
11
1010
1111111111100011
1111111111011101
11100
1111111111010111
100100
10001
1111111111100010
1111111111111001
10101
10111
1111111111101111
110
1111111111101001
1111111111101101
1111111111011100
1111111111011000
1111111111111011
1001010
1000011
1111111111100010
1001
1111111111101001
1111111111000111
101011
1111111111011000
1111111111100110
1111111111111100
1100
11101
10001
100111
1111111111110001
1111111111110001
10100
100101
1111111111110110
1111111111101101
1111111111010101
1111111111111000
1111111111100010
10000
11000
1001000
101001
1
1111111111100110
100101
0
1100
1111111111101111
1010
1111111111101010
111
1111111111111110
1111111111101000
1111111111101111
0
1111111111111010
100010
1111111111010000
1111111111100101
110101
1111111111111110
1111111111011000
1111111111111000
110010
1111111111001010
1111111110111001
1111111111000101
1111111110101011
1011
0
1001100
1111111111111011
1111111111100111
1010
101110
1111111111000100
1111111111111101
1111111111111000
1111111111110100
1111111111110001
10000
101011
100000
1111111111001000
1011
1111111111110100
1101
10101
1111111111111001
1111111111110101
100100
1111111111010110
1111111111101100
1
100011
1111111111111111
11100
1111111111111011
111
1111111111111101
11100
110010
1111111111110001
1111111111110011
1111111111101000
1111111111111001
1101
1111111110100011
1000
1111111111110110
1111111111111101
10101
1111111111011111
11010
1111111111110101
11000
1111111111101101
11110
1111111111100111
111101
110
1111111111110110
11000
110110
11000
1111111111111111
1011
110010
1111111111100101
0
1000
0
10111
1111111111110111
100100
1111111111100100
1
1111111111101110
111
1111
11001
1111111111110100
100
100101
111000
1001
1111111111100011
100001
10
100100
1111111111001000
100101
1111111111111001
10110
10011
10010
1111
111100
1111111110111101
1111111111010110
100011
1111111111011111
101
1010
1111111111010111
1111111111111001
100101
1000
11
1111111111110001
1111111111011010
1111111111100010
1111111111011111
1111111111111111
100011
11000
1010
1000
1011
1100
10011
1010
10111
101001
1111111111111111
1111111111011010
1111111111001101
1111111111101001
1010
1111111111101001
100010
0
1011
1111111111100100
1111111111000011
1111111111111110
1111111111100111
100100
11010
1111111111011101
1011
1111111111110011
10000
1111111111001000
10000
1111
1111111111111011
1101
111111
1111111111011110
1111111111010100
1111111111110010
101011
10000
1100
11110
1111111111110111
1001
1111111111000101
100101
10101
1111111111011110
10000
1111111111110111
1111111111010001
1111111111011111
1111111111100111
1011
1111111111011111
1111111111111110
11100
1111
1101
1111111111101011
1111111111111001
110
1111111111100011
1001
1111
110001
101
1010
10110
1110
1111111110111011
1111111111110011
1111111111010010
101011
1111111111101110
1111111111111000
1111111111011111
1111111111110111
10111
0
1111111111001000
1111111111001111
1111111111010010
10011
1111111110110001
110
111000
1101
1111111111110110
110101
11
1111111111101111
1111111110110111
101001
1111111111001001
1111111111001100
1111111111110011
1111111111111101
1111111111110001
1011
1
1111111111101100
1110
1111111111110011
1101
100
1111111111111111
1111111111110110
1111111111111100
1111111111110000
1100
1111111110111110
111
1111111111101001
111110
11100
1111111111000001
1111
10000
1101
1010
101000
1111111111100110
10110
1111111111001101
1
11101
1010
1111111111111100
1111111111100111
10010
1111111111110001
110001
1111111111100100
11000
11
11001
1111111111101100
1110
1111111111100001
10
10001
1111111111100101
1111111111100001
1111111111011110
1111111111011110
1010
10110
1111111111000001
1111111111001110
1111111111100010
1111111111101000
1001100
1111111111011110
1111111111000010
1111111111110110
110
1111111111011110
1
1100
1111111111111101
1111111111110010
1111111111111010
10111
1
101
11100
1111111111111110
1111111111111110
1111111111000111
10010
1111111111011111
1111111111111000
1111111111110010
100100
1111111111101101
1111111111011001
110010
1111111111011010
111100
1111
1111111111011110
1101
11110
1111111111000001
1111111111101100
10000
11101
1111111111100111
1111111110111010
1111111111111010
1111111111011000
1111111111010110
11110
10111
100000
1111111111110000
1001000
1111111111101110
100000
1101
0
1111111111111001
1111111111110010
11110
1111111111110001
1111111111101001
11000
1111111110101111
11101
1111111111101111
1111111111101001
1111111111101111
1111111111011011
1111111111000100
10001
10100
10010
1111111111011011
1111111111011111
1111111111101011
1111111111100000
100000
100110
10101
111010
100
11001
1111111111111011
1111111111011001
1111111111111001
110101
10
1100
1111111111101010
1111111111111010
1111111111001101
1111111111010110
1111111111100010
1111111111110011
1010110
1111111111011011
1111111111101110
1111111111010011
1001011
1111111111101011
1111111110111011
100001
10
1111111110110001
1111111111100101
1111111111010010
1111111111110011
1111111111000000
1101
1111111111101010
1111111111000111
10000
1001
10111
100110
1111111111101100
1111111111101111
10111
1010
11100
1111111111110011
10010
1111111111100000
1111111111100001
1111111111110110
1111111111110100
1111111111101011
1100
1000
1111111111110001
11000
100000
1111111111011111
1111111111110000
1111111111110101
100
100110
1111111111011101
1111111111100111
1111111110110011
10010
1101
11
11110
1111111111110110
1
1111111111010110
1
11110
10001
1111111111111000
100
1101
1111111111000101
1111111111110101
1010101
101011
10111
110001
1111111111111010
1111111111110000
1111111111110001
10110
110101
1111111111110100
10011
1111111110110101
10000
1010
1111111111001011
1111111111110110
1111111111110011
1001
1111111111011001
101111
110011
1111111111101001
1111111110110110
110
1110
1111111111111010
1010
1111111111001101
1111111111110111
1001
1111111110101010
1111111111110001
1111111111011001
10011
100010
1000000
1000
10111
101100
1111111111101101
1111111111000000
1011
1111111111010101
1111111111101100
1111111111101010
1111111111111010
1111111111110101
1111111111100111
0
110
101001
1111111111100001
1111111111111100
1111111111011010
1111111111100011
1111111111101000
110
1111111111001011
1
0
1011010
1111111111100000
1111111111010110
11101
1111111111111001
10101
1111111111110011
1111111111001010
100101
1111111111110000
11101
1111111111101100
1111111111100011
1111111111110110
1111111111111100
10
10001
1111111111101001
110000
10
11101
111
100000
1111111111110110
1111111111101111
1101
110001
1111111111000110
1
111110
1111
1100
1111111111110101
10000
1000
1110
1111111111101110
1111111111010101
1111111111110001
10011
11101
1111111111101000
1111111111000101
1110
1111111111111111
1111111111011110
1111111111010110
100
110100
1111111111010010
1111111111100100
10
1111111111101011
1111111111100000
11110
1111111111001100
1010
101011
1111111111011101
1111111111011101
0
1111111111000011
1111111111010111
100100
110001
1111111111110111
10101
10111
111
110001
1111111111101101
1111111111000010
101111
1111111111111000
1111111111100001
111011
1111111111101000
110
11011
1111111111010101
101001
1111111111101011
1111111111101010
1111111111100110
1111111111111100
11100
0
1010
101010
101
1111111111111010
111011
1
1111111111101011
1111111111011110
1111111111110110
1111111111101101
1
1011
1111111111101000
101011
1111111111101011
1010
1011
1010000
1111111111011111
1111111111101110
1111111110111101
1111111111110110
10111
1111111111101111
1111111111110111
10
100000
1000001
11010
1110
1111111111101011
101100
10111
1111111111111001
110001
1111111111101000
10100
1111111111100010
10110
101
11000
1111111111101001
1111111111100111
101111
1111111111101110
100110
1111111111001010
1111111111000000
1111111111010101
1001101
101011
100
1111111111011100
1111111110111110
1
111101
11011
101111
0
10111
1111111111100110
1111111111100011
1111111111011001
101
