1000
1111111111100111
10
100
1111111111110111
101000
1111111111100111
1000
1111111111110100
101101
1111111111011110
10101
10001
100011
1111111110110101
1111111111100010
1111111111110101
11110
101111
1101
1111111111111110
1111
1111111111110001
1111111111101111
1111111111101101
1111111111100010
1111111111001101
11010
0
110001
111011
1111
1111111111100010
1111111111011100
1111111111011111
100100
1010
101000
11010
10110
1111111111101100
11110
100001
1111111111111110
1111111111011011
110000
10
111
100
1111111111101110
10110
1111111111111111
1111111111011110
1111111111110101
1111111111101101
0
1111111111011000
0
11100
1001110
11011
101101
1111111111111001
110011
1111111111101101
1111111111010100
1111111111110101
1000001
1111111111101001
1101
1011
1111111111111011
11111
1111111111111110
1000
1111111111011111
1111111111111011
1111111111110110
1111111111011101
10011
0
0
1111111111001011
1111111111100001
1111111111110001
0
1111111111110110
10111
1111111111111100
1111111111111010
1111111111010110
1111111111000101
1111111111101001
101111
1101
1111111111101011
1111111111011000
101010
111
1111111111110100
10101
1111111111110111
1111111111111000
10001
1111111111110111
1111111111111010
1111111111011100
1111111111110100
110111
1111111111001011
1111111111111100
11001
1011
1111111111110110
1111111110111011
1111111111110110
1111111111101001
1111111111011111
1111111111110111
0
1000
1111111111110110
1111111111110010
11001
101000
1111111111100111
1111111111100001
1111111111101011
100
1111111111111001
1111111111000011
11
1111111111110011
1111111111001110
101010
101
100110
1010
101111
11010
1111111111011111
1111111111001110
1111111111111101
1101
1111111111110000
1111111111111101
101010
1111111111011000
1111111111111000
1111111111000011
1011
10111
1111111111001110
111010
1111111111011000
1111111111100001
1111111111110101
1111111111101111
11
1111111111111111
1111111111110110
1111111111101110
100001
111
110
10011
1111111111101011
1111111111010100
1111111110111011
0
100
11111
1111111111100011
1111111111111100
101110
111010
1111111111110010
1111111111110000
110
101
10100
1111111111110000
11011
1111111111011110
100110
1111111111101110
1111111111111111
1111111111010010
100010
111011
1111111111101101
100001
1111111111111110
11000
1111111111001111
1111111111100101
100000
100011
1111111111111100
1111111111101101
1111111111100001
10001
1111111111000110
100000
1011
11000
1111111111110101
1111111111011110
1111111111101010
1011
1110
1111111111010100
0
1111111111111001
110000
1000001
100101
1
1101
1111111111101110
1111111111110001
0
1001100
101110
100011
1001
1111111111111011
1111111111100011
101000
1111111111001110
1111111111000100
10
1111111110110111
1111111111101110
110000
1011
11100
1111111111110100
100001
100
1111111111101100
1111111111000010
10101
1111111111100011
110010
1111111111101110
101111
1110
1111111111001101
1111111111011000
11010
11
100001
11001
1001
1111111111011010
1101
1
1111111111010101
1111111111111011
1111111111111000
11011
1111111111010100
1111111111001110
11001
1111111111011100
100111
1111111110110110
1111111111101011
1111111111110111
1111111111111110
10010
1000
1111111111110000
101110
111100
1111111111110100
11000
101110
11111
1111111111110000
1111111111111010
1111111111001111
10000
1111111111110001
11111
1111111110111111
1110
1110
100110
110000
1111111111111111
1111111111110011
1111111111101110
100100
1110
1111111111100110
1111111111011100
1111111111101011
111101
10
11100
1111111111011010
1101
10111
11011
10010
111101
11001
1001
1111111111101100
10001
110010
1111111111101110
1111111111110001
1000010
1111111111101001
1111111111110100
1101
11000
1111111111101111
1111111111101110
10000
1001
10
10101
1111111111110101
11100
1100
1111111111100001
1111111111011100
1001000
10100
1111111111001001
1101
1111111111101100
1111111111111100
100010
111111
111
1111111111000101
1101
1111111111011110
10110
1111111111111001
10100
11011
1111
1000
10
1111111111101100
1111111111111110
1111111111100000
1111111111101010
1111111111001100
111111
1111111111100011
101101
1111111111010101
1111111111110011
1111111111101101
1110
100100
11000
1101
11110
0
101110
11010
10011
1111111111111100
111010
1011
1111111111110010
1111111111001110
1111111111100011
100110
11011
1111111111010000
111
1111111111110000
1111111111011100
100
11101
1111111111011000
1111111111110101
1011
1111111111011110
1
1111111111110100
100
1011
10010
1111111111101001
100001
101100
100000
101110
111
1111111111110010
110101
1110
100101
1111111111101101
1011
10101
10000
1111111110110110
111100
110
1111111111111001
1111111111101001
10011
101101
110
1111
1000
1111111111010011
10
1111111111110110
1010
10000
1111111111100000
1111111111001010
1111
1111111111101111
1111111111011101
1111111111111011
1111111111100011
10100
1111111111011101
1111111111100110
110000
101011
101
11010
1111111111000110
1111111111000010
1010
1111111111110011
1111111111101001
1111111111111010
1111111111110010
1101
111101
10101
1111111111001100
100
101
0
1111111110110100
1111111111101100
1111111111011000
1111111111111000
0
10100
1111111110111110
1111111111110101
1111111111011001
1111111110101001
1111111111100011
1111111111000001
100111
1000
1111111111110000
1111111111010111
1111111111110010
0
1001
10011
1111111111010110
101
1011
1000
10110
100
11011
100110
110110
110101
1111111111110101
1111111111101010
1111111111101100
10000
1010
100001
1111111111101101
10000
1111111111110110
1111111111101001
10000
1111111111001010
100100
11001
101101
1110
1111111111111010
100111
1111111111100000
1111111111111111
10101
1111111111101010
1111111111111011
11011
0
10011
1111111111111100
1111111111100111
1000101
11000
1111111111011101
1001110
1111111111110100
10011
110
1111111111011101
10001
1111111111111100
1010
1111111111101111
10011
1111111111011101
10001
101000
1111111111101111
1111111111101111
1111111111011001
1111111111101100
1111111111001011
1111111111100101
1111111111111010
1111111111111011
110001
1111111111100000
1111111111110111
1010
10001
11010
10100
1111111110111010
11011
1111111111011111
11111
1111111111110100
1111111111000111
100101
1111111111010001
100011
1111111111110001
1111111111111100
1111111111110000
1111111111011111
100010
1111111111101111
1111111111111101
0
11010
1111111111101000
1111111110111000
1111111111110000
1111111111011100
1111111111110001
10
1001
1111111111011001
111010
1111111111110001
1111111111011001
1111111110111001
1111111111010111
101001
1110
10011
101111
1111111111110000
1111111111100010
11001
11
1111111111100110
1111111111001101
0
1111111111110010
1
111
110
1111111111100101
1111111111111010
1111111111010110
1111111111101110
1111111111100000
1111111111101010
1111111111110100
1001
1011
11
1111111111100100
1111111111101111
1111111111011000
11010
1111111111110110
1111111111001101
1111111111001111
1111111111111000
1111111111011101
1111111111001011
1111111111110000
101011
1111111110101000
1111111111100001
1111111111100000
11000
1111111111110001
10010
110111
110
100011
1111111111101001
10111
11111
0
100011
11100
1111
11110
1111111111111000
1111111111101001
1011
100110
1111111111111110
1011
1111111111010101
1010
1111111111100001
110
10100
1001111
1111111111100110
1111111111100101
100001
1111111111010001
1111111111100101
1111111111111000
1111111111111111
0
1111111111100001
1111111111111000
1111111111111010
1111111111110101
100011
11100
1111111111101100
1110
1100
1111111111100001
1111111111111100
111
1111111111110101
1111111111100000
1101
1111111111101111
1111111111110101
1111111111001010
1000
1111111111111110
1111111111100110
111100
1111
11100
11110
10011
1001
10010
101001
101
0
11010
1111111111001100
110010
10100
1111111111101111
100101
1001
1111111111111011
0
1111111111110101
1011
100101
100110
100000
100110
110
10000
1111111111100111
1111111111111001
11110
1111
1111111111101011
1111111110110111
1111111111101011
1111111111100100
1101
1001
1111111111110101
1111111111101101
100
1111111111110011
1111111111111001
1111111110111000
101
111
1111111111101100
1111111111100011
1111111111010101
1111111111101101
111
1111111111110110
1111111111110100
1111111111110101
11011
1111111111110011
10000
1111111111011000
100101
10101
1111111111011110
100110
1000000
1000
100101
1111111111111100
1111
1111111111101110
1111111111100101
11
1111111111101010
1111111111010111
1111111111100011
1111111111101101
1111111111101010
1111111111101111
1111111111111001
100
1101
1111111111111110
1111
111
101010
0
100100
1111111111011011
1001010
1000010
1
10000
10011
1111111111101100
11110
110
1111111111101110
1111111111110000
100111
1111111111101100
100011
1111111111101100
110
1111111111100010
1111111111100100
1000010
1111111111101110
1111111111111000
1111111111111111
1111111111110001
1
1000000
10101
1111111111011001
1111111111100001
0
1111111111111001
1111111111101100
10011
1111111111111111
1111111111011001
1111111110101010
