1111111111110010
1111111111110001
10101
11
1111111111100111
1111111111101111
1111111111101100
1111111111010001
10100
1111111111110000
1111111111100110
1111111110110000
11011
1111111111101000
1111111111101000
1111111111101001
1111111111010110
1111111111100010
10011
101111
11
1
1111111110110110
1111111111100111
1001100
10001
110001
11011
1111111111111010
1111111110111101
11001
1010
1010
1111111111111110
1111111111000110
101011
11001
100101
1111111111001010
1111111110111111
1000
1001011
10010
1010
1011
1111111111111011
1111111111100110
1111111111010001
110100
1111111111111100
11111
11001
1111111111111111
10011
1
1111111111000110
1111111111010110
1111111111100010
1111111111101000
11
100011
1111111111101101
1111111111110100
1111111111100001
1111111111101110
100000
10110
1111111111101010
10010
1111111111111010
1111111110110100
1111111111100010
1100
1111111111010110
1000011
1111111111100100
1111111111110001
1111111111111001
100100
1111111111111001
10101
1111111111100101
1111111111011101
0
10000
100011
101110
1111111111110101
1010
1111111111101111
1111111111110011
1111111111101001
1111111111000100
110
1111
110100
101001
1111111110111000
101110
1111111110110101
1111111111110101
1111111111101000
1111111111110111
1111111111111110
11100
10
10100
1111111111100100
1111111111011100
100
11001
1001100
1101
1
1000100
110110
1111
1111111111101010
1111111111110101
10
1111
100010
1000
11101
11101
1111111111110101
1111111111011111
1111111111011101
1111111111101010
1111111111010100
11101
1111111111101100
1000
110001
1111111111110000
1001
1111
1111111111100001
1111111111110111
1111111111011011
0
111001
1111111111111100
101
100011
10
10
1111111111111001
1111111111011000
1001
1111111111111101
100
1001
1111111111100110
1111111111100011
1111111111001111
101101
1111111111110111
1111111111011101
10011
1111111110111000
1010
1111111111100111
10011
1111111111010010
1111111111111001
10100
1111111111111011
1101
1111111111111110
1111111111100000
110111
10100
1111111111101111
10001
1111111111101001
1111111111110111
1111111111110000
1111111111101010
1111111111111101
11111
110
0
1111111111111110
10010
10100
111100
100
1
1111111111110010
101010
111
1111111110110110
1111111111011110
1111111111101100
1111111111111000
1111111111111110
1111111111000011
10011
100
101100
11
1111111111110111
1111111111111110
111100
1111111111101110
10
1111111111001110
1011
1000
1100
1111111111100000
1111111110110010
1111111111111110
101111
1111111111010101
110000
1111111111101101
1111111111000000
1111111111100010
101000
1111111111111011
1111111111011010
11010
1111111111101010
10001
10011
0
1111111111110100
1111111111011000
1111111111100001
1111111111100011
1111111111010100
1111111111101011
1111111111111011
0
1100
1011
10
101101
10001
1
1000
10101
1111111111011110
1111111111101111
110010
100
1111111111100011
1111111111101101
1001
1111111111110100
1
1111111111111101
1111111111111010
1000
111010
11000
1111111111100110
1111111111111000
1111111111001001
1111111110101000
0
1111111111110001
1010101
1111111111101111
1111111111101100
1111
1111111111111101
110001
101000
101
1111111111111110
10100
110011
1111111111100011
1000011
101100
10100
100001
1010
1111111111110001
1111111111110110
1000
100001
1111111110110101
10111
1111111111111110
1101
1111111110100101
1111111111010100
1111111111001010
1111111111111110
1111111111111000
1111111110100100
10100
1111111110111110
1101
0
1111111111011001
1111111111100101
1111111111101001
1111111111100011
1111111111110101
10101
1111111111111100
10010
1111111111110101
1111111111101110
1011
1111
10000
1111111111011110
1111111110101101
11001
1111111111100111
11001
1111111111100011
110000
1111111111110000
1111111111000110
1
1111111111101111
1111111111011011
1000
0
1110
1111111111110001
1111111111010011
1001010
101
1111111111010111
1111111111110010
1111111111010100
1000
1111111111111101
1100
1111111111100001
1111111111100100
0
0
1111111111010111
1100
1111111111110011
1111111111001110
1111111111101101
100000
1111111111101010
1111111111111001
1111111111100101
1101
100
100101
1110
101000
1100
1111111110110110
1111111111101111
1111111111101111
10
1111111111011010
1010
1111111111000111
1111111110101001
1111111110110110
1111111111100001
111111
10001
1111111111100101
1111111111010011
1111111111001000
1110
1111111111110001
1111111111110111
101
1111111111011001
1111
1111111111111010
10001
1111111111111011
1101
100101
1111111110111011
11001
10100
11100
110111
10000
1111111111111000
1111111111111011
1010
1111111111101001
100110
10100
11
110
11
11010
100000
10000
11101
1111111111110011
11100
10101
11010
10011
1111111111011101
1001
1
1111111111001111
10100
1111111111111010
1111111111111110
100
1111111111100100
1111111111000100
1111111111010011
10
100
100000
10010
1111111111110101
1111111111100011
1101
11010
100
1111111111111100
1111111111010001
1111111111000100
1111111111100100
1111111111111011
111100
1111111111101100
1111111111101010
1111111111000011
1111111111001110
11011
100101
1111111111111011
1111111111010010
1111111101111100
1111111111010111
11010
1111111110111010
1111
111
1111111111011110
1111111111101110
1111111111111110
1000
1111111111110001
1111111110101100
10000
1111111111010110
10111
1111111111011000
100011
100100
1111111111111011
11010
1111111111111100
1111111111111100
1010
1011
1111111111000001
1111111111001011
10100
11000
111111
11010
1111111111100010
100110
1111111111011110
11
0
0
1111111111010011
101100
1111111111110010
1111111111101101
1111111111110010
1111111111100001
11001
1111111111110101
100100
10100
1111111111011011
1111111111001110
1010
11111
100111
1111111111110011
1111111111100111
1111111111110111
11000
1111
110001
1111111111001101
1111111111100101
101
111100
1111111111010110
111000
1111111111011101
1111111111100101
11111
1111111111101111
1111111111000111
100101
1010
1111111111101100
11010
100011
10110
1010
1111111111011000
1111111111100001
1000010
1111111111101111
1111111111111110
11001
1111111111110111
10
10000
1111111111001011
1111111111000010
1111111111011011
11010
1111111111100011
100111
1111111111111110
101011
11001
1111111111001000
1111111111111011
1111111111010000
1111111111110100
1111111111101001
1111111111100111
1111111111101000
1111111111111111
1111111111001001
1001
1111111111011000
101001
1111111111100000
1111111111001110
110001
110110
10000
11010
1111111111011100
100000
1001
10111
1111111111011000
1000
1111111111010011
101101
1111111111101100
1111111111001011
1111111111110101
1001
110101
110111
101
11
1111111111101011
1101
1111111111110001
10000
1111111111101010
1111111111101100
110101
100111
100111
111
1111111111111000
1111111111011111
1111111111101100
1111111111111010
1111111111111001
1111111111111011
10000
11000
1000011
1111111111111001
1111111111010010
1000000
11111
1100
11110
1111111111010000
1111111111010000
1111111111101010
1111111111111011
101101
1111111111110111
1111111111110001
11000
1111111111110000
10000
10
111
1111111111101000
10000
100100
1111111111110001
10010
1111111111100110
1111111111110000
1111111111001110
1
1111111111101011
1111111111101010
1111111111101100
1000000
110000
1111111111110100
1111111111111011
1111111111001000
1111111111011111
1111111111101100
0
1111111111110100
1111111111110010
11001
1111111111100011
1111111111011000
100011
1111111111100001
10100
1111111111011110
11100
1101
1111111111111010
1000
1111111111110100
110100
1111111111101010
1111111111110101
100101
111011
1111
100
10110
1111111111011110
111
1111111111111001
1111111111111111
1101
1111111111101011
10001
1111111111111011
1111111111101101
1111111111010110
1111111111110011
1111111111010111
10000
1111111111101001
1111111111111001
1
1111111111000001
1111111111011111
1111111111111110
1111111111111000
0
100010
1111111111110001
10111
1000
111101
110001
1111111111001011
1111111111110111
101001
110
1000101
0
11100
100101
111100
100
1111111111110110
101000
110010
1111111111100111
1010001
1111111111101010
1001
1001110
1111111111110100
101100
1111111111111110
1111111111011001
11010
1111111111111011
1111111111110100
10011
101
1111111111110000
1111111110110111
100000
1111111111100101
111111
11001
1100101
1111111111011000
1111111111111100
1111111111111000
1111111111100110
101100
1001
1111111111011101
1111111111101101
1111111111101110
1010
11011
1111111110111011
1111111111101001
100010
110
1111111111110100
100
1111111111011011
1111111111111100
101111
1111111111011010
1111111111110110
1111111111010011
110111
111011
1111111111111010
1111111111011101
1000
1111111111100110
100101
10010
1111111111111001
1111111111011110
10100
11100
1111111111110010
10000
1111111111000001
100
1111111111110100
1111111111101100
11010
1111111110111110
101
1111111111110101
101011
11
1100
100000
10011
1000
1111111110110001
101101
1111111111111010
1000010
1100
1111111111110011
11110
10101
1011
110
1001
100
1111111111101111
100000
1000
1111111111101100
101011
101
1111111111101111
1111111111100101
1111111111011110
10100
1111111111110010
1111111111110010
1111111111111010
1111111111110000
