1010
1111111111011010
11010
1111111111011010
1111111111010100
10111
101
0
1100
1111111111001001
11100
1100
1111111111111110
1111111111111100
11010
0
0
1111111111101011
1111111111011001
1111111111100011
1111111111011100
1111111111110100
1111111111100111
1111111111110111
1111111111010000
1111111111110001
1111111111101111
1111111111011111
1111111111110011
100011
1111111111110001
1111111111011110
10
1111111111100101
1111111111010110
1111111111011100
1111111111010000
100
100001
1111111111100101
11000
1111111111101111
1110101
1111111110110110
10010
0
1
0
100011
1111111111110111
100
11110
1100
1111111111000110
1111111111001001
100101
1111111111100101
10
1111111111111011
10010
10000
1111111111100100
10011
1111111111111101
1010
1111111111100100
10101
110
1
1111111111101001
111
1111111111010110
101
1111111111110001
10
1111111111111100
1111111111101110
1001010
10101
1111111110110000
101
1111111111011011
110010
10101
1111111111001011
100001
111
1111111111101101
1111111110101010
1001
1111111111011110
1111111111011110
1111111111010101
1111111111110010
1100
1111111111011011
1100
11111
1111111111011110
110001
1111111111011100
101101
1111111111110101
1111111111110001
1111111111100100
1
1111111111100111
101010
1111111111110001
1111111111100001
110
1111111111111011
1111111111100010
1111111111010111
1111111111111011
1111111111001111
1111111111001100
1111111111011001
0
11000
1111
1111111111110110
10111
1111
111
1111111110010110
1111111111101010
1111111111111111
1111111111101111
10
11110
1111111111101101
11100
11101
1111111111011111
1111111111001010
110100
1011110
1111111111101100
1111111111111111
1111111111011010
1
1111111111111001
1111111111011111
10010
1111111111010110
10011
1111111110110000
101101
10
1111111111110100
1110
1111111111010011
1111111111011100
1111111111111001
1111111111100000
1111111111111101
1000001
1111111111110000
1111111111011011
1111111111111100
1111111111001000
1111111111111011
1101
1111111111101001
1111111111101011
1110
1111111111110010
11000
10100
1111111111110011
1111111111110100
110100
1111111111111100
1111111111100010
1111111111010100
110010
1011
1111111111110001
111000
1111111111011110
100010
1110
1111111111100010
1111111111111011
1111111111110111
1111111111010011
101
11101
11010
1111111111110101
1
1111111111011110
1111111111101101
1111111111101001
1000111
10001
1001
100
10010
1111111111110110
1111111111111111
1111111111010101
1111111111100100
11101
11
1111111111101001
10
1111111111010111
1011
1111111111011111
1111111111101101
11
1111111111001001
10
11111
1111111111101100
1111111111111100
1010
1111111111001110
1111111111011101
1111111111100101
1000000
10100
1111111111100111
100100
1010001
1111111111100111
1001
1111111111010110
10111
1111111111111101
11111
1001
1101
10110
1111111111101100
111011
100111
11100
11
100000
10
1111111111111101
1111111111100101
1111111111111110
1111111111111001
1111111111100011
11111
1111111111001100
1111111111101110
1111111111110000
110111
1111111111100110
100101
101000
1111111111110101
1111111111010010
1111111111110111
1111111111101001
1111111111110111
11111
1111111111011100
1
1101
110
1010
10101
1111111111111010
11101
1111111111100110
1111111111001111
100000
1111111111110111
1111111111110010
10001
10001
11001
1
1111111111100101
1111111111111111
10110
100
1111111111010111
10011
101110
111
1111111111011100
1111111111111111
11100
1111111111110010
1111111111000000
1111111111101011
101100
1111111111111100
1111111111110000
1110
11010
1111111111101000
0
111001
101110
10011
11100
110001
0
1111111111100100
1111111111011111
0
100
1111111111101001
111000
1111111111111011
1111111111001111
1111111111101111
1100
1111111111101111
10011
1111111111011110
1111111111110111
1111111110111011
10110
1111111111010101
1111111111110001
10
100001
1011
101010
1111111111101111
1111111111110011
1111111111010000
110010
1111111111100100
1000
1111111111110011
1111
111001
1111111111101010
10000
1111111111100000
10011
1111111111111010
1111111111101011
110
10011
1111111111110001
1110
1111
11011
1111111110111100
1111111111111101
11100
1111111111011011
100010
111
10100
1111111111100010
1111111111111000
1111111111011111
1111111110111001
100011
1111
1101
1111111111100010
110001
1111111111011010
1111111111001101
10101
101000
1111111111100101
100010
1100
100011
10001
1111111110111000
1111111111111100
1111111111011001
1111111111010100
1111111111010101
1111111111010100
1000
1111111111111101
1011
11001
101
1011011
1010010
10101
110000
1010000
1111111111111000
1111111111111000
1000
1111111111011100
1
100
100
1111111111011101
1111111111101110
1111111111110101
1111111111100011
1000011
1111111111111101
111
1111111111101001
1100
1000
1111111111101101
111
111110
11010
1
1111111111001011
0
1111111111111000
100110
100110
1111111111100101
101001
1000
101
1111111111111010
1111111111101001
100110
1111111111100111
1111111111100111
11101
101100
10101
101
10010
1010
100100
1111111111101000
1111111111010111
11001
1111111111101101
1111111111110100
1100
11110
1111111111101101
101100
1111111111101110
100010
1111111111101111
1111111111100000
1111111111001100
1111111111111111
1111111111101100
111111
110
10001
1111111111110011
1111111111001001
1111111111111101
1001101
1111111111110100
1000
101100
101001
1100
10001
1000
101010
1000011
1011
1111111111111110
1111111111111000
1111111111000111
1111111111111001
1111111111011001
10000
11
11100
1111111111010111
1111111110110111
1111111111110001
1100
1111
1111111111111111
1111111111101101
1111111111111011
1111111111111100
101111
1100
1111111111110011
1111111111000101
1111
11
100
1111111111110100
11101
1111
1111111111110001
101001
1111111111110111
1111111111111010
100111
11101
1111111110111011
10011
1111111111111111
10111
1111111110111010
110000
10101
11001
1011
10
1111111111100111
110010
101010
1001110
1111111111100110
1111111111010010
0
110
1111111111011110
1000000
1111111111011111
1001
110001
1011
1111111111111001
1111111111100000
111001
100100
1111111111010001
1111111111001111
1011
1111111111100100
1111111111110011
100000
1100
1111111111110101
1111111111111100
1001100
1111111111111110
1100
1111111111010110
1111111111101100
1111111111110100
1111111111111010
1111111111111111
1111111111111110
1111111110110000
10010
101111
110011
11110
1111111111110111
1111111111110000
1111111111101011
1111111111111010
101
1000000
1111111111100110
1111111111100010
1111111111011010
1111
1111111111011001
1111111111110100
100010
100001
1111111111010011
10110
1111111111001010
1111111111101111
100011
1111111111010010
1111111111111011
100
110000
1111111111011111
1111
0
10111
101
1111111111111111
11001
100101
1111111111010101
1111111111110010
1111111111111100
1111111111100011
1111111111110110
1111111111011000
1111111111101111
10100
1000
1011111
1111111111011010
10
111110
100
1111111111011100
101100
1100
110
100110
1111111111101011
100001
1111111111111010
1111111111111011
1111111111010000
1111111111110111
10010
110110
10
1111111111001101
1111111111101001
1111111111110000
101
1111111111110011
1111111111001110
101011
1111111111101011
111110
111
111101
1111111111010101
1111111110111110
1111111111011101
1100
100
1111111111111101
10110
1111111111110110
100010
1111111111001010
0
1111111111110011
1111111111110111
1111111111111000
1111
1111111111110000
1111111111110010
1111111111111111
1111111111111110
11101
1111111111001101
10
10101
1111111111100110
1111111111111000
1111111111100001
0
1111111111101101
110001
1010
1101
111001
1101
0
1111111111100010
1111111111110011
100001
1111111111110100
1111111111111111
1111111111011011
1111111111111011
1111111111111010
1111111111111100
110
10111
1111111111110100
1111111111010110
11100
111110
101
101000
1111111111100000
111
1111111111101110
1111111111011111
1101
1010
1111111111010101
1011
1111111111101010
0
101111
0
1111111111111000
11101
1111111111111100
1111111111111101
1111111111111100
110
10111
11
1111111111011100
1111111111101001
111
1101
1011000
10101
110000
111110
1111
100001
1111111111101100
1111111111000010
1111111111101110
1010010
1111111111110100
10110
1111111111100100
1111111111111011
10010
1111111111011101
1111111111101011
10101
1111111111101100
1111111111010010
1
1111111111101101
10110
10000
101101
1000
1111111111110111
1111111110110000
1111111111111110
1111111111010110
1111111111001101
1001010
1111111111101011
101100
10001
101
110111
101001
0
1110
101
1001
1111111110111000
1111111111101011
1111111110111100
1111
110101
10011
1111111111000111
1111111111100101
11101
1110
1111111111011000
1100
1111111111110111
1111111111101101
1111111111100011
0
1111111111000011
101
1111111111111010
1111111111101000
1111111111011011
10110
110100
1111111111100110
100101
100
1111111111010111
1010
1111111111000100
1111111111111011
1111111111010110
1111111111101001
11110
1111111111101101
1111111111110000
100
1111111111001001
1
1111111111011010
1111111110110110
1111111111101111
100
0
10010
1111111111101001
10000
101001
