101
100010
100101
110000
110000
1111111111101001
1111111111110001
1111111111111101
1111111111101110
1111111111110101
101100
1111111111111010
110
101010
1
1111111111111110
10011
1111111111110010
1111111111101011
110
1111111110111101
11
100100
1111111111101011
100001
100
101
11000
1111111111011011
1111111111110000
1111111111010111
1001
1111111111010111
1001010
1111111111101110
10011
110110
11110
1101
1000000
10011
11000
10011
11000
1011
1111111111100110
1111111111110101
1010
1110
1111111111111101
11101
11100
1111111111110011
1111111111100001
1111111111101010
101001
1111111111111001
1111111111000111
100011
1111111111110100
1111111111111011
1111111111111001
100100
1111111111110111
111
1111111111100100
1101
1111111111101010
100000
10011
101010
1111111111111001
1111111111011110
1000
1000011
1001000
1111111111101000
111010
1111111111100001
1111111111100011
1111111111101100
1000
101000
1111111111110110
10110
11101
1111111111111000
1111111111011101
110000
1111111111111001
1111111111100110
1001110
110001
1111111111110100
10011
110000
111
110011
1111111111101101
1100
1111111111111111
101000
1111111111111010
100101
1111111111101100
1111111111011011
1111111111101011
10011
11010
10110
110
1001
0
11101
1111111110100001
11000
1111111111111100
1111111111110010
1111111111110110
1111111111000000
101011
10011
1100
10100
1111111111110010
1010
1111111111011100
1111111111101010
101100
100111
1000010
1111111111011010
1111111111111000
1001111
1111111111100100
1111111111100100
110110
1111111111110100
1111111111110110
1111111111011010
10111
10111
1111111111010010
1111111111100001
11001
1000
1111111111010111
1111111111000100
1111111111101110
0
1111111111111000
1111111111010010
1111111111011100
1111111111010110
1111
1111111111111111
1111111111111101
1001
11
100101
10011
1111111111110010
11111
1111111111101100
1100
101011
11010
110010
10010
1101
1111111111001110
1111111111110111
1100
1111111111011110
1111111111011011
1000011
1110
1111111111001100
100
1111111111100001
11100
1111111110110001
10011
1111111111010101
1111111111111111
1111111111100101
111110
1001
110100
1111111111011001
101100
1111111111111100
1111111111000100
1111111111100011
1111111111010010
10101
1111111111100110
1111111111101011
1111111111100011
1111111111101001
1111111111101100
1111111111101101
1111111111011011
1101101
1111111111110100
1111111111010000
1001
1111111111100011
1111111111110001
1111111111101110
1111111111101111
1111111111100111
111
11010
10011
1111111111010000
1111111111110111
1111111111101110
1000110
1111111111001010
110000
111
0
1111111111111010
1111111111111010
110
101000
1111111111110110
1011
0
1111111111011100
1111111111100110
111
11
1111111111101111
1111111111110010
1111111111111000
1111111111000100
110011
1111111111101111
1111111111011010
1111111111001100
111100
11010
1111111111101011
1111111111111101
1111111111111011
1111111111110110
11000
10011
100001
101000
1000110
1111111111101111
1111111111001110
11010
1000000
1111111111110001
100110
1111111111111110
1111111111101001
1111111111110100
1111111111011111
1111111111001001
1111111111110111
1111111110101101
1111111111100000
1111111111011011
1111111111101110
1111111111010110
1111111111011101
1111111111111101
1111111111100000
1111111111111000
1000010
1011
1111
111
1111111111011011
1111111111011001
101010
100111
1101
1111111111111010
1001
11
1111111111100110
1111111111011100
1111111111001100
100100
100101
1111111110110100
111
1111111111110001
1111111111100011
100101
1111111111001001
1111111111100110
1101
1111111111110101
1111111111111110
100011
11010
11001
100110
1111111111101001
1000
1111111111110100
1111111111001010
1111111111110111
1111111111011000
1111111111101000
1111111111110001
1111111111101100
11001
1111111111110011
1111111111101111
1111111111000011
10010
1111111111110010
101100
11001
11001
1111111111111101
1111111111110110
1111111111000010
1111111111101110
10010
10
10001
1111111111111100
10
1000
10011
1111111111000010
100110
11010
1111111111100001
1111111111111011
1000
101001
1111111111001100
1111111111110111
1011
1111111111110111
0
1111111111100101
1111111111110011
11000
1111111111011100
1111111111111111
10010
1111111111110011
1111111111010111
100100
1
1111111111111010
11110
1111111111110100
1000
1111111111110010
101011
1111111111110001
1111111111100111
101101
1111111111011101
1111111111110100
101111
101000
1111111111101011
1111111111101101
1001
100100
1001
1111111111111010
1111111111111100
1111111111101111
1111111111110010
1111111111011010
1111111111010111
100110
1101
1111111110101001
1111111111000011
10
1000001
1111111111110011
1111111111011010
10011
1111111111110101
1111111111011000
101011
1111111111110100
1111111110111111
1001
1111111111100001
100011
1111111111001100
1111111111100110
101
100110
101110
1111111111100001
1111111111101111
1000110
1111111110010111
1111111111110110
100
1111111111101011
1111111111111000
100110
1111111111100110
100
1111111111011110
1111111111111000
11010
10011
100
101011
11100
1111111111100000
11010
11
10111
1111111110110101
1000100
1111111111001000
110111
101001
10111
11000
1
11011
1000
1111111111101010
10100
1111111111011111
101000
1111111111001101
1111111111000100
1111111111111011
101011
10
1111111111110101
1111111111100100
1111111111011000
1
10110
1010
1111111111110010
1111111111011010
1111111111101110
11001
111010
1111111111001011
1111111111110101
1001101
111010
11010
11001
10111
10000
1111111111000110
1111111111111011
110
0
110001
10110
1111111111100011
101101
1111111111111101
1111111111101101
10100
100111
1111111111110001
1110
1111111111101011
100010
1111111111100010
0
100001
101001
1111111111100010
1111111111011110
1111111111100100
1111111111111101
100
1111111111111001
1000100
1111111111001111
1111111111011000
1111111111111011
1011
1111111111110001
101010
1101
110
101001
1111111111111001
1111111111100010
11111
1111111111111111
11001
1111111111101100
1111111111100000
10001
1111111111101111
1111111111101011
1111111111100011
1111111111100100
1111111111011111
1111111111100110
1111111110110101
111
1111111111001011
1111111111110000
1111111111111111
11011
11011
1000000
1111111111100100
1111111111101110
100
0
1111111111110110
1111111111011000
10111
101
1111111111011100
1111111111111100
1111111111101011
110010
1111111111001001
1111111111001100
1111111111110010
1111111110100010
0
1111111111011011
1111111111101100
1111111111001101
100101
11
10001
1001000
1111111111011000
11
1111111111101010
1111111111100011
111
1011
11
101010
1111111111010111
1111111111000100
1111111111110100
1111111111111101
11100
10010
111101
10110
110100
111
1111
1111111111101010
1
1111111111111101
1111111111011011
100001
1001
1111111111100000
11011
1111111111100100
1001
11000
1111111111100001
1111111110110101
1111111111100011
1111111111110100
1111111111100000
100100
1111111111100011
101
1111111111111000
11
1111111111010111
110
100
1111111111110110
1111111111111101
1111111111101001
1111111111011101
11010
1111111111001110
1111111111001011
100010
1001
100100
11011
1111111111111100
10101
1111111111011011
110001
1111111111000110
1111111111010011
1111111111110110
1111111111101001
1111111111101111
1111111111100010
1111111111100010
1111111111110101
1111111111011111
11100
10
1001000
111
1111111111100101
10100
1100100
1
1111111111111011
1111111111101100
1111111111101011
0
110001
110
100010
1111111111101010
1111111111101010
1111111111101100
1001
1111111111110000
1111111111110010
1111111110111110
1111111111000110
0
1111111111100101
11
1111111111101001
101
1111111111101001
110
1111111110111011
10111
1111111111010000
10101
1001
1111111111101010
1111111111001111
0
101000
101001
1111111111111111
1111111111110100
1111111111110001
1111111111111111
1111111111011001
1111111111010000
11101
1111111111110010
1111111111110000
1111111111111110
111000
1111111111010011
0
10010
1111111111011001
100001
101000
110011
1111111111111000
1111111111110001
1110
110
10011
1111111111101000
1111111111000010
10000
10
10110
1111111111110101
1111111111100110
110000
1111111111100001
1111111111101101
1011
10101
10100
1111111111110110
1010
1111111111010011
1111111111101110
11000
1110
101000
1111111111110101
101000
0
10001
111001
11
1111111111110101
1011
1111111111111011
1011
1111111111110100
1
1000
1111111111110000
1111111111111101
1111111111111000
10
10011
1111111111111011
1111111111001110
100101
1111111111110101
100
1111111111100111
1000
10101
1111111111110011
100
1111111111010000
1111111111010001
1111111111011010
1111111111100100
1111111111011010
1111111111110101
1111111111110100
1111111111100111
101110
1111111110111101
1111111111001001
100010
1111111111100001
1111111111010110
100001
1111111111111001
1111111111100110
1111111111011101
1111111111100111
1111111111011110
1111111111110010
1
1111111111010011
10000
1011
1111111110111101
10101
111
1111111111110101
1111
1111111111010101
1111111111100110
100011
1111111110101110
10
1
1111111111110011
1111111111110110
11010
1111111111011011
100011
10110
1111111111100011
1111111111111101
110110
1111111111011001
1111111111111011
1111111111001010
0
1111111111111000
1111111111110110
1111111111111001
100
1111111111110011
100101
11
1000010
1111111111111100
1111111111011000
1111111111101001
101101
11011
