11000
110
1111111111111010
111110
1111111111111001
1111111110110010
10101
10100
1111111111110111
1111111111010010
1111111111000100
1100
100011
1111111111000111
101010
101110
1111111111110000
111011
11
1
1011
11110
1111111111011011
10100
1111111111111100
1111111111111001
110100
1111111111101100
1010
10010
1001
10111
111
1111111111101010
0
1111111111011011
1111111111111001
1111111111110101
1111111111111001
101
1000001
1111111110111101
1111111111111001
10101
100000
1111111111110001
10101
11100
1111111111010011
101001
11111
111101
1111111111100100
111
1111111111110001
1111111111010111
1111111111101010
1111111111011100
11001
10010
10001
1111111111100110
10010
1111111111100010
1010
1111111111110110
1011
1010
111000
1000000
1111111111101101
1111111111010110
111000
100
1111111111011111
1111111111100010
100101
10100
1111
1111111111101001
1000
1111111111100101
1101
1111111111111100
1111111111101010
11010
100
101010
1111111111111000
1111111111101001
1111111110111111
10101
1111111111110100
1111111111110011
11111
1101
100001
100010
1111111111011001
1
11111
1111111111100000
10100
101110
1111111111101111
1111111111110010
11101
1111111111000000
101010
1111111111111110
0
100100
1010
1111111111011010
110011
1101
101001
100011
10110
1111111111110010
1111111111110001
1111111111011011
0
10011
1111111111100010
110
1111
1111111111110101
10010
1111111111100100
1111111111111000
1111111111000000
1111111111111111
1111111111111110
1111111111111010
1111111110101111
1111111111111111
1111111111110011
11101
111
1111111111110110
1111111111110101
111111
1111
1111111111011111
1111111111010110
10001
1111111110111001
1100
1000
11
1000
1111111111110100
1101
111000
1111111111101100
11000
1001101
1111111111111001
1111111111000001
110
1111111111010011
1111111111101000
1111111111100011
1100101
1111111111101010
10110
1100
1111111111110111
11
101010
100000
1000110
1111111111011001
1111111111010111
1111111111100010
11110
111
1111111111110101
11111
1000
100
1111111111011110
1111111111001111
1111111111100110
0
1111111111101100
0
10
1001111
1111111111101111
1000
1111111111110101
1111111111100010
1111111111111100
1101
11
100
1111111111111110
110011
10011
1001
1111111111111011
11110
1111111111011100
1111111111101101
1011
1111111111101000
1000
1111111111101000
100
1001000
1000
1111111111101001
1010
10111
1111111111111010
1
101010
1111111111010011
10111
1111111111000101
11000
1111111111101101
1111111111111001
1111111111000110
1111111111100011
110
10
1111111111101010
1111111111011110
1111111111010001
101
100001
101
1111111111011111
1111111111111100
11
1111111111101101
111110
1111111111110000
1111111111101101
1111
100101
101100
0
1111111111000111
1111111111011110
11
1111111111101001
1111111111000011
11101
1111111111101011
11010
1111111111011010
1111111111110111
1111111111111010
110000
1111111111011100
110111
100
1010
110101
1111111111111010
1111111111010100
11
1111111111110100
111000
11101
1111111111111100
1111111111011100
101100
111
1111111111011111
1111111111111110
111
1111111111111111
1111111111101111
11000
1111111111111110
101001
1111111111011010
101110
1111111111100101
10010
1000
1111111111010100
101
10010
1111111111100010
10011
11110
1111111111110011
1111111111100110
0
11101
10001
101101
1111111111101100
1001010
1111111111100010
100111
11010
111000
1111111111111101
10000
1111111111111110
1111
1111111111111010
11011
1111111111110001
10010
1111111111110110
1111111111100111
10010
101
1111111111110001
1111111111100111
1000100
1000
111001
1111111111011110
1111111111010111
1111111111110110
11101
1111111111111010
111101
1111111111110111
1111111111100011
10101
1111111111111111
100111
1100
1000
1111111111011100
1111111111111011
1111111111110011
101011
10110
1111111111101010
1101
1111111111001010
110011
101001
1111111111110010
1111111111111101
11001
11010
11000
1111111111011000
1111111111101100
1111111111101101
10001
1111111110111111
1111111111101110
1111111111110100
10000
1111111111111100
1111111111110000
111
1111
1111111111101010
100101
11011
1111111111101001
10001
1111111111110010
110111
1
10111
1111111111111010
1111111111011110
100
1111111110010101
1111111111111011
1100
1111111111110101
11001
1000
1010
111001
11
110001
1111111111111110
1111111111101011
1111111111111111
100010
1111111111010101
1111111111001010
101101
1111111111000010
1111111111101111
101110
1111111111011001
110
1111111111101100
101100
1111111111111111
101101
1111111111010000
1111111111101001
11101
1111111111111001
11101
1111111111010101
10
1000010
1111111111101010
1111111111101011
1111111111100111
11101
1111111111011101
1111111111000110
11011
1001011
1101
10100
1111111111110001
1111111111110010
11010
111
1111111111010010
11001
11010
101000
101110
10001
10110
11101
11101
10010
100
101101
1111111111000111
100000
1111111111111100
10111
10001
1111111111111010
10100
11010
110000
111
1111111111011111
111000
1111111111010100
111
11100
10
1111111111110001
1111111111101001
1111111111010111
110000
1111111111001111
1111111111100001
1111111110101010
1111111111101100
1111111111110001
1111111111111000
1111111111100010
11011
1111111111010101
10110
1111111111100000
100011
10110
1111111111110011
0
111
0
1111111111011001
1111111111100001
101111
11
1111111111111001
1111111111111111
1001
1111111111111010
1111111111100011
110010
1111111111111110
1111111111101100
1111111111011111
11111
1111111111101100
1111111111101111
1111111111101101
1111111111110110
0
1111111111111011
101011
1111111111101001
1111111111110010
11000
1111111111010111
1101
1111111111110110
1111111111011101
111011
100000
1111111111011011
1111111111111110
1111111111101011
1111111111110011
11010
101000
1000011
1111111111011001
100
100101
110110
1100
1111111111000000
10
11010
1000100
1111111110110100
1111111111111111
1111111111111000
1111111111100101
1111111111101000
10000
1111111111000001
1111111111101100
0
11001
1111111111111111
1111111111100010
11
11111
1111111111111001
10101
0
100001
110100
0
1111111111010100
1010
1010
1000
1111111111100001
11110
1111111111010110
111
10110
10110
1010
100000
1000
1111111111011011
1011
11100
1111111111100000
1111111111001100
11001
10000
1111111111010111
11100
1111111111100101
1111111111111101
1111111111110110
1111111111111011
1001
1111111111110101
1111111111110001
1111111111111011
1001
11111
1001
1111111111011100
11111
110000
1111111111110010
1111111111111001
1111111111110011
1111111111110111
1111111110110101
1111111111110001
11101
1111111111111001
1
1111111111100111
1111111111110010
0
1000101
100001
111
1111111111111010
11
11
1111111111011111
1111111111110001
100111
10
1111111111010011
1111111111100111
1010000
1111111111100110
1111111111010111
1111111111101010
110100
1111111111100101
1111111111011111
1111111111111101
1111111111100010
110001
1111111111111101
1111111111101101
1111111111111100
1111111111111110
1111111111110101
1111111111110100
11100
1100
1111111111000111
111001
1101
100111
1111111111011011
1110
1111111111011111
10000
1001
11100
1111111111011011
110
101010
1111
11
1111111111011010
10101
1111111111110111
1111111111111110
1111111110101111
1111111111001101
101001
1111111111010110
1111111111110010
1111111111100011
1111111111111000
1111111110111000
10010
1111111111111000
1110
1111111111111101
101
101011
1111111111111000
100010
1111111111111010
110011
1001
101
10100
1111111111011010
1111111111011101
1111111111110100
11100
11111
1001
11010
1111
101
1111111111101100
1111111111001110
1111111111010101
100110
1111111111101001
1111111110111110
10100
1111111111100000
100001
110100
1111111111000100
1111111111011110
11110
111000
1111111111101100
1111111111110111
11010
10101
1111111111000101
100
110001
1000
10001
10111
1111111111101101
1111111111110111
1111111111011011
1111111111100011
1111111111111111
10000
1111111111000011
1111111111111011
10111
1111111111101011
1111111111110100
1111111111011011
1000000
1111111111001111
1111111111000011
1111111111101100
1111111111010101
1111111111010010
0
101101
0
1111111111101011
1111111111111011
100011
100100
1111111111111001
100110
0
1000
10010
1111111111111111
1111111111111001
0
1111111111111000
1111111111111100
100011
1111111111100110
1111111111000010
10111
100001
1111111111111000
1
0
1
110
101110
110100
1111111110111101
1111111111001010
1110
1111111111100100
100001
1111111111011010
1111111111100111
1111111111110100
11111
1111111111111100
1111111111110101
1111111111101011
1111111111111011
1111111111010001
1111111111101000
1111111111100101
1111111111010010
100001
1111111111101000
11100
101000
10010
1000
1111111111100001
1
1111111111001001
1111111111100010
0
10100
100000
1111111111101000
1111111111010001
1111111111010110
100010
1111111111011001
1001
1111111110100111
1111111111101110
1111111111010011
1111111111000110
11001
1001
1111111111100010
1101
111011
1111111111101101
1111111110100111
1111111111011000
1111111111110101
1111111111101000
