10011
1000000
100000
1101
1001
100011
1111111111101111
1111111111111100
1111111111110100
100001
1111111111000100
1111111111100100
1
1111111111110001
100111
11111
10011
110111
0
101101
1111111111111111
101
1111111111100011
101
1111111111011010
1111111111100010
1111111111110100
0
100101
1111111110111000
1111111111111111
1111111111111101
111001
1111111111110110
101
11101
101100
1111111111111011
10
1111111111101001
11011
10000
1111111111110101
1111111111111101
10011
1111111111100011
1111111111001110
1111111111110000
1111111111011100
1111111111101000
1111111111111000
100110
1111111111111001
10111
1010
110101
1111111111110001
100011
1111111111100010
11001
1100
1111111111111010
1111111111011000
1111111111101100
1111111111100111
10111
1000
1011
1101
1011
1
1111111111000100
100001
101110
1111111111000011
1111111111001010
1111111111111111
11110
1111111111011000
1111111111101110
1011
11111
10011
1111111111010100
1111111111010111
11
101
1111111111010101
1001
1111111111110000
100111
1111111111011110
1011
11001
11101
1111111111110010
1111111111111110
100
10001
1111111110110111
100100
1111111111010000
100
11010
1111111111001111
101011
1111111111010101
101001
1111111111011011
1
1111111111100101
11110
1111111111101001
11
11100
1111111111101001
1011
1111111111100110
1111111110111111
101
100100
1111111111110100
10011
11100
1111111111011000
1111111110111111
1111111111110101
1111111111110100
1111
111101
100
11101
10001
10
1101
1111111111001010
100000
1111111111111100
1111111111010110
1111111111110000
11001
1111111111110000
100000
1111111111101010
11
111
1111111111000100
1111111111111010
1111111111001001
1111111110110011
1111111111111011
110010
110000
1111111111101100
1111111111100100
100011
11001
1111111111100010
1111111111110101
1111111111101010
1111111111111001
1111111111000111
11
10101
1111111111100110
1111111111110110
1111111111101100
1111111111110010
11000
1011
10111
1111111111100101
1111111111010011
1111111111101110
1
1111111111011000
10101
1111111110111100
11
1111111111011001
1001
1111111111101010
1111111111100110
1111111111110100
1111111111110101
1111111111101001
1111111111111000
1110
1111111111001000
1111111111111001
1111111111100010
11010
1111111110111000
101
101000
1111111111110010
101101
1000
1111111111110100
1111111111101101
101111
1
100001
1111111111111011
101011
110011
1111111111100010
1111111111011011
10010
110101
1111111111001010
1111111111101000
1111111111100100
100000
1111111111101100
111
1111111111100100
100
11111
1111111111101000
1111111111110101
1111111111111110
100010
10
0
1111111111101111
1111111111010111
101011
11110
0
1111111111110110
1111111111101110
1111111111101000
1111111111100110
1111111111000010
1111111111111001
1001
1111111111110011
1111111111010111
1111111111111100
1111111111101111
1111111111100010
1111111111111000
11
1111111111111000
100010
1111111111110111
1111111111011011
111000
1111111111100001
1111111110100111
100
11001
101
11101
1111111111100100
1111111111001010
1010101
1111111111111111
1100100
1111111111101000
1111111111000001
1011
1111111111010001
101
1111111111010111
1111111111001100
1111111111111111
10110
1111111111111100
10001
0
100000
1111111111101111
1111111111101100
0
1111111111110011
1000000
0
11101
1111111111111010
110
1111111111010010
1111111110111100
1
1111111111011110
1111111111101101
1111111111001000
1111111111110111
100000
1111111111100011
10101
1010
111011
1111111111110001
11
1111111111101101
1111111111101010
100101
1111111111010011
10000
100001
100000
1111111111011101
1111111111110100
0
1010
1110
1111111110110011
1111111110110010
1111111111111111
1000
1010
1111111111110100
1111111111111001
1111111111100110
1111111111101100
1111111111111101
1111111111110011
1111111111011110
0
11011
1111111111010010
1
1111111111111001
110011
1111111111101001
1111111110111011
1111111111111001
1111111111100000
10010
10111
1111111111101111
1111111111010111
1111111111111110
11111
1111111111111101
100000
1000011
1111111111111111
10110
1111111111111001
1111111111111111
1111111111010101
1001001
100011
1111
1110
1111111111100000
1111111111111100
1111111111110101
1111111111100100
1111111111101101
1111111111110000
1011
1111111111000100
1111111111111001
1111111111101111
1111111111101000
1111111111100010
1111111111110011
100101
101101
110
1111111111110000
101000
1111111111011010
1111111110111001
1111111111111111
1111111111110111
100111
11
1111111111101011
111110
1111111111011110
111
1111111110111001
1111111111000110
1111111111000110
1111111111101100
1111111111001101
1111111110110100
1111111111111000
1111111111111010
0
1111111111011011
111
1111111111111011
1111111111111010
11000
1111111111110011
100101
1111111111111000
1111111110110010
11001
1111111111011101
10000
1111111111111011
10010
11101
111111
1111111111111111
0
1111111111000001
1101
1111111111011011
11100
1111111111011110
10
1111111111101110
1111111111011011
10101
10000
1111111111001010
1000
1111111111100100
10100
1011
1000
1111111111011101
11
11100
1111111111111110
1100
1000
1111111111110111
1111111110110011
1111111111010010
1111111111100110
1111111111110011
1111111110111100
11000
11000
1111111111010111
1111111111011110
1111111111001000
1111111111100111
1111111111001111
11000
101011
1010
1101
11000
101011
1111111111100110
1111111111001101
1111111111010011
101
1111111111100011
10110
1111
10101
1000
1000001
111011
100
1111111111101001
1000
1111111111111101
1111111111000101
1111111111110101
1111111111001000
1111111111111001
1111111111000100
10111
1111111111100111
1111111111110000
100110
1111111111110001
1111111111010010
10000
1111111111111100
1111111111000111
11010
1
100110
110010
1111111111111001
1
1111111111111101
1000100
10100
101001
1111111111111100
10111
1111111111111110
10001
1111111111010101
1111111111111110
10000
1111111110110000
100011
110101
11110
111
10001
10000
1111111111100011
1111111111101100
1111111111110010
110111
1111
1111111111101011
1111111111011001
110
11011
1111111111111011
1111111111101000
11000
100101
1111111111111100
1000110
1111111111101101
100110
1111111111101011
1111111111111111
100100
1111111111001110
1111111111111001
10101
100100
1110
1111111111111001
1111111111110011
1111111111111100
1111111111111000
1111111111101110
1111111111111001
1111111111110010
1
1111111111101101
1111111111110110
1111111111110110
1111111111110110
10001
10111
110110
110001
1110
1101000
1111111111101111
100011
1111111110100011
100101
1010111
10101
10010
11
1111111111000001
1111111111011100
10100
1001
1111111110110011
10011
10010
1011100
10111
1111111111001000
100001
111010
1111111111110011
1111111111010010
1111111111001111
1111111111100000
1110
1111111111011001
1010
1111111111101010
1111111111110001
1111111111100101
1111111111111010
1111111111110000
1
11
1111111111001010
1111
1111111111110000
110011
0
10100
100111
1111111111100100
1111111111111000
1101
111
1001
10011
1000001
1111111111111101
1111111111101100
1111111111101100
1111111110101100
1111111111101101
100100
1010011
1111111111011100
1111111111100010
1111111111010101
1111111111110110
101011
1111111111100010
10010
110000
1111111111100101
1111111111110010
1111111110111010
1111111111111100
1111111111011000
1010
100010
1111111111101101
1000
110101
1111111111100111
0
100010
1011001
100110
1111111111111101
1111111111111001
1000010
11
101
1111111111100100
1111111111001001
1
1111111111111101
1111111111101010
1111111111000111
1111111111111101
1111111111111000
1111111111001010
1111111111011010
1111111111010001
1111111111110110
101110
100011
10001
1000000
1010
1000
11010
1111111111011011
100010
1111111111001001
1
101
10
1111111111000111
1111111111110111
1111111111110111
1111111111110101
1111111111010001
110011
1111111111011101
1111111111110111
1001
1111111111110101
11010
1111111111110101
1111111111101001
100101
110
1111111111110110
1111111111110111
1111111111000001
1111111111011101
101100
1000010
1100
1111111111111011
111
11000
11010
1111111111111111
1111111111010011
111001
0
11110
1
100011
111001
10011
1011
1111111111100100
1111111111010111
1111111111101111
100100
1111111111100011
1111111111011010
11010
1100
1111111111110010
100000
1111111111101110
1111111111011101
0
110011
1001100
1100
1111111111100101
10111
10
11
1111111111111100
1111111111101110
100010
1010
111
111
110110
1111111111100111
1111111111111111
1111111111111010
100111
1111111111111101
1110
1101
1111111111010011
1111111111110000
1111111111101000
1111
10110
1111111111000010
10000
1111111111111001
1111111111011101
1001110
10100
1111111111100101
100110
1110
1111111111001110
1111111111101011
1010110
10111
1111111111110110
111
100110
1
1111111111011101
1111111111101100
110
1
1111111111111010
111
100001
110111
111000
1111111111110000
100
11000
11000
110010
10001
1001000
1111111111000010
1111111111101100
1111111111000000
1111111111110011
1111111111100011
10
1101
1111111111111110
1111111111101000
11110
1111111111011110
1000011
1111111111111110
1111111111110111
11011
1111111111000011
1111111111101001
1001
1111111111110010
1111111111100110
11
1
11001
101110
100100
1111
1111111111101100
0
