1111111111111011
1111111111110100
1111111111111011
1111111111101110
1111111111101001
100011
1000010
110
1111111111111101
11010
110011
1111111111100101
1111111111000101
1111111111100011
1111111111100001
100000
1111111111000010
1111111111101110
1111111111110101
1111111111100101
100
101
1111111111111100
111110
1111111111101111
11000
10
10110
11010
1111111111110110
1111111111010101
1
1111111111010111
1111111111010001
1111111111101011
1111111111111110
1111111111111100
110110
1111111111010110
1111111111100101
10000
101
1111111110111111
1111111111110101
101100
100010
100010
11101
1111111111100110
1111111111011001
1111111111111100
11
11010
1110
100110
101010
1100
1111111111101010
1111
11000
1011
1111111111101010
1111111111011110
1111111111001100
1111111111101010
0
1
10010
1111111111101011
1111111111110011
1111111111100011
11000
1111111111100101
1111111111011001
1
0
1111111111110101
1111111111110111
10111
10100
1100
11100
1111111111111011
11110
10101
1111111111111010
1111111111011101
1111111110111101
1101
1111111111000001
1111111111111110
11100
11111
110011
1111111110110000
0
1010
1111111111101011
10010
10101
111
1111111111111011
1111111111011101
1111111111111100
0
1111111111101110
11101
0
1111111111110110
100111
1111111111111111
111
100
110010
11010
1111111111111110
110110
1111111111010101
1111111110110111
1111111111100011
1001011
1111111111010011
11111
1111111111110011
10100
1111111111111011
1100
1111111111110011
111011
1111111111111100
1000
110
11101
110
101001
11
1000111
0
1111111110111111
100101
1111111111011000
1111111111111000
1001
100101
1111111111110101
1111111111100001
1111111111000011
1000000
1110
1111111111110100
1111111111001010
1111111111001100
1111111111101010
1101
1111111111001100
1111
101010
1111111111011011
1
1001001
1111111111011010
11110
111
1111111111001001
1111111111110011
1111111111111110
1011
1111111111111111
1111111111110110
1111111111111111
1111111111100110
100011
1111111111011001
1111111111001110
1111111111011110
1
0
101
100
10011
1111111111010110
110001
1011100
1111111110111111
110111
1111111111110111
1111111111101111
1111111111000111
1111111111110101
1111111110110001
1000001
1111111111001101
1111111111101001
101110
1111111111011000
11000
11110
1100
1111111111010111
1111111111111001
1011
100101
1111
111001
1111111111111011
111
1111111111100001
1111111111011110
1111111111100100
10001
1111111111111001
100001
1110
1111111111110111
1111111111100011
1111111111110011
1111111111101110
1111111111100001
1111111111010111
1111111111011000
1101
1111111111111000
0
1111111111100111
100111
1111111111110001
1001101
1111111111011010
11
111
1100
1111111111111001
1111111111101010
101000
110100
11111
11110
1111111111100011
1
100001
10110
101001
1011
1111111111011000
101
1010
10011
11000
11100
100
1111111111101011
1111111111011011
1111111111010011
1111111111100010
10011
11000
1001110
1111111111101000
1111111111101010
1111111111101111
110
10000
1110
11111
1111111111011111
1111111111111011
10100
1111111111111011
1111111111110000
1111111111010010
1111111111101000
1111111111101000
1111111111111000
11
1111111111100100
101011
1111111111110100
0
1111111111100100
1111111111100111
111001
1000
101
10101
1111111111101101
11001
101111
10111
1111111111111011
10101
101011
100101
11
110
101111
101000
11011
100011
110010
1111
101101
10011
1
11000
1001010
11
1111111111111110
11000
1111111111001101
110111
1
1111111111101111
1111111111110000
1111111111110011
1111111111001100
1111111111011111
1111111111001010
1111111111111011
1111
1111111111100011
110
1111111111111101
10101
1111111111111101
101
1111111111111001
1111111111011000
1111111111011011
11
1111111111110101
1111111111011001
11100
0
1
1111111111110111
11
1111111111100011
1111111111110101
100010
1111111111010000
11
1111111111110110
1111111111110100
1111111111100000
0
11011
1111111111110110
1111111111110111
101111
1111111111011001
10011
1111111111100101
1111111111100110
1111111111100000
100
1111111111111010
111111
1111111111111010
1111111111110000
1111111110101110
101110
1010
100011
1111111111000001
1111111111101011
1110
1111111110110110
11110
11
1111111111100110
1110
1111111111110111
110101
1111111110100100
1111111111110010
1111111111000110
1111111111011011
1111111111110011
1011
1111111111110111
0
1111111111000010
1111111111101101
1111111111101010
1111111111111100
1111111111000101
1111111111101001
1111111111111001
1011
11001
1111111111100111
1111111111111100
1111111111100100
101010
1111111111110011
0
1111111111011110
100
1111
1000000
1111111111100010
1111111111111001
10101
101001
1111111111011101
10000
10100
10000
11100
1111111111101111
111
1111111111011010
1111111111101111
1000
10001
10011
1111111111110000
100000
10001
100000
101110
111
1111111111100100
1100
1111111111011110
100
1111111111110101
10010
1111111111101100
100001
10010
1111111111101100
1111111111111011
1111111111110010
1111111111101011
11010
10
1111111111011101
10010
110100
0
1111111111101011
1111111111101101
10000
1111111111101101
101
11010
1111111111011011
1111
11111
1111111111110001
1111111111110110
101000
1111111111111000
11110
101000
101011
1100
1111111111001011
100111
1101
1111111111110111
1111111111111010
10000
1111111111110100
111111
100100
1111111111111100
101010
1111111111010000
1111111111100010
1111111111100010
1111111111101111
1111111111100011
1111111111110101
1111111111010100
100010
11001
0
110
1111111111110111
101
1010
1001
111110
1
10111
1111111111010011
10
1111111111011110
100111
100001
1111111110111001
1011
1111111111111001
1111111111111101
100000
1111
1111111111110001
1111111111111100
1111111111110010
1000111
11001
1111111111101101
1111111111101111
1111111111101001
1111111111101011
11010
11101
1111111111010001
1111111111110011
101110
1111111111011011
1111111111010111
100000
1011
11101
1111111111010110
1111111111100000
1111111111101010
110010
11110
11100
1111111111100110
1111111111111100
1111111111100011
10100
1111111111110111
100001
0
1111111111101001
101010
1111111111010110
1111111111010001
10000
1101
1110
111000
1111111111101001
101010
1000100
100100
1111111111111011
10000
101101
1111111111111000
1111111111111101
101000
1111111111111000
110000
11101
1111111111110110
1111111111100011
11110
11011
1111111111011010
10010
101001
1100
1111111111111111
11110
1111111111011011
100001
11010
100
100110
1111
1111111111111000
110001
1111111111111001
10110
1111111111101000
1111111111101001
1111111111110101
1110
110000
10111
0
1111111111011110
1111111111001111
1111111111101001
11010
11
10011
11011
10100
1111111111101010
1111111110111111
10011
1111111111110011
1111111111101011
1111111111000101
1111111111101000
110110
1111111111110100
100011
1111111111111100
10010
1111111111110110
1111111111101010
110
1111111110100100
10001
110
11100
110
1010
1111111111000110
101
1111111111000101
1111111111110001
11000
1000101
1
101100
0
1111111111011101
11000
1010
100110
11110
11011
1111111111101011
1111111111111000
111000
1111111111101000
1111111111110110
1111111111110110
0
101101
10101
1111111111110100
1111111111111110
1011
1111111111110110
1111111111111010
1111111111111100
1111111111101111
111
1111111111110101
1111111111000111
1111
11
1111111111101001
1010
0
110010
1011
11
101100
1111
101000
0
111001
1111111111100010
100
11010
100011
10000
100010
1111111111111010
10
1010
10000
1111111111101111
1001
1111111111011111
1111111111110111
1101
0
0
110111
10010
1001
1100
1111111111101011
10100
100
1
0
1111111111110000
1111111111101110
11000
110110
100101
100
110
1111111111011101
11
1111111111000111
1001
1101
110
1111111111001101
1001
1111111111101111
10000
1010
1111111111110100
101
1111111111101000
1111111111011110
1111111111111110
1111111111100100
1011
1100
0
0
1
101
1111111111111111
1111111111101001
1000
1111111111110110
1111111111010101
10111
1111111111111001
100011
100011
10000
0
1111111111111000
1111111111100001
1111111111101111
100
1111111111111011
11010
10100
11011
1111111111001001
1111111110110111
0
1111111111101111
101100
1111111111101000
1111111111111011
1111111111101011
1010
101011
1111111111110100
100010
1111
1111111111010001
1000
1010100
1111111111011011
1111111111011000
1111111111110011
111
1111111111100111
1111111111001101
1111111111000100
1111111111111110
1111111111100111
1111111111101001
101000
1111111111011100
100101
11010
10111
1100
1111111111001110
1111111111111111
101000
101101
1111111111111110
111001
101011
1111111111110100
11010
10110
1111111111101010
11010
10010
10
101111
1111111111101101
1110
1111111111111111
1111111111011111
1000110
110000
111
10001
