1111111111111011
11001
110
100100
1111111111111001
1111111111100101
1111111111110110
1000010
11111
1001000
10000
1111111111110110
1111111111111110
1111111111111010
1111111111110111
111
111010
1111111111110110
1111111111010000
1111111111110001
0
1111111111101111
11010
111
11
10010
1111111111111101
10010
10001
10110
10001
10110
110000
101011
1111111111010101
1111111111101110
11100
1111111110111010
1111111111111110
1111111111110001
10101
1111111111110111
1101
100000
101100
1110
0
1111111111110011
110
10010
1111111111111000
1111111111101100
110
1111111111111111
11100
1011
111
1111111111001000
101
1111111111101011
1111111111101010
1111111111011010
1111111111001100
100
1111111111110101
100
1111111111101011
100110
1111111111111000
10100
1101
1111111111110110
11000
1111111111110001
1111111111111011
1111111111000101
1111111111101000
101001
110101
1111111111010010
1111111111100011
101110
1111111111101001
10000
110
1111111111000101
101
110001
1111111111000101
111111
10110
1111111111101011
1111111111111001
110000
100011
101
100110
100011
10001
1111111111111100
11000
1111111111101110
1111111111111110
1111111111010011
1111111111101100
11101
11100
1111111111001010
1011
11010
1111111111111011
1111111111100000
1111111111110000
1111111111010110
1111111111001010
100111
1111111111110111
100100
1111111111100010
1111111111000101
1111111111100010
1010
111
100
100110
110101
1
1111111111101111
10010
111001
11011
1111111111110101
1111111111111111
1000
1111111111011101
1000111
1111111111111111
1111111110111010
0
1111111111101101
11011
1111111111010100
1111111111111100
1111111111110000
1111111111110100
10011
1111111111001100
1111111111110010
100101
1111111111110111
10001
1111111111110000
11100
1010101
10001
1001110
10001
10000
11001
1111111111011110
1111111111011000
11101
1111
100110
1111111111101101
1111111111111000
1111111111111110
111001
1111111111110001
100111
1111111111001111
1111111111101101
1111111111101110
1111111111111111
1111111111001111
1111111111010000
1111111111011110
101111
0
1111111111100110
1111111111111000
11010
100
110001
1111111111001001
1111111111110000
10011
10
0
1111111111101010
1111111111110110
10000
101101
1111
10011
1111
1111111111101111
1111111111110111
1111111111100111
1000
1111
1010
111
1
111
1111111111000101
110011
1111111111010110
110001
110001
101100
101010
1111111110101101
1111111111010010
1111111111101000
1111111111101101
111
1111111111001001
1001
1111111111010101
10000
1011
111111
1111111111010010
1111111110101011
1111111111000100
1111111111111000
1110
1110
1111111111100001
11111
1000
1111111111101011
11
11001
0
10111
1111111111101000
1111111111100011
11011
1010
111110
1111
1111111111111110
1111111111010001
1111111111110000
101010
1111111111111101
1111111111011100
1111111110110011
1111111111100000
1111111111011011
11101
10000
10100
11010
101101
10
0
10
111010
101001
11100
11000
11011
100010
100101
1111111111000010
100110
10010
11010
111110
1111111111110001
111100
1000000
111011
111111
10011
111100
110100
10011
1111111111011111
1111111111100111
1111111110111011
101010
1111111111100010
11
11001
10001
11011
0
1111111111111101
111001
1110
1
1111111111111010
1111111111101111
1111111111001101
1111111111101000
1111111111010011
1111111111011011
0
11
101111
110101
101011
1111111111111101
1111111111101111
100011
1001001
1111111111110001
110
100100
1001
10101
1111111111110110
1111111111010111
11100
1001111
100000
11
100110
1111111111100010
1010
1111111111110111
1111111111110011
11001
100110
1111111111101010
1111111111101110
11110
1111111111100111
1001000
1110
1111111111101111
10011
1111111111110100
11
1111111111110101
1111111111101110
1001011
1111111111100010
11001
1010
10110
1001
1111111111011101
101101
10001
10
1111111111100101
1111111111111001
1111111111100100
1111111111011000
1111111111111110
10001
1111111111110001
10101
1010
1111111111111110
10000
1111111111011111
10001
0
1111111111001111
10001
1111111111110000
1111111111110001
111
1100
1111111111110110
1111111110111100
10101
1111111111111111
1100011
100001
11100
1010
1011
1111111111110100
10101
1111111111101010
11011
1101
1111111111111111
11001
1100
10
1100
1111111111111100
1111111111110001
1001
11011
1111111111100101
1111111111101101
11
1001
10010
1111111111111111
101110
10111
1111111111000110
1111111111111001
11
0
1010
1111111111010111
1111111111111011
1111111111010101
101011
11
1000000
11111
1111111111000101
1001
1111111111100100
1000
101001
1111111111110011
1111111111011101
1111111111001101
10010
1001
100011
100
1101
1001
100100
1010
1011
11111
1111111111100000
10110
11011
1111111111111111
1111111111101100
1001
110010
101011
1000101
1111111111111001
1100100
1111111111010001
1111111111110001
1111111111101000
11110
1111111111101111
10
1111111110110011
1111111111011000
1000
1111111111101110
110
1010011
10001
1111111111110010
1111111111011110
1111111111011111
1111111111111111
1111
101001
1111111111110111
10111
1111111111101110
10000
1111111111111010
1111111111001110
1111111111010101
1110
1111111111100000
101100
1111111111101111
1111111110111100
1110
1
1111111111111110
11
111111
100110
1111111111001111
11110
100000
11000
10011
110000
1111111111110010
101
10010
100010
10111
111
110
1111111111111100
1111111111101010
101010
1
1111111111011010
1111111111111000
110
101010
1111111111010111
1111111111010110
1111111111011011
101011
11010
1111111111010110
10
10000
101100
11001
111
1111
1111111111100001
1111111111111001
111
1111111111110001
1111111111101100
1101
1111111111111001
11101
1011
1111111111010000
101000
1
1111111111110111
1111111111101000
1111111111110010
100110
1111111111000011
1111111111101110
1001
1111111111000011
1001010
111
11
1111111111101001
1111111111110111
1111111111101111
10011
1111111111111100
1111111111111000
1000001
101110
11
1111111111110111
11111
1111111111010101
100
1111111111110011
1111111110111001
1001000
110
1101
10101
1111111111100010
11
101001
1111111111111000
100010
1111111111110110
1111111111011100
1011001
111
1111111111111001
1111111111110111
11001
1111111111011101
111101
1111111111111100
1111111111100101
11010
10110
1111111111111001
1111111111100111
111111
10101
10111
100110
1111111111110110
10001
100010
10101
1111111111011101
1001
10
1111111111001100
1000000
11110
10110
10111
1111111111111001
1010010
100000
1111111111110001
1111111111101101
1111111111001011
1111111111100110
1000
110
1111111111010111
1001110
1111111111110010
111000
100000
0
1111111111111010
110100
1010010
1111111111111100
111101
111
1111111111101010
1111111111101010
1111111111101000
100100
1111111111011010
0
1111111111010100
1111111111010110
10110
1111111111001101
11100
100110
101010
1111111111010001
0
10011
1111111111110010
1
1111111111111111
11010
1111111111101101
1111111111110001
11010
1111111111101111
110001
1111111111111101
11101
1111111111100101
1111111111100011
1111111111010011
1111111111101100
11001
1111111111101110
1011010
1111111111101011
10100
101000
11000
10100
1111111111000001
1111111111110010
1111111111101001
1110
111
1011
101001
1111111111110000
1001
11111
100010
1111111111100101
1101
1111111111101111
100001
110101
1111111111111110
1100
1000
10011
111000
1111111111011101
1101
1111111111011000
101000
1111111111010101
1111111111100101
11101
1001
11100
1111111111100001
1111111111110000
101100
1111111111010010
1111111110111110
100110
11011
1
1111111111111110
1111111111101111
10101
1111111110101101
11010
1111111111101010
1111111111111000
1111111111110010
1111111111110001
11
1111111111101001
1111111111101101
1111111111000110
1010
1111111111000011
110
1001
1111111111010010
100
1111111111101001
100
10110
1111111111110001
11110
11110
1111111111111011
101010
0
101001
100010
1111111111101101
0
100011
100001
1111111111101001
10110
11101
101
11001
1000
0
11011
100001
1111111111110000
1111111111111111
1111111111001111
111
1111111111011101
1100
111001
100111
10111
1110
11011
1111111111110001
1111111111101101
1111111111101011
1111111110110000
1111111111011000
1000
110001
110100
100110
101010
101100
1111
1111111111000001
0
1111111111110110
1111111111100001
110
1111111111110100
1111111111100001
1111111111011111
1111111111011100
1111111111000011
1111111111111100
110101
1111111111011000
1111111111111100
10101
111011
11000
1111111111101110
10011
101000
101110
1111111111111101
1111111111000011
110100
10
1000111
10001
1111111110111000
0
0
