1111111101110010
1001001
1110000
110101
11101110
11011
11000000
1111111110001000
1111111111101001
1111111100111101
10001101
1001
10001010
11001101
11011000
101010011
10111101
1111111111101110
1111111101101110
1111111101101110
1111111101000100
1111111110100110
1101110
1111111101111110
1111111101001010
1001000
11010011
1111111110010100
100000
11000101
