10000000
11010001
1111111111000101
1111111110111000
1101111
1111111101000001
11010011
1111011
1111111110100011
1111111111110111
1000001
1111111111001010
1111111101110110
11000
1111111111100001
1111111110001010
11111011
1010
1111111100100010
1111111111100011
1111111111011010
1111111111111111
1111111100111101
11001
1111111110011001
10010001
1111111111110101
10001101
1111111100100011
1111111110100110
