1111111110001111
1111111100001011
11001101
1011
1111111011100111
1111111110111100
101011
1111111101100110
1111111011100000
1111111101011011
1111111100111111
1111111011100111
11001110
1001000
1111111110000100
1111111111011011
1111111011100000
1111111110111001
10101100
1111111101011001
1111111011111011
0
101011
11100011
100111
110100
10001011
1111111101000010
1100011
1000
