1111111100111101
1111111011010011
1111111010000000
1111111111111000
1111111010100011
1111111110100001
1111111001010101
1111111011011100
10000100
10
1111111101001001
1111111111101101
1111111100010011
100001
1111111111101100
1101110
1111110
1111111110100011
1100011
1111111101010100
11110
101111100
1111111110011010
1110001
1110000
111011
100010011
100001
100100
1010111
