10010101
101001111
1111111100110101
11011100
111110
1111111101000110
100110
1110011
1111111000000110
1111111111010010
1111111011111011
1100
11100000
1111111101001010
1011011
101000011
11001010
1111111111000101
100111
1111111101000101
10100001
1111111010101001
1111111111100110
1001111
110001111
10010010
1111111110100001
1111111100101110
1111111111010000
10010
