101011001
1111111111011001
1101
1111111011101100
1111111111100110
1111111011010111
1111111110000110
100011111
10001110
11011111
100110
1101111
1111111101110100
100000000
1111111100111010
10100111
100010000
1111111110101101
101111
1101100
10101
10001
1111111011100111
11000001
11101001
10111111
1101000
1111010
100011
110010
