1111111100001010
0
1111111000001101
1111111011101011
1111111110100100
10000000
1111111100011100
1111111110010111
10110010
1111111101010111
1111111111100001
1111111111110010
1111111111001110
100000111
1111111110010100
111011
11100001
10110
1010111
1011001
1111111011111110
1111111101100100
1111111111100011
1101000
1111111101000011
10100101
1111111101001011
1111111100000010
1111111001001000
101010
