1111110111111110
1111111011000010
11101100
10110000
1000110
1001101
1001000
1111111110111011
11101
1111111111110010
1111111111101111
1100001
1
10010
111000
1111111111001010
1111111111000011
1111111101000001
1111111101111000
1111111101110101
1111111101100011
1111111110010000
100001
1111111010110010
1111111010111000
1111111100100001
1111111111000101
1111111111001001
11000110
1111111100100011
