110101
1011
1111111001111000
1111111101000001
10100101
1010001
101011
1111111100011100
11010000
1111011
1111111111001101
10
1000010
1110
1111111101101010
1111111100011000
100010010
1111111110001011
10110110
1100111
1111111110101000
1111111110010001
1111111100110000
1111111101000010
10101111
1111111110000011
1111111110100011
100110
1111111100001111
11001100
