1000
11
1111111110001010
100000
1100010
11000110
1111111
10111011
1111111100001001
10010110
1111111111111011
1111111110011001
1010000
1111111110101111
1111111101101000
0
100101
110011
100000111
1111111110010101
101111011
10000010
1000010
1111111100111000
11000111
1111111110100100
10011
1111111011001000
1111111011011110
111101
