1111111110110101
1111111110010110
1111111100100010
1111111110011011
10111
1111111110101100
10001110
1111111100000011
1111111110000101
10101001
111010
1111111011011010
1111111010110111
1111111111000011
1100111
11011110
10011001
101111
1111111101111111
1111111111110111
1000011
111
10111100
1111111100001001
1111111111010000
11100110
1111111011111101
1111111110010011
10100010
10001001
