1111111111111111
1111111111000101
1
11111110
1111111110010100
1111111111001100
1111111111110011
1111111010111101
1111111110001111
1111111010100100
110110
1101010
10010010
1111111110000100
10010100
1111111110010111
1111111010110110
1111111110011101
1111111110100111
1111111111100100
1111111100100000
100
111111
1111111110101110
1111111001111000
11010010
1111111101000001
1111111101011101
1111111101111111
1111111101010111
