1111111011001011
1011011
1111111111110011
1100111
1111111010101001
1111110110001101
10110110
1111111111101001
1111111111001001
1111111111000010
1111111011001010
10000
1011101
1111111111100011
1111110111010100
1001010
1111111110101111
1111111110011010
100111
1111111010111100
1111111110110110
1110001
100101
1111111101111001
1111111011110110
1111111000110100
1
10001010
1111111100100110
1101
