1111111010010011
1111111111100010
10000001
1111111110110100
101000
1111111101011111
101001011
1111111111000111
1111111110101100
1111111100111011
1111111010111011
1111111110100100
110100
10101011
1111111111011010
1111111100011000
1111111111101010
100110
10100100
11000001
1111111111100111
1111100
10
1111111010110111
1111111011011001
1111111110100010
1111111111001010
11101
1010110
1111111111110110
