1111111101110101
1111111100011010
1111111110010001
10010101
100110011
1111111111000010
1011001
11101000
10101001
110011
1100
11
1111111100000011
100000100
1111111011011100
1111111101000011
1111111111011010
1111111101011000
101110
10111100
10100
1111111111000010
1111111110010100
11000110
11111111
1111111101000010
10100101
1111111101010100
1111111001011110
1101101
