11000
1111111110011100
1111111100101101
10100
100
10001000
10011100
100000110
100011000
1111111011011111
1111111110111000
1111111101101110
1111111101001111
110110001
10110011
1111111100110101
1111111100011101
1111111111010111
1111111111100010
11101100
1111111111010011
1111111100001100
1111111111101001
100010
1111111111100010
1111111
101101101
1111111110000111
10101
1111111110001111
