10110000
11001100
1111111010011101
11110100
100010001
1111111011111011
100010101
1111111001101011
101000011
1111111110010001
1111111110110101
1111111100000010
10000110
1111111100010000
1111111111111111
1111111101010011
11000110
1111111011111010
1111111111100111
100011
1111111111111011
1111111110011101
1111111111101100
1111111111100100
1111111111010100
1111111111110101
1111111101011010
1111111100111110
1111111010011111
1111111110001000
