1111111111100111
11101111
1111111101011011
11000
1111111110000111
1111111010110100
111110
100101
1111111110110111
1111111110001001
1001100
1111111111101000
1111111101010110
111111
1100101
1111111111110011
110010
11100
1111111100110101
1111000
1111111101010101
1111111011010101
1100000
1111111100110111
11001101
1001100
10010001
100110011
11101101
11000
