1111111111001100
1111111
1111111101111111
0
11100110
1111111110011010
1111111110101111
1111111101111000
1111111111111001
1111111111110110
1111111111010111
11
1111111100111111
1000010
1111111100001001
1111111100110101
1111111111111111
1111111101011000
1111111111110011
1111111100000001
10001000
100000000
1111111111100110
1111111110000010
100101
1111111110001111
1111111101000011
1111111110001001
1111111101001011
1110111
