11001010
11101
1111100
1101110
1111111111011110
10010001
1111111111011111
101110
1111111100011011
110111
111001
1111111111000111
1111111101010111
1111111110010101
1111111111100000
1111111110110100
1111111101010000
1111111111111011
11101011
11000100
1111111110111100
1111111111010001
1111111100001010
11000010
1111111101110110
101111
1111111101101111
1111110
1111111101010100
101000110
