1000111
1111111010101100
1111111110110011
1111111111000001
100111
1111111111001011
1111
1111111111100010
1111111110010100
110011010
1101010
10000111
1111111110001111
11000000
1111111001100000
1111111110010110
1111111011101111
1000
1111111111100110
1110111
1111111111110001
1111111100100100
10010110
100
1111111111011100
1000000
1011111
1111111100110010
100100101
1111111100111100
