1111111111000011
1111111101010011
10101011
100101011
111000
10001010
1110111
1111111110000000
1111111010111110
1010001
1111111100100111
1111111100010101
1111111111001010
1111111011111010
1111111101110110
1111111100001000
111100
1111111111110001
1111111101011001
1111111111000101
1111111100011100
1001000
1111111110000001
1110
1111111100100010
1111111110101010
10101
1110011
100110100
1111111110000110
