10000001
1111111101000101
101
1111111111100101
1111111110100001
110100
1111111011000011
11111001
1111111101011110
1111111111110111
101101110
1111111110011101
1111111110111001
11101010
1111111101110100
10001000
111110
110110000
1100000
1111111111010011
1111111110011010
1111111101101111
1111111110000010
10101010
1011010
100111
1111111101010101
10001000
1011000
10011100
