11111
1111111111100001
11000
101001101
1111111110101000
100000010
1111111111111100
1010011
1111111100100011
1111111110111100
10000000
1111111110110010
1010100
110001101
1111111100110000
10101111
1110
1111111011011101
10100010
10011011
1100101
1000101
1111111110011101
1000001
1101101
110000
1111111111011100
1101011
1111111111000000
0
