10000
1111111111100101
1111111111011101
1111111110000111
11010100
110001
1111111011101111
1000111
1011
1111111101001101
10011001
1111111111110110
1111111100101011
10
1111111101110110
1111111100100110
1111111010001101
1111111100110101
1111111101111000
1111111111010111
10101011
1111111110001101
1111111111000111
111001
1111111011110001
10011010
1110110
1111111100111010
1111110111011111
1111111111110110
