1111111111111011
1111111100010010
11000110
1111111100000110
1011000
1111111111111000
1111111011100110
1100010
1111111010000010
1111111111010111
11011011
11001101
1111111101011101
1110110
1111111111010111
10111111
1011011
101011
100000011
110011
1000110
1111111100011101
10111001
1111111111101001
11111010
1111111110011110
1111111110001110
11011
11110101
1111111110110100
