11001110
1111111011000001
10011110
100110101
1111111101111111
1000010
1111111110011100
1111111101101010
10101
10011
11111010
110110111
10101010
1111010
1111111100010000
1111111101100011
1001110
1111111111111111
1111111111011010
1111111011001010
1111111011101110
1111111011001011
100001111
101111
110101
10010011
1111111111110101
10111011
1111111111010010
10001000
