101010000
1111111101100000
100
1111111110101111
10111100
1111111011000000
1111111110100110
1111111010101000
1111111011101001
101111011
1000110
1111111101010000
1111111111111011
1111111100110011
1111111100010110
1111111010001100
1111111011100000
1000100
1111111110001111
1101100
100000111
1111111111000101
1111111110100010
1111111110000100
1111111110101100
1100011
1111111110000000
1111111010110111
1111111100011001
1101111
