1111111100110000
1111111100000000
100000011
1111111100110010
1111111110000011
1111111010001110
111000
1111111001100011
10001010
1111111110001011
1111000
11000001
1111111011110110
10110
10000010
1111111110000010
1111111111001111
1111111110100010
1111111111101101
1100010
1111111010110010
1111111110011111
10110110
10011
110011
1111111100001000
1110010
1111111110110100
1100010
111
