100101
1111111110011110
110100
1111111011001010
1111111111101101
1111111001000101
1101010
1111111111101100
11110000
1111111111111111
10100001
11001011
1111111110110101
1000
101111
1111111111000010
11101
1111111011010101
1000110
1111111111001001
1111011
1111111111010010
1011101
1111111010101000
111111
11111
11111001
1111111101000110
1111100
1111111101011010
