1111111110110110
1101
1111111111101110
1101110
1111111101100111
1101010
1111111110011010
0
1111111100010010
1111111101011111
1111111011011111
10010100
1010111
1111111010101111
1111111110011110
101000
1010101
110000
1111111110011010
1111111110011001
1111111011000111
101011
1111111010101111
1011001
1100010
110111
1111111101010001
0
1111111110101101
11101
