101101
1110
1111111111011010
1110111
1111111000101101
11100111
1110100
10001010
1111111100111101
1111111101101111
1111111101000111
10100001
1111111111111100
1111111101010111
1111111110101110
1111111111101101
1111111111111110
1111111101010111
1111111101001101
1111111111011111
10010010
100111010
1100010
110011
110011
100110000
10011110
1111111111010001
1111111101011010
1111111100100010
