10001011
1111111100000100
1111111111000000
110101
1111111100001110
1111111101111100
100010110
1111111111101101
1111111110010101
1010001
1111111110111001
11110111
11100
1111111101001010
10000110
1111111011000010
1111111111100101
1111111101101000
1111111110101011
1011000
100001
10010111
1111111111011000
100101
1111111110001010
1111111111111111
1111111110110001
1111111100010010
1111111101110011
1111111111101101
