1110010
1111111100100111
1111111101111011
1111111111001100
1111111110000111
1111111101111111
10111101
1111111110111101
110111
10001101
110011
101001111
100110
1111111010110001
1111111111011110
1111111111010110
11111001
1111111010100101
0
10011001
1111111011111011
1111111111011010
1111111101001111
1111111101100001
1110111
1111111010110011
111100
1111111101101011
1111111100011001
1111111000111110
