1101011
1111111110001011
10111
1111111111010110
1111111111011000
110111
1111111100010101
1111111110010111
1111111111001101
110101010
1111111101010111
1011010
1111111110111011
1111111110111000
1111111010011110
11100001
1111111111000101
1000111
1111010
1111111111110010
10011110
1111111110111101
1111111100000001
11110110
1111111000011010
1111111011110111
1111111011100100
101010001
1011000
100111
