1111111
10100011
1111111101100101
1011001
1111111111110001
10
1111111100101100
1111111111111100
10010001
10011111
1111111110101001
1000110
11011000
1111111100001001
1100
1111111101001001
1111111111000101
1100
1011101
101000
1100111
10011010
1111111110001100
10110
11110100
1111111110000100
100111
1111111011100111
1111111011100010
1111111101110100
