1111111111100010
1111111101111110
1111111101011111
1111111101111111
1111111111001011
1111111110101110
1110111
10011001
11010110
1111111100101101
100110001
111110
1111111101101011
1101110
1010010
10110010
110110000
1111111101100110
1111111101010001
1111111110011110
101000010
100000000
1111111110001011
1010110
1011010
1111111111010111
1111111100111100
10010000
1111111100001110
10110110
