110001111
1111111110010110
1111111011000101
1111111100000111
1111110101110101
1111111110001001
100001101
1111001
1111111010101110
1011110
1111111101000101
10000100
1111111011111101
1011110
100100111
1111111110110010
10001010
1111111011001100
1111111110011101
1111111110100010
10
11011000
1111111110000111
11001010
1111111100101110
1111111111101101
1110011
1100111
0
1111111101110111
