1111111111010101
10001
1111111101100100
110101
1111111111100011
1111111010100010
10101010
10100000
1111111101111000
101001111
10111010
1111111111001101
100001
1110
100001001
10101101
1111111110110101
1011111
1111111101110111
110101011
1011110
10000111
1101100
101111
1011
1111111110111000
1111111101010101
1111111100000010
100011000
1111111101100110
