1001001
1111111000101111
1111111000101001
1111111110110110
1111110111101011
100001011
1111111111010000
10000
1011000
1111111101001110
1111111110010001
1111111011100000
1111111101111001
101011110
1111111110000010
11101110
0
111
0
101001
1111111110001001
10
1111111101010111
1111111110010100
1111111101110111
1111111110000101
0
1111111000010101
1111111101000110
1001101
