1110
110111
1111111111000100
100001011
1111111100110100
11110101
100001
1111111111000000
1111111100010111
11101100
1111111110000100
11001111
1111111011011100
1111110100110111
1111111000010101
1111111101110000
1111111101000010
1111111100000000
1110010
1111111100000100
1010111
10001001
1111111101001001
1111111111111110
11011101
1010001
1001001
100000000
1111111111011000
1111111011011011
101010100
1111111100000101
1011100000
1101111010
11010111100
100000111101
100001100100
1000001110100
110111111111
1111001111
1111110111
1111111010101011
1111001111110010
1111100111010000
1111111000101111
110110001110
1010101111010
1001010100010
111101010110
1000111011110
101010100010
10001011000
100010110
1
11111
1111111101100000
1111111110010111
11000111
1111000100
111000001
110000111
111110101001
1111111100111010
1110101010
111001111110
11011110000
1000010011110
1001101100100
111101111110
1111111100010010
1111110111100111
11110101
1111110011000011
1111111010100100
100011011
10111010000
1111111110101101
11110111110
101111011
1101000001
111110110011
11010101111
11000110
1111111011111001
1111111100101011
1111111011011111
10010101
1011101100
1111110101100011
11101100110
100010010101
1111100000011000
111011
1111110111100001
1000110
1000011000
1111110101100100
1111110111001001
1111110000010011
1111111001111001
1111101100000110
1111110111000110
1111111100101100
11011001111
1010010010
1100000010
10011011101
1111110011011101
1111110110100001
10110101110
1111111101001000
1111111011000110
11111
1111110101100001
1111111010000101
1111101110011100
1111110101100010
110011000
10100110
100011010
110100101
10011011001
100000011001
1100000110
1111111110001011
1111111000111001
1111110010111111
1111100001110111
1111101011001110
1111101111111111
1111111111110111
1001101
1111111001010100
1111100110001010
1111010011101101
1111000010010001
1110110111001010
1111000110110010
1111100111000011
1000000111
1111111100001101
0
100011001110
10110
11100101110
1111110011101000
0
10011000
1111111111100000
1101010001
100010111110
1000100000
11011001
100
100110010
1111111100011110
1111111110000101
11111010
1111101101010010
1111110110010101
1111100010110110
1110111011110010
1110011111010001
1110000101011110
1110001001111011
1110111111111100
1111100110101010
1010010010
100010010
1111111011011101
1111110101010000
100111111110
101001101101
1111110111001111
1111001111
1100011010
1111111110111100
1111111101110101
1111111100001111
1111111010000001
1111101011111000
1111110010101111
1111100000010011
1111101111010011
11010011
1001000000
1111110110111111
1111001100011111
1110111000001110
1111000001011101
1110110010111111
1101100010110111
1110100101001101
1111010100100111
1111011110110001
1111110011111011
11101010
1111100011000100
10010111000
10110111101
10101001000
1111111000111011
110111001
11001110
1111110000
111100101
10111000
110011101
1111110000100100
1111100111011100
1111110001100111
1111100110000100
1111100110010000
1111101100011111
1111011001101001
1111000101011100
1111010001100010
1111010101110110
1111001001001100
1110010111000011
1110011000011010
1111100001110011
1110111111001010
1001101110
10001001000
11101011001
10001111100
100110000010
11000001010
1111110010000000
1100100000
1101100101
1001101101
11000011
1000000110
1111111001011000
1111110101110101
1111111101111000
1111101111011000
1111101000011111
1111011001100001
1111010010001101
1111010100110101
1111101011110101
1111111111011110
1111110110101111
1111001110101101
1111010111001111
1110110100101011
1111001000110010
1111000011010100
1111110110010110
111001100
1111110100100100
111000001
100101011101
100011100011
10100011100
1001001
1111111010000100
1111101010100000
1111111011001011
1111100111001101
1111101001100010
100100100
1111110101010011
1111111011000001
1111101100001000
1111011100010000
1111011100000011
1111100001110011
1111110101000011
11110110
1111110101
1000111000
1110101000
1111101010000000
1111000101000010
1111001010111010
1111100101111101
1100001101
1111110011101100
1000010001
100100110111
101110000
11110011011
10100111100
1111110100011001
1111100011001110
1111100111000101
1111100111010001
1111100100110101
1111111000110010
1111101000110000
1111010111001000
1111000011000100
1111101011111000
1111111000
101011011
10010110
11011011
1111101100010000
110010
1001101
10011000
1111111001101110
1111111101100111
1111010000001111
101110110
11010011100
1111110101001010
100010100110
1111101010100101
1111110000101001
1111100100110000
1111101100001010
1111101001011110
1111111101101000
1111100101101110
1111100101101101
1111011111000101
1111010001000100
1111000101101111
1110111111001001
1000100001
1100101111
1101011111
100101011100
1001100100
100000111010
1011001011
111111
1111110110111001
1111101011111110
1111000111010000
1111010100001010
1111111111000111
1110010010
1111011000011001
1111100110100000
1111011011011001
1111010101000100
1111010000011010
1111101000000001
111111001
10010100
1111110101110101
1111111110100010
1111101101111110
1111010011100100
1111011011011000
1111100000011001
10001101001
10111010000
1100010010
10110111111
11010010100
10101110011
11111010000
110001000
1110011
1111101111000010
1111101010010110
1111011100001000
1111111101110011
10011010000
1111101110000100
1111000000101010
1111001111000111
1111110010000111
1111101111010110
1001110111
1111110011101101
1111110110100011
1000000110
100111111
1111110111110011
1111111110000001
1111111101110100
1111111100011000
1100110010
101001001
1111111011000100
10101011111
1110110111
1101011110
100000110110
10011111110
10111010111
1111111001110010
1110011010
101000100000
1011000110
1111101011011110
1111111100101010
1111110100011101
1110111110011101
11101000
11000010000
1100111110
1111110110000110
11100101010
1110100110
111010101
10010
1110010
1011000001
10011110
10010011
1111101110100011
10110110
1111110111110010
11000010111
100111111
100001100010
10000101010
10001010110
11001110101
1010111010
110000100111
1001100101
1111101011110011
1110011111
1111110101001101
1111110110011101
110111001111
100110000000
1111111011011100
1111111000011110
1000101101
11010110101
1111111100110100
1111011011101011
1111111001010011
1111111001011010
1111110111101011
1111111011100111
1111110101010001
1010111
10111111110
10011011100
1111111011111010
1111110011101101
1111110011111001
10101100001
10011010101
111010000
10110111100
101001
1111100011110101
11010010101
1111110000011011
1111111101001001
101000011000
100110010000
100100010
1111110111011100
10000111110
100001010000
11011100000
1111101010000011
1111101110110110
1111111011011001
10100000100
1011000101
10010101110
10000110110
1011101111
1111110000
1111110000111001
1111110110111111
1111111111011001
10100111100
111000010011
11011101010
11111011111
100010101
1111101111011010
11110000110
1111100111111001
10110001111
1010000101
10110111010
1111111011000000
1110011
10010011110
11100000101
10011100110
11010001
1000111110
1111110110010001
1111111111111111
10100000110
100001010110
101101010101
110100111
1000011111
1111111111010100
1111111101100010
1111110001011110
1111110101000010
10101100001
1111101111111110
11001000100
1111011111011100
1111101011001000
1111100110111101
1111111001001101
1100000101
11011001
10100011
1111110100111010
1111111110101110
1111110000011111
11111110
1111110101111110
1011111
1111111000010000
1111110110000111
11110010
10000010000
100100011111
11010110100
111010010
1111111000010100
1111110111110101
1111111101101001
1101100111
10101111100
11000001000
1111011111100001
1111111001100010
1111110100110001
1111110010001100
1111101111100101
1111100111001011
100010
1111111001111101
1101111
1010010101
1111100110011010
1111100101011001
101000110
1110001000
11010
10000101
1011111100
10000100000
1111111111100011
101010101110
11100111101
10010110
111000000
1000
10110011010
100101000
1111110111000100
1111110010101011
1110011000010
1001100100
1111111111011010
1011110001
11000000
1111011
1111111010001011
1101100101
1001011100
1111101011000000
1111011111101110
1111101001010110
1111111111101010
1110001011
1000011
1111110101111011
10011110
1101101011
1111110010000010
1111111100110101
1001101001
1111101001111000
1111101111110010
1111111111011000
10110000001
10001001111
11111100011
1111111000110100
111101001011
1111100010100001
1111110111001001
1110110110
11101111000
10100111001
1111010110100110
1111110111101101
1111111011100111
1111101101000101
1111111110001001
1111110001001011
1111111010110010
1111111100100101
1111111111111010
1111111011111110
1111111000001101
1111110011100110
1111100110101010
1111110110110000
1111111111001011
1111111100010101
1111111000000011
1111111001010110
11101101000
1000110011101
101000110101
110010011010
1101110110
1111110101000010
1111111011001111
1111111011001111
100101101110
1111111101011110
1111100110000110
1111011100001111
1111101110011111
11000111010
11101100000
10110111001
100101011011
1001001011
100011001
1111101100000010
1111101001010101
1111110001110101
1111011100111000
1111001000010100
1111010010011111
1111100011001011
1111110010011111
10110110111
1000010011011
100011110011
11011001110
100001110
1100110000
1111110000110111
11010000
10000110
1111100000101011
1111011001100111
1111010000011011
1111101001100000
1111011010011111
1111111000010000
10001111010
10010110110
11100101110
1111110011000010
1111101001000110
1111110010010100
110111
1111001111110111
1110101111000001
1110010110111001
1111001011001110
1111101001111010
1111111010111000
100001011010
110011001101
10011010100
10011000001
1110010101
11000110000
1110100
1111111111000001
1111111011011100
1111100111100111
1111011110111000
1110111100001110
1110101110101110
1110110000111000
1111000010100101
1111110000110100
1111110110001111
1111111100001010
1111100101111001
1111001111111000
1110010111110011
1110010010110001
1101111010111101
1110111001100110
1110101110011100
1111001001110101
1111001100101011
1111101100111010
1100011110
100001101101
1111010001110010
1111100101001101
111010010100
10110010101
1111111101010001
11000010
1111111101010001
1111110111110100
1111100101111111
1110111010011110
1110011010000100
1110111101111101
1110011001001100
1101101111011110
1101111010001111
1110111010110110
1111001010011101
1110110110100010
1101111000011101
1101110111010110
1110001010111001
1110000110011101
1110110011110100
1111000000011111
1111000010000000
1111010001011010
1111100010111101
1111011110000110
1111010011010100
1111101101111111
11010010010
10100110011
1111111100000101
11110010
1111111101100001
1111111011001100
1111101101101110
1111100101001010
1111010010101111
1110110011001011
1110110001110110
1110100100110110
1110111100000000
1111000010111110
1110111110010100
1110010110010110
1110011000101011
1110011110100010
1110011010010111
1110111010000000
1111011010100110
1111010011010110
1111001010001111
1110111001010001
1111000011000000
1111011111001101
1111100100110111
10000000111
1000100001
1111111100000110
1011110
1111111101001100
1111111100001010
101
11110011
111111111
101100010
1111101110010001
1111101010110110
1111101001110110
1111100000000100
1111010011001101
1111010011110110
1111000111001101
1111000111000010
1110100110011010
1111010011001001
1111010100010110
1111001001101011
1111001110011101
1111010011011001
1111111000110100
1111111011001010
1111111011011111
100011111
1111111100101110
1111111011101000
101001110
1111111101101000
