1111111111001101
1111111100110001
1111111011000010
1111111111111100
11000100
101011
1111111101010001
11110001
1111111100101001
1111111100011011
100011100
100010010
1111111101010001
1111111111010001
100011011
100101100
1111111110101011
1111111101011100
1100011
1111111011101001
1111111101000000
11000001
10011101
1111111110101000
1111111110101110
10010110
10110111
1111111010111111
1111111100100010
1111111011001111
0
1111111010100110
110110011
1011101001
11000010011
101001001111
100010110111
1010001000010
1000110000001
1001100011011
1001110111101
1001010110111
1111111111101010
100000111
1011110101
10010101100
100111110100
100000000101
110000011010
11111110110
10001000110
10111110111
11
1111111111110011
1111111111011001
100000
101
1011101
1111111101101000
100110010010
100111000100
11000001001
11100111111
101111011111
1010100001101
10001101111101
10000110100111
10011001000000
1110111111001
1110100000100
1010110001110
101110001100
10010011100
1111111110111100
10010110000
101011011111
11010000011
100011011001
10001001001
100001011110
100001010110
11100011100
1111111101001111
10010000
1111111011011001
1111111110111000
1111111000110111
101100010110
11110001100
111001110110
110011001001
110111000010
1100011111101
1100100001001
1001100010110
1011110011000
10011101100110
10111010001011
10011100101000
1011101100010
110111100100
10011100010
1111110000111010
1111101010110001
1001000010
10111100100
10011011100
100011100110
1100101001
1111111101111101
1111101111000101
101001101
1111111110000001
1111111100101000
10111110011
1111110111000110
1111101100000001
1111101101000110
1000010101
101111010110
111100011011
1010111000111
1011101010100
101101000101
1000000001000
1110010101110
10000001100100
1010101111001
1010110011101
1011001010110
100110111001
10011110000
1010100000
1111111111100100
1111101101110100
1111111110010010
1111011001001111
1111001101101111
1111011111111111
10001110011
1111111011010011
10111110
110000010000
1000000010
100011110
1110110110110011
1111001111000011
1111101101011111
1111111101000000
1101110001
10011010100
100010100110
1110000101
11100100110
110001100101
100101011110
1000000011000
11001100000
1111111100000100
1111101100101001
1111110100111110
1110111010
1111110011101101
1111111001000100
1111100100110110
1111011110101111
1111100011111001
10010001101
1111111100100111
101101110
1111010010100110
1111110101100001
10010000110
1111100000011111
1111101000110011
1111100100100110
1101100001
10010111011
101111011
1110101010
100010101001
100111001111
1111111110111110
1111110001100001
1111101000011011
1111011110001011
1111101001101101
1111110111100000
1111111100101100
1111111111001010
10101111000
101111101100
11111001100
10011010011
1111101111011001
1111111000000001
1111111101000100
1111100000010011
1111001111111111
1111100011101010
1000000
11000010
1111101010101101
1111110111101110
1111000001
111110100
1000010000
11010110011
1001101000
1001101100
1111111011110100
1111011100100010
1111100101010100
1111101111000101
1111110100110111
1111110111100110
1110111
1111111010101110
1111111001000001
10001101011
1111111001000011
1111111010001000
1111011110100011
10100010000
101001101000
1111110000110101
1111110000100001
1111111001111110
111011101
1111111100001001
1111101010001101
100010
1111101110110100
1111110010100001
101101
110001010
1111010001
111100011
111101110
1111111101101001
1111110101010111
1111110000011101
1111111001011111
1001101101
1111110111101101
1111111000001100
1101101000
11101001000
11000001011
1111111000001011
1111011101001001
1111111000111100
1101011010
1111001001111000
1010011001
1111101010001101
1111111001101010
1111111000111001
1111101111100101
1111111011010010
10111110
1010101001
11010001
101111100
1010001101
111011011
1101000011
10100011001
1100011010
1111110000101011
100101
1001010
1111110100101110
1001100
1111110100110011
11110101010
11100010010
110011101
1111100110001111
1111101000111111
1001010011
1111000101100011
1111111001001011
1000011110
1010101011
1111110001010101
1111111110101010
1111101110110101
10001000
10010101100
10111010000
1011000100
100101011
10001011111
11100110111
11111001110
100010011110
100100111000
1111110110000001
1111100101011010
1111110101101000
1111110001111111
1011101100
111010011
10010101011
1111010101110011
11000100011
1111100000110010
1111110111111111
11011110011
1111001100010011
11000010111
100101100
111001011
1111110010101011
1111101000110011
1110100100
11001100110
10010111111
100000111
110011
1111111101000000
10000011100
1011111010
10101010101
1111111001111110
1111100011001100
1111110001010111
1111100111101000
1111110001011101
1111110100001000
1111110100101000
1111111101110100
111
11001111110
1111010011001010
1111110000111011
11000111100
1111110011100110
111111100
110010001
1101011001
1111111010010011
1111111111010111
10011100101
1001110111
1111111001001101
1110110010
11011101011
110010010011
100000001110
1111111010011111
1111110001111000
1111101100111101
1111010000101010
1111101101111001
1111111001100001
1111111100001010
1111111100101111
1111111010101000
110101000
11100110100
1111110110111111
1111100010001110
1111001001
100000001100
1111101111011011
1111110110111110
1111101110100101
111010010
1111110010110111
1111101101110111
1111111011010110
1111101100011000
1111101010111001
11000100
100000011110
11100010000
100000110
1111101001011000
1111110110001111
1111110100110111
1111101111110100
1111111001110001
101101001
1111110001110000
1111111001000101
11100111
11100110100
10010011010
11000
100100111110
1000001011
1011101010
1111100110100000
1111101000101001
1111100000000000
1111110001001000
1111111101111010
1111100010000101
1111110001101001
1111001011110111
1111110001111111
10101
11011111010
11011111111
10001100000
11110111
1111111001011010
1111110101011001
1111110110101001
1111111110000110
1111110011111100
1111110000001001
1111111110000000
1111101110000000
10000110
1101011011
11011111000
10110000001
1111111011101011
1011010000
101011100011
11101010001
10101001000
1111010110011111
1111011000100000
1111011001110001
1111101011111001
1111110001000111
1111111001100110
111011100
1101001011
11110100010
11011001101
1111111000110010
1111101110010110
1111100100011101
1111101100010101
1111110111011000
1111011111111101
1111110000001011
1111101100010010
1111011101010001
10010011111
101100101110
1111101110101111
1010101100
1111101011010101
1010010110
1011010100
100110101110
1100010
1111001010011000
1111011110100101
1111010001010110
1111011100110001
1111111000001001
1111111111000110
1100001111
1010101011
11000101100
100001001010
1001000110
1111110010111000
1111100001101111
1111011011001000
1111111000010111
1111111001111001
1111111010111100
11010000
1111110010101011
1111110111001010
110010011000
10011011
11100010100
1111111010110110
1111100101000011
1110010101
11110011110
11100001101
1111111101100101
1111110110100110
1111101100010010
1111110101000000
1111111000100001
1111110101111011
1010010110
10010110000
11000011100
1011100110
1111111110101111
1111101110010111
1111100110010011
1111010111101001
1111110100011010
110100100
110011101
10010100000
11001110000
10000000111
10001000111
1111110111010100
101011001111
1111010000111001
1111101001001011
1111100000101001
11010101110
11100010010
10101001001
1111111001010010
1111111001110001
100111011111
11101010101
1011100101
1010000101
110011000010
10100010011
1111110101100110
1111110000101001
1111101100001110
1111100101111010
1111101011000010
1111110010011111
1011110011
101000101
1110110001
100100010
110011100000
101100000101
1111110110011111
1001100111
1111111111001101
1111110011101110
1111010000100010
10101100111
101101101100
111110011110
101110110010
1001110001
10000111
10011111111
100101010010
1001000010
10011100000
10100000
1111110000111111
1111111011110111
1111110110000100
1111110010100101
1111110101111110
1111100010011000
111001000
1100001011
11110111000
1111110010010001
1011100001
1111111011110011
110000101001
1100011110
1111111111101000
10111100000
1111100100101011
1110000
1010100000100
1111001011011
1110011011101
1001010110101
11110111010
100000101100
110000011101
11111111011
1011010000
1111110000101000
1111110011001011
10101010100
1111101001001101
1111100101000110
110000000
11000001001
110111001010
110011000001
11100011011
1111101100010100
1111011101100011
1111111001001010
110001011111
1111111111111110
1111111010111110
1111101010001110
11010010
10001101101
10011011000
1111000100
1001010101000
100111111011
111111110010
1001110001110
110011110110
11011110110
10100101000
10111011010
10010001101
10001100101
1111111000110101
1110111100
110000010100
110001101010
10111111111
10110000010
10101010000
10101100110
1111000011100101
1111111110100001
110000100111
11
1110100
111
1111101111000010
10001110011
1111011101111011
10101001100
1010001000
1010011110
10110100010
11011100010
10000001111
1100010011
1011100001
100001110111
1011111111
11001100100
1011001111
11100011011
100111111101
101001101100
10111100
100010011010
11010110110
101101111
1111011010001000
1111110000000010
111100111101
1111111111001010
1111111100100010
1111111011011101
110100000
11111010011
1111111001110100
11111101111
1011110
1111101001101011
1111110
1011000101
101010111
100011100000
101001110101
100001000011
100000000000
10011011001
11001110110
11100101101
111001011001
110110110111
10000001011
10100101110
1100001111
11111101011
1111100101001000
100010000
111000001100
101001111
1111111111010010
100110
1111100101100100
1111110100101001
1111101100011100
1111111111010100
1100100100
1111101001110101
1111101100001100
1111111100101000
11110010
11110011011
101001001110
11000100110
101001010101
1111011011
100001101011
10100011000
110110100101
101111011011
1111110110
1111111100110011
111101101001
1111101111
100000100110
101011001100
10111100
1111111111111011
100101100
1111111111101011
1111101011100111
10001010101
1111111110011100
1111111110000001
11111110000
101110111000
1011000110
1111101101001100
101001111
10000111010
1101011011
10101001111
1111101111110110
101100001
1111111110110001
111011101
10101011001
10011011001
1001010011
1111111101110001
10100100011
101100111111
10111101010
1111110010110000
10101101
1101111
10111101
100101110
11101000
1111100101001001
1110111100110111
1110110110011101
1110110000011110
1111101110000110
1111100011001000
1110110110110100
1111011011111101
1111110110100010
1001101111
1111101001000011
1111001100010001
1111010011000100
1111010001001111
1111010110011110
1111101011000010
1111101101110010
1111011000001011
1111000110111111
1111011011101011
1111001101100010
1111101110000001
10010001101
1111111100111111
1101110
1010101
110101
1111111110000100
1111111101010010
100101010000
110010101010
1111101100101011
1111111011001111
1111111010001100
1111100111111101
1111010011001110
1111100101000000
1111011010011010
1111010001111101
1110111000110010
1110111000110010
1110100101001101
1110001110010000
1110101110110001
1111010000111000
1111100010010000
1111011000111000
1111100010101010
1111011001
100010010
10100000
1111111110001101
10000101
