1111111101111000
1111111111110011
1101111
1110001
11000111
1111111111100101
1111111110101100
101010001
10100110
1111111011100111
1111111101001111
1110011
1111111010110101
101010100
1001110110
11000011
1111111100010011
101001011
1111111111001111
1111111010111100
1111111101110110
10101110
10110110
1111111101011010
110101
11000111
1111111111110001
1111111101011001
1111111110001001
1000100
10011100
100111001
10101
101011010
1010110101
111010000
101000110
1111111110100100
10101110001
11011001010
11110010010
111011111
1111011111001111
10000100100
101101010010
11110011010
1111100111000010
1111111100101100
10111100101
1111111011111010
1000110111
10101100000
101010
110000
1111111110100111
10100101
1111111110000001
10010111
1111111101001100
11100011100
100010110101
1111011011011001
1111101011011111
1001001001
101011101
1111111111110010
1111111010111100
1000110110
11100100111
11001000100
1111101111101101
100001000
11100100010
110010001
1000011100
1111110110100101
1111111011101000
1111110111110110
1011011110
100100100001
11110001100
100100010001
1111101
101010
1111111111010011
1111111010101001
1100110100
100101100111
11100110111
1111011101100000
1111101001010101
1111111111001010
100100101010
1111110100110100
1111011001101010
1111101011001001
1111111101111011
11000100011
100001101111
101011000100
110000011110
100001010001
100110001000
11111111101
11011110101
1111110111110110
1111011100110111
1111110010001001
110000001101
100011110010
1001011101
100100010
1111111101011011
1111111000000001
10011000
10110001000
10000110
1111101010011011
1111110000110110
10000100111
1010010001
1111100010101101
1111101100001001
1111111111010101
1111011010110011
1111111001010101
1111110011100110
1111111101
10110001011
1111111000011000
101001001
10111001111
100011000
1111111000100110
1001011101
11101111101
1110111100
100100011
100010111001
1111100111101011
101001111
1111111011101101
10110001011
1011001001
1100001100
1111101010001100
1111110100100001
1111101000000111
1111011001000010
1111100001111101
1111111011101000
1111101010010100
1111000110110000
1111001111010100
1111000110001101
1111101110010101
1111110111101001
1111110000011100
1111111011011110
10010100000
11000001010
100010010001
1111111101110001
100010110100
1101100011
11011010
0
1111101010000111
101111
10001000001
100101111
1111100001100000
10011100
1111011010111010
110101001
1111011110010110
1111101100010011
1111110101011100
101011
1111101101111011
1111011000100010
1111101011000010
1111111100111101
1111101011110010
1111101011011011
1111111000011010
1010101001
1000111010
1011110001
100101011
11111011010
1110111010
1111110100010000
1011001100
1111111101111101
1111111001111000
1111111100110101
11110101000
1111101111010010
1111100100111110
1111110010010001
1111101000100110
1111110001110011
1111111110010110
1110101111
1011110010
1111111000001010
1111111111101000
1111111111100100
101
100010101111
1011111001
1010000001
1011010010
100110001
1001010100
10101011
1111111000011001
1111110011111110
1111111011110010
111010101
11111001101
10001000111
10001101010
100010011111
101010101110
1110111101
11001110000
100011101
11001111001
1111111001000110
1111111110011100
11011110000
10000011110
1000010001
1111110110011100
1111110110111100
1111101111001000
1001110010
11100111010
101100101100
10101010101
1101101000
1111111011001111
1001001111
1111111111111011
1111111001110111
1111101011011000
1111110001111101
10010111111
1111110101101000
100100100010
100011011
11111000011
101101100101
11010111110
1101111100
10110110101
11000110100
11001101110
111001101101
11010110101
1111111000100100
1111101111010011
1111010000110011
1111001000001001
1111101111011010
11011010111
111101100001
100011110000
1100110011
1010101001
10111001011
1011111001
11101000
10010111110
1000010000
11011001010
10110110010
1111111100110001
1100100
11000001010
10110011001
10111100010
110000100
1100101111
100001111
10111000
1011011010
1111100000011011
1111011110110101
1111001101111111
1110101100100111
1110110001000110
1111101100100111
11010000001
110011010000
101001101000
101111101
100111110
10001010000
10100110111
1101011000
100001111010
1010010111
101111011101
110010110101
11000110100
111
100011011010
1111100100001001
1111101011110010
1111000000101110
1110111100100011
1111001000000110
1110111000001110
1110100111111010
1110011000101110
1110100110000001
1110111001111100
1110111010101110
1111010010010001
10100010
10100110010
1010001100
1111111010010011
1111111011011110
110011111
10010111
10000100100
1100100010
100001001101
1111100101110000
1111110100011000
1111111010001100
1100011101
11110001
1101010110
1111110110001010
1111000101011001
1110001111100011
1110011100110111
1110010111000111
1110011010111111
1110100101100101
1110011011101010
1111000010110101
1111010011101011
1111111010010010
100100010
10110000100
111100010
1111111111101111
1111101100010001
1111101101101011
1111101010100100
1111011101111100
1111101100100001
1111111010110000
1111101100010000
1111001001000010
1111110010000101
1111111001111010
1111111011011110
1111111001110100
101000011
1111111100001010
1111010011000100
1111101010110110
1111010000111110
1111001110010011
1111011001100010
1111011001110001
1111010011011110
1111101101111110
111111111
11001100000
10101001111
10101111100
1111011111111110
1111011011010101
1111110011100011
1111110111111001
1111110101101110
1111101111001100
1111110101101000
1111110000100111
100100100010
1011
11011011
1111111110000111
11001010
1111110000100111
1111100111111101
1111101010100100
1111111000110000
1111111010110011
1111110111101110
1111111001100110
11010101011
1001100
1011101111
1111100101
101000101000
101011001000
10001110000
1001000101
1111100101101110
1111110001010101
111110011
10101100001
1111110110110111
1111110111000100
1101101011
1111111010010001
1111101010000000
1111111111110111
1111110100111101
1111111100100000
11111001100
1111110000101110
1111001010
10000111110
1111100111010011
10010101011
11100101010
100101101111
11000100010
11001100011
10010111101
1101101010
10010110101
11100010000
11001100111
1111101110110000
1111110110101110
110100001
100100011
1001000010
101111010
1111110000001101
1111110111010011
1111110111110101
1111110011110000
1001001
11110
1100000010
100110000110
1111111100010110
11110000011
1010101110
11110111
10101110011
11110100100
101110001000
101011011011
11011000111
100001000001
101000011
10000111111
111000010
1011111111
1111110101010000
1111111110110011
1111111001011001
11001100100
1001001101
1100011011
1111110011111100
1111111011010000
1111110100101010
1111111001101110
1111100110111000
1111111111111101
1001011101
101111010010
1111111110100101
100100000110
1111110011001001
1000011101
10010110000
111001100110
111000100000
111000010011
101010010110
110000010
1111101100110100
1111101000100001
1111100111001000
1111101101101010
1111101110001001
1111110101010001
110101111
1110101001
1111111001011100
10110101
1111110011010001
1111011101101100
1111101100111010
1111011001010011
1111000000100000
1111001011011000
1111101100110101
101111110010
1100101110
1100000110
1111110010111010
1111111010100100
100001011001
11011100001
11011010
11010000001
100001100001
1111111011001010
1111011110000011
1111011011110011
1111110001110001
1111111101000111
1111110001111101
1111111000111110
1010000001
100101111
100111001
1111111010001111
1111111000010010
1111110110111111
1111111010011101
1111000110110011
1111100000001010
1111111000011001
1111101010110000
10110100000
1111110111010110
101110101100
1111111011010111
11100100111
10000110010
1111111000100000
1011110010
111101000
1100010010
1111111010101111
1111100000000110
1111110011111101
1111111111101010
11001101100
1111111111001111
1111110101001001
1111100110111010
111101101
110011011
1111111110010001
1111110100100111
1111101101111101
100101101
1111011111101110
1111100011111111
1111101010111001
110000011
1001011010
1011100
10111010110
1111110110101101
1000000000111
100100111001
11011001
1110100111
1100100101
1111111011100011
100100010
1111111110110101
10011001011
10001100011
1011010010
1111110111111011
1111110011001111
1111110110010100
111110111
1110011010
1111101111110010
1111111000010011
110101000
10010011110
1111110011111011
1111101111000001
10001101011
11111010110
1111110100011001
10100101
1111111111000101
1000100001100
110110100110
1110101101
11111111110
1000010101
1101010100
11001100
111001011
11010101
1111111000001001
1111111011101101
11110101
1111111110000110
100000010
1010000
10010110100
11001011001
1111110011100111
11001000100
10110010001
11010111111
10011011101
110000101
1111110101101010
101100000100
1111111111011100
110101111
1100001000
110010011000
111110111
100000001000
1101001001
10001111000
1001111010
111000101
10111000000
111111100
1111111111111111
1111111010101011
1111110110100011
1111101110011001
1010100000
10100100011
1000100100
1111110010010110
1001111010
1011101
1010101
1111100001
1111111001110000
1111011110110000
1111111010011010
11011110001
1111111101001100
1111111011010000
11110000
111000010000
1111111001111101
1111111110111010
1101101101
1111110111011001
10110110
1111111100110110
10111011101
11000101000
1011010000
1111111111100000
1111111100010001
1000010
1011101110
11111001
101000
1111100001110011
1111100101001100
1111010010111111
1111010001010110
1111101111110110
1010111100
1100110
1111111001110001
101000100111
1111111101000100
1111111011001111
1111111101000001
1111110111000001
110111111110
1111110001101000
1111101111001110
1000111101
1111111100011001
101101011
11011011
1111111011111001
1000001111
11111111
1000101
11111000
1111110100111011
1111100110101010
110101010
1111101010110011
1111101101100101
1111101101110010
1111010010010010
1111010110010101
1111100111101101
11101
10011100010
1001101000
10011110
1111111101001100
1111111101100001
1110101110
10110110
100011100100
1111110010000111
1111111100110101
1111111011111010
1111111101000101
1100001001
1001111
1111111111010111
10101001011
10000010111
1010100011
10100011100
1111111010101010
1111110101011111
100010100
1111111100111000
1111111100111000
1111011100111110
1111100011011110
1111111011001001
10101111001
1111111101111010
111010011
11110100
1101001
1111111010111001
10100110
110110011
1111001010001101
1110110101011011
1110100101100001
1111011010011101
1111111001010010
1111110111011001
100001011011
10001101101
1111111101001001
1101011111
10001100100
100010010101
100110111000
10000001010
1100110110
1111101110010111
1111111100110010
1111101101010101
1111101001111010
11110010100
1100110001
1101010110
1111111011111100
100001011
1111111110100110
1111111100101100
101011
1111111111111011
1011111101
1111111111011000
1111100001110010
1111101011101000
1111011100010000
1111000101110100
1111101101100101
1111110101010010
1111010100110110
1111010010111011
111011010
10010010010
1111000000000000
1100000111
101000101
1111010101111101
1111010110100101
1111010001000100
1111011000111010
1101010001
1111111100011100
1111111011110101
100001111
1111111100100111
