100110111
1111111011110101
11101
101111
1111111100110110
1111111110011110
11001010
11101011
10101011
1011001
10100100
10100111
111000001
1011100
110100010
1111111011000011
110101
10001001
1111111111000001
1111111110000001
1001100
1111111100011001
100001010
1101
1111111100110010
1111111111110110
1111101
10101010
1000001
1111111110101000
1111111110010011
10110101
1001011010
1001100011
10100101000
11101111111
11101010110
110101100001
11100000001
11100101111
101110110101
111001000
1111100011111001
1111100111011001
1111110000111111
1010011000
1111111100111110
1111111000110100
1111111101100110
100000000
1001101110
1000111000
1111111010111111
10011011
100000001
1101100
10
10011100
1111111111100110
1100000100
1111110101011011
111110011
1011111111
101101111110
1010111110011
110111101001
1001101110000
1101111011011
111010001011
11100001000
1101011001
1010011100
10110001010
101110010100
11001110011
111000001010
101011110111
110011011001
1000111001111
101100000010
1000001001
1111101101010100
10100100
10110
1011100
100101010
1111100011011001
1111111111100101
100101110
1001000110111
110010110010
111101111001
110110101110
110010010110
111010100001
1001100101011
1000011011100
1000101100001
100101001011
100110101011
110110101100
110111011110
101101101110
10010110011
1111100100111101
1111100001000101
1111111010010011
10110100
11100110101
1111111011011000
11000100001
11000001
101001101
1111110111101001
1111111001100101
1111101000011110
11111000001
11011010000
11000100
100010100010
110101001010
11101001011
111110001010
110110100000
110000011011
10001011110
1001010110
100101100
100110000010
1111111100011000
11001010
1111110001100111
1111101000100100
1111100101110111
1111101100010100
100001111
10001111110
10000111001
11000111010
101000101111
1000000
100111010
100000100100
1111110111110111
1001010101101
1111010101100111
10100101110
10110101011
1111110010110010
110011110
1010101110
1111111000000111
101100101
1111111011111110
1100001
11010111
10100111011
1111111010000111
11001110
1111111111000101
11101101
11011010110
11110111000
11110100110
11101101101
11011100010
10111010110
100011101101
110010
11000001001
1111111001100000
111011100
1010101010
1111101100110010
110000001
1111111011110011
1111111110110110
1111111110101111
1111101110101011
1111111111110011
1101000110
11010000
11001101
1010101001
1111101110000000
1111001110100100
1111100110111100
1111111001011000
1111011001
110111
1011000110
100001100000
11011000111
11001111000
1000010
101111011
1111110101100101
100010
1111100011011111
1111101001100010
1111111011010110
100010011
1111110110100000
10110001101
1011000100
10000111
1111110100111101
101010011
1111111111010101
1111111001000011
1110001111
1111111011100100
1111101011000011
1111011010010011
1111101010011010
1111101100111101
1111111101101011
11100110100
10001100001
1111111010000011
1111111100010110
10010111
1111111011111100
10110100101
1111110000101011
1111101001000101
1111101000111110
1111111001110110
111000011
1111110110010000
1111111010011001
110101100
1111110111100011
1111110111111000
1111111100001101
1000000001
1110011111
10011111110
111110000
1111110100010000
1111101100011110
1111101100000011
1111110101110011
10011001101
111101010
1111111110110111
1100011010
1100001111
1111111011110010
1111111011000111
1101001110
100000111
1111111111100110
1111001101010111
10000000000
1111110100110101
1111111100111011
1111111110110111
11010000
100101110
10110100
10000011
1111111000010000
100110100
1010110011
10000000101
1111101101111100
1111101100001100
1111101001111000
1111111000011110
11001010
1011001001
1111111010110110
1111110111110010
1111101101110111
1011110111
100000001010
110100111011
1011110010
1111010101101101
1111111110110101
1111010111100011
1111111110110010
1111011101000101
1111111011110110
1111111000011100
1011101110
1111111010011010
10100
1111111000101011
1111111100000110
1111111100101001
1111010010
11000011111
11100100
1111101000110000
1111100110011001
110
1101100101
1000111101
1110110001
1111101011010111
1111110110110011
10011000110
111101001101
10000101100
110001101111
1111001011101011
1111101010001111
1111111110110001
1111010101110110
10011110
100110000
1111100110111000
1111101110000001
1111110010010100
1111110000101110
1111101100000111
1111101110111101
1111111111001011
1110011110
11100100110
11011101011
1111101111111010
1111011111000001
1111011100010110
110110111
1011011
1111100011100111
1111101110100101
1111010001001010
1111100001000111
11100110000
10011100010
100101110101
1111101001110101
1111101111101000
1111101110111010
1111111000001011
10010011110
1111011110100000
1111010101010111
1111101101100100
10000000010
1111111100010111
1111111101100101
1111111101000110
10011111101
11110100001
100000110011
10110000010
1111110010101000
1111010010110001
1111010111100111
1111010100110100
1111010110011111
1111000000100000
1110111111011010
1110100111011011
1111001011100001
1111101110000010
111001100011
110001001010
1111111111110010
11000011101
10100110110
1111011100001010
100010111011
1111011011101011
1111011100000111
1111010000010000
1111111001001101
10111101111
111000010
1111011111001011
1111101110000011
101101100
10010001
1111111101110011
1111110110000110
1111100001011010
1111010000000011
1111010101100011
1111001100111111
1111000111011001
1111011010000011
1111010000100011
1111011001101101
1111111011110010
101000010010
100010111011
100111110001
10100001100
110011101
1111110100111001
101001000010
1111110110110010
1111100101010011
1111111111010100
1111111100010001
10111100100
1111110000000010
1111101000111001
1111110111000010
1111111111010001
1100000101
101110100
1111110100000101
1111111000010100
1111100010010001
1111010100110110
1111010000001100
1111011011001000
1001111011
1111010010110000
1111011111111100
1111100111110011
100001011
1111100001100010
1100100
1111110010100110
1001101100
101010010000
1111101100101011
1010111
1111101101010011
110001011
1011001101
100110010
11100
1111111100010111
1111101101001111
1101110000
11111100111
11111101111
1111101101001111
1111111000000101
1111100100101011
1111001011000110
1111100110010110
1111101011010001
10010100110
1111010110101101
10111100
10110011111
1111110111110101
1111101010011111
1010010010
1111100011001100
11110001001
110101000111
1111100101100000
1111110100110100
10001101
1111100100011100
100001110
1100110011
1001000101
1111111101001111
1111111110100110
10011110
11101111001
11000110010
1001011010
1111101001110100
1111100011111100
1111010111111110
1111111001101001
1111100001111001
1111110001111100
1111101110101011
1000011001
1110011000
1000000001
1111101110011001
1111110100011100
1111111111111000
11001000100
11101000101
1111101111101011
1111100000111111
11110100110
1111101000000110
1111101100100001
1111101111011010
1111110110010100
1111101111101101
1111111010001000
1111101111001110
1111111010010000
1111111111010110
1111111000000000
1111100101100111
1111100101110101
1111101001010011
1111111101110110
1111110100010110
1111111010001000
1100110111
11110000
1111101111100011
1111010110101111
1111011001010010
11101000000
1111011000111001
1111111110100010
1010011011
11111000110
11011111
100100010
1111101001010100
1111101101111111
1111111100110110
1111110100011100
1111001001110010
1111001010101110
1111110100111111
1111101000011001
1111011000001011
1111110011111110
1111101011001100
1111100101001011
1111100111011000
1111110111010111
101111111
1111111000010100
1111101111111100
10011100111
101010011
1111110001100010
1111010010011000
11011011001
1100000100
1111011101001101
1111100111100001
11101011110
1001011110
1111110101001011
100000101
1111101110100111
1011111001
1001111001
1111101010111111
1111001100011100
1111011101011111
1111110010000011
1111101011010010
10011111111
11011000
11010111001
10101101010
1111111101000010
101001
1001100101
1111111110101000
110010011100
1010010100
1100010100
1111110110110100
1011110101
1111111100110010
1111110100100000
11011111
101011010101
1000101011
1111101111000100
11001101111
11110010010
100111001001
100111110001
10011111001
1000101100
110111011
10111000110
10110000101
110101001000
100101111000
110101010101
111011010000
1000100111
101100101111
110010000001
11110101010
110000011001
1111111010011001
100000001000
1111111100110111
1111101111111100
100000101
10110100010
1110110001
100011110000
110111100
1111101110101001
1111110001110010
100100101011
10100110111
11111010000
10110011101
101100000001
101010011101
101001000110
101010011111
100010101100
11011100011
1001001101011
1000101100010
100001100010
101100000110
100010110010
110110100011
1000101110011
10000
100011010100
110100100100
1111100101100001
1000011101
1111111110100000
1101100
1111111110110011
10111111
100011011
1111101111100110
110000001
11001001
1111111110011001
10100100011
101111111100
11010010101
1111100110
1111111110111101
100101000
11001100000
101110000000
110001100000
110100110110
100010011111
110001101110
101011001011
100011101111
1100110100
101100101
100011010101
1111100001110011
111
10110001
110010001011
111111001101
11001010110
11001010000
10101011101
1100010001
101101111
1111110110001100
1111111111110010
110011111
1111111110111011
1001100010
1010011111
10001111001
10110000000
101010111101
101010101101
100111110110
10100011001
10110100011
101101001110
101101110101
1001000010
10110010001
11111111101
1111111101101100
101001
1111111111010100
1111101010101010
11001100001
1111110101000111
111101111
110010
10011000001
101001110111
1101111110
1111111101001011
10001001111
100011000000
1011100110
101101000111
10101100001
11000001100
1101111100
11111001110
100001010011
1111111101011111
1111110100100001
11110111100
1111111101110110
10100111001
11010101000
1111111001101011
1111111111100001
1111111100110000
11100001
10011111110
1000101110
101100010
10110001100
1011101111
1010100001
101000101011
100000110100
1010001110
1111111101000111
10000100101
11010010010
1011011111
10000010001
1111111101010101
1111110110011010
10001101001
10101101110
1111111001100101
111
1001111101
110100111000
101010000001
1111111011101011
110100011
1111111010110111
1111111111011110
1111111101010001
11100000
1111101000101110
1111101010110010
1111010100100101
1110110101100000
1111111010000001
1111101000000100
1111000000101110
1111111100011010
1111110010000000
1111110001000011
1111101010111101
1111001010011000
1111110010111011
1000010101
1001101001
101101
11101100100
11010100
1111111001111100
1111111011111010
1111010011100111
1111101001011010
1011010001
1111111011111111
10100100
1111111010100111
1111111110101010
1010101
1001010
1111111110100101
110100100
1111101111100111
1111110100111100
1111101101101101
1111001110111001
1111010101000100
1111101111111000
1111100011100000
1110110000010101
1110011111110011
1110101110000111
1110010011110101
1101110001000101
1110100010011011
1110110011101110
1111010110010000
1111011101010001
1111110010011011
1011000111
101011100
11111
11010100
10001001
