1111111110111011
1111111110111111
1111111101110011
1111111100011001
1011110
1111111100000010
1111111110100010
10100110
1111111111110010
100101111
1111111110111001
101011100
1000101111
1111110110101010
1111110111010110
1011011
1111111011111010
10101101
10110
1111111011110001
1001111
1111111101110001
1111111101111100
1111111110011100
11111101
1111111011101011
1010011
11100011
1111111110011110
1111111101111100
1111111010100001
11101000
111111111
10000001
1111110001011101
110101010
1100101001
110001111000
110000110100
101111111110
111100110100
1000001110010
1010001001
1111100110010101
1111011111111001
1100101101
10100101000
10011011111
1100001
11100010101
1111101110000100
1111101111101011
1
1001011
11000100
1111111111010001
101000111
11010111
1111111110101001
1111101010011010
1111110101100001
100011000100
10100111110
111001101000
1111110110011011
1111011011100111
1111101110001001
110010000
1111101101000000
1111101000011100
1111101110110000
1111101000111010
1111110010010011
10000110010
1010111110
101100
101100
1110101000
110101011111
1001000101
1111011101111101
1111011001111001
100011011
1111111101010000
1111111100101011
10000001
1111101100110101
1111101001110010
101010011000
100111111100
1111111000010000
10010010100
1111100000110000
1111000101101100
1111010011100111
1111010101001110
1111100010101000
1111001110011110
1111101011100101
1111110101110000
1111110101101100
1111101111000110
110111010
10101001111
1111000001
10
1111111011110011
1111110100011101
1111011111111111
1111000111101000
1111100000011100
1111111010111111
100010011
1100110000
1111101110101011
1100111000
1100011111
11110010
100011
1111110111110111
1111011010111111
1111001101001111
1110111010001101
1111011001100011
1111100011001111
1111101100001011
1111110001101001
1111101101101111
1111011100110100
1111110110010111
11010110
1111111010111111
1111110100011001
1001101101
1111100011111111
100010111
11011010111
1111111111011100
110111011
10100001100
1111111100111011
10111
1111111110010111
1111101011011100
110010000
100011101
110000100
1111110010000011
1101010
1010010
1111111111010010
1111110000011011
1111101111000101
1111101011100010
1111110001110101
1111101111000101
1111101110100100
11001001
1110101100
1101011000
1111101011110101
1111100010000011
11111111
1111101100010110
1111101010011010
1111111101101100
1011110001
11000111111
100010010
1111101101100101
10011000100
1111111010
1110010101
11101011100
1110001
11101000001
10010110010
10101111100
101111100
1111111100000100
1111110111001011
1111110001110010
110111011
11000011001
10100111110
1001111011
1111110011110011
1111111111110111
10
11110100100
1010100011
1111011101110001
1111101100011110
1111111110011111
1111101110110100
1111100010110110
11000001
1111100000010011
10111110100
101100100011
100100110110
1111110110
1011101010
10001101000
1000101001
111101010
100011000
1111110111011110
1011011010
10000000111
1101001111
11100101010
100100010001
10001110110
1111111010101000
1111110101110000
1100010010
1000011111
1111111011000010
1111101010111110
1101100101
100111000
1111101000111110
1111100010011111
1111110011100111
1111100111000001
101111110010
100100110011
10101101000
1100101011
1111111000011010
1111111011011001
1111111010011101
1111101000100111
1111010111010101
1111100011101010
1111100011000110
1111111010111101
10000100001
1001001111
10000101101
1111111001001100
1111101010001101
1111110100111110
10011111111
1010011000
1111101100011010
11000101111
100011101010
11000000001
1111101100001000
1111111110011010
10001001
1111100011110101
10111010001
111111011010
1001111110
1111110000011000
1111110110111010
1111100100111011
1111100100011001
1111100100110111
1111111010110011
1111110010100110
1001011000
111011110100
110010010100
11111000
1111111010100001
100111100
1111101101000110
11
1110011001
1001111111
1011
1001011111
111100111010
0
1111101110010011
10110110100
1111111110010111
1111100110110011
11001101001
1010001010111
110101011
100100010000
110110011001
11101111000
1111011011
1010000101110
1010010100111
1000111000110
1101011011000
10010111100100
1100000010010
101101001100
100011100
1111111100010100
11010000
10010001111
101101111
111111101
110010100
100011011100
1010010000010
1011000000
1111100011110101
1111011011000000
1111111100001000
1111100000010000
101010000101
1010000110001
111000001100
1100011101110
10010011110100
10100010101101
11010010100101
11100000110110
11110001110001
10110110100011
10001100010011
1101001010110
1001011100000
1100011011
1000101100
1101101110
10100001001
1000111011
11010100
101111110
110101011
1111111011110111
10100001101
1111100001010010
11110100101
10100011111
101001001
100100001001
11111011000
1010110101100
1101111110010
10101110010110
11001111001001
11000011111100
10011111010100
10000110000000
1101000011000
101111010011
1011010000
100100101011
10011011100
110111101
1011101111
101000110010
100010101100
101010101
101100011
1010011110
1110111
100010011100
1111110101001100
1111000000111101
1111100110001000
101010011110
101
11110010001
110010110
10101011011
11001101101
111011011001
1000001000011
10110110110
1001010001
1111111001010010
1111101001001001
1111011001011111
1111010110101101
1111101000111001
1111111010001010
10100001101
1111111111
10000101100
10101110010
10000010100
1111110111100110
1111101110101010
1111111110111000
1111111110110010
1111111011101001
1111010011111110
1111101100010100
1111001011
110011110
11101011011
10001100001
1111011110000111
1111010001111010
1001111
1111110010001100
1111001110111000
1111001110100100
1110110001100001
1111001111111100
1111011011001010
1111011111001111
1111011011001100
1111100001101101
1111111001101100
1111110111100010
10111001000
1110110010
1001010000
1111111000101000
1111100000001111
1111110110000111
100111100000
10101100
1111110001000111
10110110
1111010100000100
11011011
1111101110011001
1111101111111111
1111010110000101
1111100000011100
1111100011111010
1111101000001110
1111101011111011
1111010111011100
1111010011110110
1111101110001100
1111110101010101
1011001
1111010111000100
1111110000000111
1101100
1011110010
11101000100
100000100101
1000100010
1111111111000101
1111110010101010
101010110
1111111011100100
1111100110110101
1111100000101000
1111101010010011
1111001111110000
10000010
1111011111101011
1111011001111111
1111010110100010
1111111010011110
1111101
1111110011011000
1111110010001001
1111110000111001
1111101110011000
1111110001011010
1111111011001100
11011011
1111100000111101
1111100101111111
1111110110011010
100000011
1111111111111011
100001001
1111110101100111
1111111001001000
1111111010000000
1111100101110100
1111100000001100
1111100010110111
1111100110011111
1111110101000101
1111000101110000
1011111
1111110111111101
1111010010001010
10000001
101101011
1111101110011010
1111101100010010
11100110
1111111101100100
1101111001
10001001
11001000
1111111001001110
1111110010100101
1111111000010010
1111111111101000
11010110
11000100
1111111110111000
1111110101000101
1111101111100011
1111101100110011
1111100110001110
1111100110110000
1111100000011000
10011010000
1011101111
1110111100001101
1111110100001011
11001011
1111110010100001
11000
1101100100
1111111111011101
1111110110111100
1011111111
1111110010100000
1111111100111010
10010110
1010001011
1111111101111100
1100100110
1111110110101110
1100110101
111001010
100000010000
10011010001
10101111
1111101101000000
1111101101110101
1111100110010001
1111111110110101
1111101011100001
1111101011111100
10010111111
1111001001101011
1111111111101111
1001010100
11110111000
10001000101
1100100101
100100011101
111010111
101010101
1000001
1101100
1111111100
10110100110
10001110000
1111111101010001
101010101
1111111010011000
1111111100101111
11101100
10101110
100111011
1111101001000110
1111101011010101
1111101101111011
1111100000010110
10001001
1111101111001111
1110111000000000
10010011011
1111111011100011
111110110
11110001010
1111110010010101
1111110111011000
10000111101
1111101000110001
100000
1111100011010110
1111110101110011
1111110111100111
1111110110100010
1010111101
1101111011
1111101111110011
1111111001000111
101001101
11010100010
1111101101011101
1111110100110011
10010
1010001
1111101000000101
1111101111011010
1111110011100100
1111110010000000
1111011001010111
11101110000
1111110011111011
10000100011
11000000
1111111010010000
1011100011
100100011
10110000
1111110001000101
1111101010111000
1111101100001001
1111110001010010
1100001010
10100011011
1101101
111001011
1110010100
10100111101
1101010100
1111101001100001
1111100101100011
1111111100011101
111100000
1111100001011000
1111010110000101
1111111000111100
1111111110011011
1111110110101110
111000110
1111110110010010
1110000
1111110100000000
110001111
100111011000
1111111010011011
1111111111101111
1111110111010101
1111100000111000
1111110000110111
10101001
11100001110
11011011001
1100111101
100010001
1010110110
1111111011110010
1111101011010011
1111110001001010
1111110001101111
1111101110100011
1111111010000000
1111100010101111
10000100
1111101111111110
1111110101101100
1110010010
1010110101
1111111111111000
110100
11000111111
1001011011
10011101010
1111010100111010
111000
1111100111010010
1111100011110100
1111110011010111
1010011000
100111100111
11011100001
100001011011
100011010111
10111000100
1111110001010010
1111101101100011
1111110100111000
1111111101101010
100010100
11010111
1111100000001001
1001100
1111110101011000
1111111110111101
100001110
11000110
1110010
10010111
10110011101
100111111110
11011110011
111110000
1011001101
1111101101011001
1111010111101000
1111100001011110
1111100111100110
1111111110100110
1111111100000010
100000111011
100011110001
11010101111
10000010101
1111101000001100
1111110010100011
1111110001000010
1111100111011011
1000011101
1111110001011100
1100110011
100110110
1111101000101011
1111101011001000
1111111101100110
1111111100000110
1111111110001000
1111001100
101011011111
1111111011000110
1111110111001010
1111111111101101
10110011111
100100111000
1111110101111010
1111011011000000
1111010101100000
11110000
100101110000
110001000011
100101111100
111001001010
10101011110
110001010
10111001100
1111111000111010
1111011011001100
1111100010110111
110100100100
100111111110
1111110011000010
1111110100011101
10000011
100000011
1111111101001101
100011001
1111111011101110
100101101100
11001001011
10111100100
1111111000000111
1111110101001000
1111110111101111
1111100110110110
1111110110010011
11001010000
11000010001
101011101110
1100110001
1111111001100011
1111110011111001
1111100110111000
111010101
10001000110
10010100001
100011001110
1111011000
110010010
11000100
1111111111100010
100010100
100100011
100001000
11010110
101001
1111111011111110
1111111110011111
101100101
1001011
111000110
10011111
1111100100010101
1111101110001001
1001000011
10001110101
1101100010
10010001001
1010100111
101011001
1111111010111101
10000010100
1110010001
10100000101
100001100010
1101000
100001000
11001110
1111111100011100
1111111101010000
