11100100
11111000
1000110
1111111110110111
11011
101
1111111010110000
1111111110010010
1111111110111100
1111111100010001
1111111111011101
10000100
1111110110010001
11
1011100001
1111111110011001
1111111111111011
100110011
100000
1111111011110100
1111111100110011
1111111010110111
100001111
10000
1111111111000101
1111111110111011
1111111100110011
101000111
1111111011010001
11011110
11100101
10111011
1010110
1010000111
1100010101
10000110
1111110101110011
1111011001001100
1111000111001010
1111011100010101
1111101100100101
1111011101100111
1111110100111100
11110010010
101110110010
11011100110
1111100110111110
1111111010100001
111011101
1111010101011000
1100010101
1001101101
1111111110001110
1111111100110110
10
1111111110110001
11101001
1111111101101101
1010000000
11101000100
11000000110
1111011011101010
1111110100011001
1111100001000010
1111101110000010
10111111001
1111110001
11001100
10100100011
1101101010
1111111001100100
11001100
1111111101110001
1111101111001011
1111110101001000
1111110101011100
1111110100100100
1111111000100001
1111011111001100
1111110100001110
11101110101
100010001110
1011111
1111111010111001
1111011
1111111110001010
10011010010
11010101100
1111011101011010
1111110001011000
111001101111
10100100100
101111001101
1000000100000
100101000101
11001101001
11111011111
10010100000
1111101011110011
1111101010110110
1111110101110001
1111110011111000
1111110110000000
1111101111111110
1111110101011000
1111110111101100
1111100111000100
1110111110111001
1111100111001011
1100100101
1011100010
1111111011111000
10000111
1111111111110011
100011100010
100011100000
10110101111
1011111101
1010010111
101101
110100110100
101001000001
10010111000
100010011
1010110
10101101
1100
1111110100110011
1111111001101001
1111101010100011
1111111011001000
1111111110101010
1111111111001101
1111101110010000
110111101
1111100001001010
1111011000100001
1111010110101111
1111110101011110
1111100001011101
1111111100000111
100000110
11010101000
110011110
100111011100
1111111110010011
11011001100
11110100011
11101010010
1111100111
1011100010
110110001
1111110101001000
1111111111111110
1111110100110011
110111101
1110
1111110111111110
1111100100100110
1111111000010110
11111101
10110001000
1111110000100010
100001
1111110010111010
1111000000011010
1111100011111100
1111100011011101
100010
11010011010
1010010000
10111110100
100001100101
1001101101
100100101011
1011111111
10111010011
10100011001
11011011111
100010010111
11001100100
100011111101
10010011010
110011100
1111111001110100
1111101110110110
1111110111111010
1111111110110110
1100001
1111101010101011
1111101100100110
1111111010101000
1111111000011110
1111011111011000
111111111
1111110111010011
10000001
110100111110
1011101011
11001100111
11001000000
110101100
11111000001
11101011101
11111001101
11110110110
11011010101
100100100000
101000000100
1001000000
11011110001
100110010
1111111000001111
1111110000110010
11001
110011100
110100110
1111110000000001
1111100111011000
111001
10110000
111001
1111100111
11000000
10100010001
110000110001
1111100000011111
10011110101
10101001011
10000101001
1011101100
10010010110
11101010
10000010000
100010111
1111101100010111
110011101
1111100
1111110010100011
1111110101010101
1100110
1111111001010011
1001011111
1111111101111110
1111111010101010
1111110011101011
1111111110100110
1111101010010100
1111011111111110
1110111011000010
1111110110100111
11100000001
100000010
110000010110
1111110111110100
1111110111100000
10000011001
1111110111011100
1111100001111101
1111011000011001
1111100000101010
1110111000101111
1110001101100110
1110000010101011
1110000001000010
1110011010100001
1110111001101100
1111111010110011
10011000001
111100000
11101100
1111110101111000
1111110001000101
1001100110
1101101
10100101
1110101110010001
11000110101
111111000
1100101000
1000010100
100001011101
1111111100001111
1111000011010011
1111010110111110
1110110111011101
1110010111011010
1101110000000010
1100111101000101
1100011001101100
1101000001110100
1101111010010011
1110010101001100
1110110001111101
1111010010110010
1111100101010110
1011100110
10100111110
1111110111100110
1111110001110111
1111110011010011
1100111
101011
11000111
1110100101100101
10000100001
11011111010
11101000100
101000
1111111111011100
1111010111100011
1110110111100000
1110101010110011
1101110011110011
1101111101001010
1110000001000010
1101110101100101
1110011110001110
1111001101111100
1111100011000101
1111011111100101
1111100111011110
1111101000111100
1111111100110101
1111111101011000
1011100101
1111111100110110
1010001000
11110101
1111111001100001
1111010110100000
1111101010001111
1111100100110100
1110011111
1111100111101011
1111111101001101
100110101
1111100111110110
1111010101011000
1111011011111100
1111001011010110
1110111010000001
1111001101111110
1111111111101110
100111001
100000011000
100010110001
101100111001
100000101000
10001101101
11110100001
1010001000
1111111100001011
10001111
1001111010
1000111010
1111110110110110
1111100111001110
1111010011111000
1110111011101110
1111011000000010
111111001011
1111111010111111
1111101101011111
1111111010011011
1111100111100111
1111011111111011
1111101110110001
1010011011
1001100
11110111010
100101110110
100000010011
110001100000
10110011011
11010110000
11011110010
1010001011
10110110111
1111111100010110
1100010
1011100011
1111111100001111
10000000
1110001
1111111010100000
1111101110010100
1111100100000111
1111100101010110
10110110100
101111001
1111100110101100
1111110000110011
1111100001101010
1111101101000010
11010110110
101001010100
11000000011
11100110001
100001111100
10011110101
10000001100
1111111100011100
1111111001011100
1111111010101101
10011100
10101110110
110010000
1101100
1111110110111101
1111111101110100
1111111101110111
1111110101010001
10001000010
1111110101101010
1111100111010111
10101110
10001000001
100011101110
1111100010000000
1111101101110100
1111101011011001
101110001
10011100101
1111011001
11010100100
1100101111
1111100010101100
1111110010010110
1111110100001001
1111100110111100
1111100101001011
1111100111000100
1111111101110100
111010001
10100001111
10111100101
101100
1111101111111110
10000111
1111111110101111
1111110001011100
1111110011101010
1111110110001011
1111110111111000
10110011010
10110010101
110100111
1000101
100001010000
1000001011
11001100011
1010001
1100001100
1111101111000011
1111100111010011
1111110100100000
1111110010000110
1111011001111110
1111011101101100
1111100110011010
10110
10010001110
111011011
111010110
11000010000
1111111101100010
101110001
1111111100110001
1111111100110110
1111111111100011
10011011
10111001101
1111111100111100
10001000111
100010101111
1111011
101100010001
1111111100101100
1001111110
1111110100111001
10010011001
11110010
1111101101010010
1111111101010000
1111110110101101
1111101001011010
1111100001111010
1111110000010101
1000000100
1001001010
1111111000001010
1111111000101000
11111011
1010101
1100001001
1111110011010110
101111101
11000010001
1111100111010000
1111110100101101
1111010100010100
1111101011101101
100101000101
10011100110
11010011110
1111110101111000
1110000011
100
1111110110111011
1010000100
1111110110001101
11011000000
100110011101
1111110111001011
1111101011001101
1111100111101001
1111111101110000
10000110011
1111101111
1111011000
1001000010
1010010
100111
1111111010001101
11001011110
1101011101
1111101001100100
1111011111110101
100100000
1111101011101000
101000100101
1111111110101010
11110000110
1111111101110100
1011101111
10011010
1111111000100011
10100011011
1100000000
1111101000001011
10101101
1111110110000100
1111100110011011
1111101110111111
1100110101
10001001100
11011110110
11000000101
1101001100
101110110
1100101000
1111111110101001
1010000000
1111101111001000
1111111001100101
1111101111101100
1111110000100100
1111110001011011
101000010
1111111011100011
1000111010
1111111111100000
11110001000
10000001101
1111111000000100
110100010
110100001
1111111011011100
10011101
11101001
1111111111001010
1111100100111110
1111111000011000
10000001000
1010011001
1001000
111111
1010111111
1010001
10001101010
100110010
1111111111010100
1111011110100010
1111111110000011
1111111001101011
1100111110
1111101100100110
1010001111
11101001001
1000111010011
11000011000
1111111110000100
11111
111001100
1101000000
10011000
110110011
1111111111110111
1111101001101011
1111101111000110
10101010
101010011
101010100
110101101
10101000110
101101010
1111110101111000
100001
1111101101010000
1111100100111100
11011100
1111111100000011
1111101010110111
10101000111
1111111000011010
1110011111
1101001110
111100011100
10001100001
101010010
1111111010110100
11011000110
1111111111100011
1111111001011010
1001011111
1111111001001000
1111110110001111
1111110100001000
1111111011001011
1001001111
10101101110
101000100
1111111110000110
111110001
1011010100
1000111001
1111101110010110
1111100101100100
11100010
1111110110100010
1111111110110000
1111111100011011
1111110101111111
1111111110110110
111000
1000000111111
111110111
1111111110011110
1001101000
1101011101
10011101100
110011010
111110101
1111110111010101
1111110101010011
1111111011111011
1011001111
10111
10000
1111110110111111
1111101011001101
1001100001
101011110
10111101010
11000110
1111110001111101
110001100
1111110101001010
1111110101111111
1111010110
100001
1111111101010000
1111111110111011
10101111
1101101000
1111110010101010
1111110001011100
111100101
10111011011
10101111000
1111110111000010
111100
1111110000010111
1111101110000111
110100010
1111110011110110
1111100000101011
1111101010011101
110001010
1111111100001010
1111101001011011
10011110001
1111111000100001
1111110000100011
1111111110010101
10101001
100100001111
11010000000
10010010
1111111111111100
11010010
11010111100
10000001101
110000101011
10011110
11100101
1101000001
1111110111100111
1110110001
1111111101001001
1111100010010100
1111111101100111
10000110
1111011110000011
1111001000110101
1111001000111000
1111011101001001
1111101110100110
1111101010101000
1111111100000010
1111101110000110
1111110000011110
1111010100100010
1111100011001111
100100110
1010011
1111111011000100
1111111101001001
1111111101000100
1111111110101010
1011100110
1111010101110100
1111110001010011
1111100111111000
1111100000000111
10010100
1111101001011000
1111111100101100
1111101110101011
1111111010101100
10101100110
10111010100
1111111001001010
1111110010111111
1111100001010010
1111111000110001
1111100111001011
1001010101
100111100
1111111001010110
1101101111
0
11010011
100001000
1111111111100010
1111111111101110
11000000
1111111101011100
1100001
1111111111011011
101001111
1111110010101001
1111110011101000
1111100101001100
1111100011110010
11100101010
11100000101
1111110110110011
11011010
1111110110
10111100010
100100101001
1111110111
1111101010011000
1111101101100011
1111111010100101
11010001
101011111
100101101
1111111110011110
10011
101000010
10011100
