1111111100001010
1111111011011101
1111111010100100
10110011
1111111110001010
1111111100000011
11110100
100000110
10011100
1111111111110110
1111111101111111
1111111111010011
1111111111001100
1111111100000111
110011010
1111
1111111100000011
11000001
1111111111110000
1111111101101111
100100010
11011
1111111011111010
100100011
1111111110001100
1101110
10100010
1111111111101100
1111111101001001
1111111111110010
100101
1111111011010101
100000101
10000110000
11001001000
100100110100
100110101001
1000010110100
101000110110
1000111001100
1000001001101
101111101010
1111110011110010
110111001101
111101100011
1000100100011
111101001111
101001111001
101111000011
11101111110
10011001110
10101111101
11010011
10110010
1000100
1111111100110111
101000100
1110011
1111111101101100
100001110100
101001001001
10010100100
111001000001
1001011100111
1100001110011
10001011010011
1111000011101
10001110011101
1100011000010
110100011010
100000001010
110001100100
111001101111
10011010110
111111000111
1101001001111
1010111100011
1010011100000
100111011110
110100010100
100101111001
100011000011
10011011
1111111110111010
10101000
1111111101010101
110
101011100111
11110010010
100110011111
111100101100
1000101001000
1000111101010
1010111101000
111110001111
1000000011000
1110010010011
1110100001111
111110001111
101100101000
100111011111
10110011110
10010000011
1110011000
10000001010
101000000110
10011010110
10011010111
11111111101
11111001011
100101
1111111111001101
1111111101010101
1111111010001110
11001000110
1111111001000111
1111100111011101
10100
101101000
10011011110
1111110110011110
10101000
10011000010
10010000011
11110011100
1111101010
1110100101
1000011100
101001000101
11100001101
100001001100
11001010010
10010111001
1101111011
1111110100001001
1001111001
1111010100100110
1111100111000100
100000001101
11011111110
1111111010100001
1111111100100010
101011001100
110001101
100111101011
1111010110101000
110110000
11111000
1111110110000001
1111110000111011
1111101001111001
1111111110110001
1111111101001111
1111111011000100
10100011
110001100
100100101000
100000001110
10001101111
1111111101001001
1111101010100110
10010111101
1111110000111100
11000000001
10101100110
100100110
1001011100
11001101111
11010010
1010111011
1111011111010101
10101001001
100100010101
100000100
10101100010
111110
10100011110
1111111100101101
1100001101
1111110110
110111100
11001101
1111111100001100
1100110110
1100001110
1111111100001101
1111111111101011
101001010
1001111111
1110111011
1000011011
1110010010
100011011000
101011000100
1010110011
10101101000
1111111111001110
1111111000010110
1111011100100011
1000001011
1111111111111110
1111111001111100
111001001
11101011011
100001000111
1010101101
100111000
1111011101
10010100011
1111111000111110
1000110011
1111111111001000
1111111000101001
1111110110110011
1111111000100011
1111111111011110
1001111011
10010
1011101010
10010101101
10000001100
10010001001
1111100001010000
101001111110
100000110001
11000101011
1111100011001010
100100111
1111111001111110
1111110100011110
1111111011011111
11000101
1000001
1111111011100101
111101110
10110110
10100101100
1111111100
1111111001000000
1111111010110011
1111110101100001
1111110001010111
1111110111011111
11010110000
110100
1111100010111100
101001100111
1010001001100
110010010001
100001010101
1111100100000101
1111110111111011
10101001101
1111011111010100
101010
1111011000010100
101000111
1111101110111000
1101010111
1111110001010110
10110101
1110100011
11010
10101111001
100000101001
11001000011
1110111101
10100100111
1111111000101110
1111101000000110
1111101000110101
10110001111
1111111101001110
111011
11001010101
100111110001
1010010000010
101001011001
10101100100
1111000
1100110000
1111010001001100
101010011
1100
1010111010
101000010
10011010111
1111101110000100
1111101111101011
100101010
11100001101
100101000000
100001110000
110000111100
111001000001
10000110001
1111101010110111
1111011111011000
1111100100001011
1111101011100001
10010011100
10100000101
100011111100
111000111010
1000001010001
100010101
1000111111001
1111110111111100
1111110111011111
101101011011
1111101110110010
100110000110
10101010111
1111110010110001
10101000
1111110010111000
1111110100101000
100100000
1101000110
10111110001
1010100001
11111111100
101110000000
1111111011100000
1111010110100001
1111000011010111
1111100111000001
1100000000
1101110000
100011110000
11001100110
111000110011
1001111000000
11111111011
100011110111
1111100001001010
1111110111001011
11010000011
11000011
100000101111
10110011
1010001111
1111111011110000
1011001010
1111110001101001
1111111101110011
1010110011
1000101000
1110111111
100000001001
101010100000
10011000
1111101000110110
1111011011100110
1111101100001011
1011111110
10001001010
10010010000
11101000
111101100101
111101010001
11001011000
100100000010
1111110111011110
110001110
10100010110
1111111011010011
101100010
1111101010110101
10101000000
101001110
1111110111011111
1111111000110110
1111101110000011
1111100110101100
1111110001111101
1001001100
100000110011
100010000110
11011101
1111110010101001
1111100101001111
11010
101100001010
10010011110
10010001110
1101010000
101110101111
110110101100
1011000100
1110011011
100011110110
1101001010
1111100010100011
1111110011011100
1111101001100110
1111010111100000
1111111011011001
101011000
1111101100010000
1111101111110001
1111100100000111
1111101101010010
1111101110010111
1111111010101010
101010010111
101111101000
11000010011
1111110010100100
1111100111010011
10110101110
100011101001
11111011011
10001100110
111110000
1101000111
100110001110
110101001
10010011010
100100000011
1111111110111111
1111110010100100
101001010
1111011111011110
1111100101000110
1111101100010011
1111100110011010
1111101110111001
1111111000001001
1111110100001110
1111101110101110
1111101111010010
101011001
101011001100
110110001000
1000011011
1111101010011110
1111100100010010
111111011
10001000111
110110101
101111101
1111111010011100
10000101010
100101101000
1111110000100011
1111110011010101
11010100101
1111110010000110
11011111010
10100000111
1111010111000001
1111100010001101
1111100010100110
1111100101000001
1111101101011010
1111101100001111
1111111110001000
1111111101110011
1111111011111010
1101110001
100110111111
110101101101
100010
1111011100000000
1111011111001100
1111011101100110
1111101100111011
1111110001101000
111011001
1110111101
1111110111101010
1111110010011101
1110011111
1000001110
101111001101
1111111110000101
111010000
1010001111
1111100111110110
1111110100100001
1111111010100101
1111111010100010
1111011001110000
1111011010100100
1111110001010010
1111100010110101
1111111001101111
10001110100
100011100000
10101100100
1111101101110111
1111011101001101
1111010011111010
1111001101011000
1111101100111101
111010100
10100010011
1101110100
10010111
1111111011110101
1111111101001100
1111111010101110
100111011111
1111100101110010
1111101110001111
1111100110100110
1111111001101101
1111101010011010
1111111010110011
1111101010100010
1111100100000101
1111111101100101
1111101001101111
1111101011111000
100111
101100010111
100100001000
1111101111100101
1111100000101110
1111100100000001
1111110010110011
1111101101000111
1111110100010001
10111111001
1111111000100001
1111110010101000
1111111010001101
10000010000
1011111001
1111101101110101
100111110110
1111111010110011
101100011000
1111111000111011
1111110011101001
1111110000011001
1111110110010111
1110111
1111101010001101
1111010110110001
1111110001100000
1111111001100000
1011011101
100100110011
11101000100
1111110100010101
1111111111000111
1111110010110100
1111000010
1111111110110010
1111101101101000
1111101111000100
1111101010100111
1111111000110000
1110100000
1111101001010010
1111110001100011
1001010100011
1110100010
1111111011010000
10000011110
1011001000
10010000010
1001011001
10000100101
10001100000
1111111010011000
1111101000101010
100011011
11000010001
101101011100
101010010010
111111000
1111101001110101
1110010111
1111110001001010
1111101101001011
1111111010110010
1111110011000100
1111110000001111
1111110100011001
1000001010
1011100100
1111010100001110
1111101101011111
110001100101
10101110
10011010
110001101
101010011010
110100101001
1111101101000011
1111101000100110
100000001111
1110011110
1111111001101001
111000111011
110101110001
1000000100000
100011001000
11011111111
1001001011
1010010000
1111111011100001
100111110
1001000111
1111110111000101
1111100100000001
1111001101000011
1111110110111100
100110010100
1111111010011000
1010101001
110100010100
1111100101010110
10001
1111111110111010
110010111011
1111110011011100
1111101111100001
100011010010
101011100010
10010011110
10000101100
11111110001
11000011001
1101110000
1110000111
110111110
110001
10000011101
1111110111110000
1111111011010100
1111101111001001
1111110111011000
1111101001011101
1111111000101101
1111010110000000
1111111111010000
1111110111011110
1111111111100110
110110100101
1111100110011010
1111111111010001
1111111111111001
11000011100
1111111010101101
100100010110
111101001100
100000001010
11000011101
101011
1111111010000110
1111111010011000
100101101
1010101000
1111111110010010
1101010001
1111111000011000
1111111000010101
1111110101011100
11101111
1111110001100001
1111110101100011
1111111101100001
1111100111010110
111101110
1111110110011111
1100110011
101011010110
1111111011010001
11001001
1111111011000110
1111100010000110
1111101011010110
1111110100011001
1001110100
101010110110
11111010111
101010010101
1010011101
100101100
1111010010
11000110111
1011100100
100010001000
1001011101
1111111111101110
111001101
10001011000
1111111111101101
1111111110010011
1100011010
11001000011
1111101010010011
1100111000
101011100110
10101010100
1111100
1110111
1111111101000001
1111101001010010
110110011
10110110110
1110001011
110010101111
1010000111111
101110000101
10011
1111111010011101
11001111101
100011101100
10010101100
1111111010100110
10010000001
1000111
1111110101100100
1001111101
1111010011
10010110010
101000101
1111111100110000
101100110000
100011110101
1001010101
10011110011
11010010
10001000
10110000
100000010
1111110111011001
1111000011001000
1110111100010110
1110100100100011
1111110001101100
1111011101010110
1110111110101110
1111010111001010
1111011001111010
1111011101000110
1111100110111000
1111001110111101
1111101010100101
1111101111100100
1111101101001111
1111110001001110
1111111110111111
1111100101010001
1110110000111001
1111010011111011
1111001101111100
1111100101110111
1001110110
1111111111011110
11011110
11001100
1111111011010110
1111111011011101
1111111111110101
1110000110
11100000001
1111110100010010
1111110110000010
1111101000001010
1111100010011011
1111011010001101
1111011001011110
1111010101001101
110011011
1111110011100100
1111001000100001
1111100010000100
1111101101101100
1111111010110111
1111010100001010
1111010110100101
1111011111011111
1111111010110011
10111001001
1111111110101100
1111111110010011
10001101
1001101
