100111000
1111111110110111
1111111101010110
1111111011110101
1101111
100101110
1111111011110011
1010100
1111111011011001
100100101
1111111111110000
0
10010011
1101101100
1010011110
1100010
1111111100001000
1111111111111100
1111111011010110
100000101
10000011
1100100
100111001
1111111110111110
1010011
1000000
101001110
1001101
1111111010110011
1111111011110100
1111111100011000
11111000
1110001
1100010001
110010010111
1000001010111
110000111101
1000000101111
1000101010110
10100010
1111111101110111
1111100110111000
1111110010110010
101110100
1111100100000100
1111111011000011
1100000110000
111000110011
110000100010
101110010010
11100100100
1011101110
10000010
101001000
1100101
100
11100001
100101110
10100010001
1111100001101100
1111100001000101
101110100010
101010010001
1111100
100101001101
100101111101
1000111101110
101001001001
110011100001
10110011110
1110100100
111100000111
1011011001001
1001010000010
1010110100000
1010011011111
1011001001000
101010111010
101111011001
101001100010
1111110100100111
1111101011100100
1111111110101001
10110110
100011010
10010110
11000111101
1111101110011011
1111110001111000
100010000010
110100011101
110000010101
100101110
11010101001
100000011010
1001101
1001100010
1111111011010010
1111010101
11100101101
11111101011
11011010111
101111100000
100011111111
1000101011011
1110011101
11000001011
1001100111
100111000111
10101011
1111110001101110
1001111
101100
11110000
10111011011
101010000000
10000101
11000111
1111110101100011
1100100
11111111110
1111111001001011
1111111001010111
1001011110
1001101101
1010010001
11101001111
11100100100
11001011111
1001000001
111100010
1111110011011111
1111010000
10010100110
1111111001110111
1111100001111010
111011010
1111111011
11010111011
1111111000100011
1111111101000111
1111111100011111
110010000011
1111101110010001
10111110
110110010
1110101110
1111110010
1111111111100011
1111111100000001
1111100110110000
1111101011110110
1110010101
111010101
100101011
101101
1011111001
1111110000101101
1111011111110001
1111111011111100
1100001101
1111111111101111
1111101010001101
1111011011110111
100011010
11111101011
100110000010
1001010001
1111100
10111011001
1101100110
10001001111
100101101101
10101101101
10000110010
1111111110110101
10001110000
10010111000
1111110101010100
1011100111
11101011010
10001101101
1111111001011000
1000101111
1111111100000110
1111101110111010
1111100001000100
1111101011100110
1111111010000110
1111110000101011
1111100110110001
1111101100110011
1110000110
1110010010
110011000010
110001100
1111111011101000
1111101011
1111110000110100
1111111001000100
1110100101
1111111011111101
1111111011111001
1111111110011111
10000111011
10001100011
1111111000011110
1111110111111001
1010011010
1111110011000101
1111101111111011
1111111011111011
1111101110110001
1111100111001001
1111011000011110
1111010001110101
1111100111101001
1111101100001111
1111100101011010
1111100010010110
1111111101111110
110001010111
101001010000
1111110110110101
1111011001111001
1111100001001011
1111011111010011
1111101001010110
1111110100111010
11010100110
10000100101
11011011111
10001011011
1000111100
1111111001011001
11110011
1000001110
10100111011
11111000
1111101001000101
1111001100011011
1110111111110111
1111001011011101
1111101001100100
1111100100100010
1111110000111110
1111111000011001
1111110110011000
10010001011
1000100110001
100001110001
100001100001
10101010
1111111110010111
1111111100000100
100000110111
1111010011011011
1111111101100111
10010011011
100011111101
1010011011
1010111101
110001010
1110001010
1100001110
10010000011
11111000110
10110101001
1111100101010000
1111001100100000
1111001101101111
1111011111011000
1111100110111101
10010110111
11011010
1111111001001000
1110101011
1100110010001
1000101010100
1000001101
1111111001111000
11011011010
1111010010101001
1111111101101010
1111110110011000
1111111001100001
1101110101
100111010001
1100010110
1001011100
100001011
1111110110010011
101010011110
100111100100
110100010001
101100000111
1111111111011011
1111011110000111
1111101100111001
1111101100000010
1111110101001000
1111110110101110
1111101000100001
1111111100110101
1111101010101101
11010000010
1101111101
100010101010
1010101
1111100000010001
110011011
111010100001
11010100101
100000011000
1011110101
100001000110
101001011
111110001
1111111110010000
1111111101011100
1101111000
10101101110
1000011100001
111110100010
101011110000
10111010000
10000100011
1111111010111100
1111111110101111
1111110010000011
1111011100001011
1111101100100110
1111101010101010
101111011111
101101111101
100111111001
1111111111001001
1111111100001010
1111111111111101
1011111010
1111111011101010
10000011011
1101001001
111011101
1111110110100000
1111110101001111
1000000101
1111111100101010
1111101111011000
100100001
1000001001101
1001101000111
1000000000001
11110101100
1111111111000010
1111111101100001
1111110101100101
1111111110010101
1111100110111010
1111110001110100
1111011010001110
100001100111
110010011111
101000100100
111101010
1111111100101010
110
11111111100
1111010111110111
1111110010111011
1111110010100010
1111101101000011
100110
1101111001
11010110
1100001001
1111110111111101
10011100010
101110000100
1000011100111
1000111010010
1011011101
1111111000010111
1110001100
1111101011
1011110
1111111111010011
1111110011101110
11011100
10111011000
101100100111
10110101010
10011011001
10110110100
1110100110
11111001011
1111011010001110
1111001101111101
1111001110111100
1111000000110010
1111111100010010
1111111001111101
1111110111110000
10100100
1111111
11001111100
101101011110
110110000010
111001101101
1111111101111111
1111101101111011
1101011111
1111111100111000
1010111100
100111001
10110001110
1111111011010010
11100000001
1111110101111000
1111010110000101
11111011
1001110011
10011001001
110101110100
1111011001011110
1110110110100000
1111011100011100
1111001111110000
1111100000001100
1111011100001111
1111110000100111
101101001
11011000100
100011101011
101101010001
101000010011
11110001110
10001011
1111111100110101
10010001010
10001100
11111010101
100010101001
11101100001
100000001010
10010101000
1111110100100001
1111001111000011
1111101100101011
100011111110
1111111110011101
101011111100
1111110010111111
1111010110000100
1111001001110111
1111001100110000
1111010100111010
1111001011110010
1111011011001011
1111101010100101
1111110001011101
1110001
100011111000
110001110100
11011010110
1111110001101101
110000100
1111111111011111
110011001
1111011011
100101000100
101000011011
1001010111111
1000111011
1111101011010011
1111001110100011
11110110
101101000011
1111110111110001
11011101010
1111111001101000
1111101011111011
1111100011101111
1111101011011110
1111010111100001
1111001111101000
1111000001010101
1111001001111011
1111011000011111
1010011001
11101110100
10001000101
1011100010
1111111101101011
10100
10000011100
10100111010
10110110000
11010011101
11000111110
10110010000
1111100011010011
1111100110011100
1111011001111001
1111110000001001
100110111000
101110000110
110110010001
1011001100
1111110110011101
1111111111110101
1111110100010100
1111110110101110
1111101101111010
1111010001001000
1111001101011000
1111100100000110
1100
10101010000
11001001000
1111111110111110
1111111001100100
1111101111010111
1111111010101111
1111111101000101
1111110100010101
1011101101
1101110110
101001101
1111110001100011
1111101001011000
1111110100100000
11000010010
1111100111101111
100011011101
11010101111
10000000110
10011111000
1111111101010001
1000001
1111110010111100
110001100
1111110010101101
1111110100110001
1111101011011010
1111111
10111100001
10101000110
1111111000011001
1111011110101000
1111100001110110
1111011110110001
1111100101011111
1111011111100011
1111101100111000
1100111000
100101000110
100010101001
1111001110101010
11100000101
1100100
1111101001010000
101010
110010001
1010010000
1111101000111110
101001001
1000101100
1111111111001010
1111111001000100
1111111110001101
1111101001101101
1111101111011110
10110100
11000100100
1000101111
1111101110000010
1111100011100001
1111100100100110
1111011010110001
1111011110011001
1111100001000000
1111111001010001
1111111111010001
1111001010
11011001101
1111111010010111
101001001100
1100000011
1111111001100100
1000101100
110010100
1000010000
101010100
10000101000
1110000110
1111111111011011
1111110111000110
1111111011010010
1111101111010101
1111111010011001
110110
10100101111
10110101
1111110101100101
1111110001100010
1111100100001100
1111010110001100
1111100011010001
1111110111000000
1111100111000010
1111011101000110
101010110
1111101100100111
1111010110110100
1111101110010000
111011011
1111011111
1111100111110100
1111110001000010
101000111001
100001011000
1001110
100101010
1111111011010110
1111110101101000
1111111011011011
1111111110011001
1111111111001010
110001001
11101000111
1100111100
1111111000100001
1111110110011010
1111011110100111
1111100011110000
1111100101101111
1111001011111100
1110111000001001
1111011010011011
1111100110001010
1111111010101000
1111111000101011
1111101001100110
1111111110000101
100000110
101100011001
10110010001
1100111011
1001100100
101001001
1000000101
1001000011
1011000
1111110111100011
1111101110010010
1111110011111101
10001010001
1111110010
1101010000
1101100000
1111110111100110
1111101111010100
1111101101100100
1111011011011110
1111001010111101
1111101000111010
10000000110
100010011011
111011
1101110111
1111111011110110
1111111100110111
10100010
1111111001011110
11010111110
1111110011010110
11010110111
101100011
11100001000
10000001101
1111111000111010
1111110000011101
1111101110111100
1111100111111100
1111111111000101
1010001100
110111111
1110101011
1111111110111001
1111111010011100
10011001011
1001000100
1111111011101101
1111111100110111
1111111101000100
1111111100001111
1111001111101011
1111110101100000
111110
110111
100111010
100000000111
1111110111111001
10000111100
101001100010
10111100101
111001011000
101110010111
11110110101
10101000010
11110110100
111001100101
1011010101101
1010010000101
111000110100
1011100110111
1101011001010
1111010110101
1110010110100
101110111111
101100100101
11110000010
10110111001
101011011001
1111110011100110
1111110001111011
1111111101011011
1111111110111110
10000000
1111111100011001
10110101010
1111110011001110
1111100111000101
1111100100110000
10100011
10100010101
1111101101001111
1111101101011111
100100000000
1001010001110
1000111000011
101000000001
1111111111100010
1001000011101
1011101111111
1101001010111
1011001100011
1001011111001
1000100011000
10010110100
1111101111101111
11110111010
1111101110111010
1111111101010010
10001001
1111111011010010
1001
1111111110111011
11001000
1111100110111100
1111011010011010
1001101011
1011001011
100111100
1111111100010000
10110110010
100111011110
10101011010
1111110101100100
11101010100
110101010000
11001000011
1111111110110010
1111111111011011
11011110111
10000011
1011001001
100011101010
11101110
1111111101001001
1111111100100000
10111000
1111111010110110
