100011
11000110
1111111101100011
1111111111011101
1000111
1111111100011110
1111111010101100
1111111011100011
1111111011010111
1111111100010011
10111101
1111111011011000
100110000
1101100
1111111110010101
10000111
1111111111110111
101
10011100
10101001
100100101
11110100
1111111010110011
1110001
10101000
1111111010110110
11101100
11010
100110010
1111111111010010
101000010
101001011
1111111011001010
1111111010000001
10110000011
100001011101
11111001111
101011101010
110101111100
1111101000001001
1111100111000001
1111111101010111
100001100001
11000011000
10100001111
10010100011
100100001000
11001101100
11001000001
100100101000
10110100
101000101
1111111110001111
10000101
1111111100111001
11101
101010111
101011
11000110
1111100010000010
1111100011111011
111010110010
1111110000011111
1001000
11110011000
11010010001
100011111001
110011000001
110000100110
1001110000011
1100001000010
1101010001000
1001001110101
1000001110100
101111110010
100100000001
1010110001
110011110100
1001110000
1111111110110011
101111000110
110001010
10110
1111111100110101
10111101
1111111010110101
1111111101100010
1111100010000111
1111100111000011
1111110101101010
1001101010
1111011001111010
1111001110111000
1111110001000101
1111110110111100
1111110111000111
1111011001001111
1111110100110000
1111110100101011
1111101001100000
1111110101101111
1111111001011010
10100111010
10111110110
10010101
1110110
111101110111
100011100100
1111101101110010
1111111011110101
1111100110100011
10110010
1111111010100111
1111111101100111
1111111010111001
1111011001001000
1110001101
101001100
110010011
1111100000010111
10001110111
10101101011
11101111
1111101101010110
1111110011101011
1111110010001010
1111111101100011
1111110001010000
1111110000
111100101
1111101101110101
1111100110001111
10000011111
1011000111
1111111011001111
1101100111
11000000100
1111110000001011
1111001011001110
100100011001
1111111110100000
1111111100101001
10100101100
1111010001100101
1111101101011111
1111010001110001
1111100110011100
1111101110101010
1111111010111001
100010101
1011100001
100001100011
11101000010
1111111010010010
1111111111010010
1111110101000100
1111111101010001
101011101
100000000
1111110111100010
1111111111010000
10001100110
1010100101
1111111100000101
10010011000
1111111100111000
10
1111111111000000
101
1111110110000110
1111010111011100
1111000101010101
1111110010001010
1110101101001001
1111001011011110
1111111111000010
1111110001101100
1111110101011010
1111111110111101
1110010101
1100001001
1111111011000101
1111111100101100
1111001
100001101
1100001100
1010101100
1111111111101100
10001101100
1111111010111110
10110110
10011011100
1111111110110111
1111011010000100
1111011100111010
1111110110011011
101011
1111011000110001
1111011010101100
1111000010110100
1111011110100111
1111100000100000
1111100110001010
1111110100000011
1111100001001001
1111111010101000
1010010011
100000100
1111110010101110
1111111000000101
1111111001000111
1010000100
100111110
1111111101001110
11000011
1001001101
1111111101011100
1001001001
10100100000
10000100010
10001101001
1111001001110100
1111010111011001
1111101001110100
1111010111000100
1111101011101000
1111101000010011
1111101010101111
1111100001101000
1111011111000010
1111101000101111
1111111010010010
1111110110010110
1111110000110111
100100100
100011011
1111111011011101
111001101
1111110100110110
1111111111110110
1111101111101101
1111111111101110
1101000000
10001111101
1111110110100101
1111110000011101
1000010001
100101001
11000001110
1111111101110000
1111100100000001
1111100011101100
1111110001111001
1111001011100000
1111010011000101
1111101111110000
1111001001000000
1111011011110110
1111101011110110
1111100111111010
1111100111101110
1111110111010101
1111111001111101
1111110010010101
1111101010010100
1111101001000101
1111101101010100
1111101111101010
1111111000010101
1111100011001111
1111110110001110
101101110
1001000000
10100101111
1100
1111111111000001
100001001
1111011111100001
1001111101
1111010101010011
1111110011100101
1111010011001000
1111000110010100
1111100000001011
1111100011011111
1111011001001111
1111011000101010
1111101100011010
1111100110101111
1111111111000100
10110001
1111110000010101
101110100
1111101010100010
1111101110101000
1111111101110000
1111100110101000
1111011110010100
1111101000001110
111001111
11001100111
11111001000
11101010001
11000001011
101100011011
10001101101
1111101010100011
1111011100100110
1111110111001011
1111100011100011
1111011011001001
1111101101101101
1111001111101111
1111110110000010
1111001100010001
1111101010111111
1111110101011111
101111011
1111111110011000
1111111100001111
101000000
1111111100101000
1010001111
11011110011
100000101111
10001011
1111010111100111
1111100100100000
10101100001
101111010110
111111110010
110001100000
101110000101
10100001010
1111101010001000
10111111000
1111111111001000
1111011000100001
1111111001100000
1111110110101001
1111111010111111
1110011010
1111100100000100
1111111001100100
1111111100010001
10000111
1111111010100100
1111111100101111
1111111010010111
110001111
11000101000
100100101011
10100110001
100111110
1111010001011111
1111011010100111
1100101111
101001011010
110011010110
100101010001
11100001111
1100101001
1111011
11011010011
1011110101
1111100010011100
1111110000111011
10000100011
1101111111
11110100
1111111011111000
1111110110
10101100101
1000010001
1111111110001010
1111111111101011
1010111111
10110001011
100101101010
110110110111
10111010111
1111111011100010
1111011011000100
1111110101110100
1101100
11111111111
100010000100
10100100100
1111111100011000
10011000111
10101110000
100110011011
1111111000010001
1111111011010000
1111100000010100
1010
100001100
111000110001
100011000110
101111011010
101101010001
11001010000
10001111101
100000000110
11110110001
100111010101
11010000000
11011010010
11011111011
1010000011
1111101001000110
1111101100101110
101011011
1011000101
11000110100
1111101111001011
1111011101101010
1111100011
1111101000101010
10010010010
1111111111000000
1111111011011110
1111110111101000
11001101110
1111100111000111
1000100101
100100001001
100110101111
11000101010
10001010101
11100001010
11000011001
100001010111
101100111110
101110000011
11000010011
1110001111
1111111101111101
1111100100101100
1111100100111000
1111110011011111
1101110
1111111111101101
1111110101010110
1111101000101101
111110101
1111110000001010
1011110100
1111011
1111110000000100
1111110110000110
1111101010111101
1111110011011011
1111101110000111
1100001110
100001011110
110000000011
100110010100
110010000100
101001111110
11110111010
101010000010
110010010001
11111110001
10001101111
1111100111101011
1111101100100001
1111101011010100
1111100100110101
1111101010101011
1111101101110010
1111100001011110
1111101011111111
110000111
10111011011
1111011110100111
1111111110000101
1111100110001100
1001000100
1111010110010010
1111011011010001
1111011011010110
1101011001
100010100000
1000010000100
1000110010100
1000010011100
101010001000
110110110010
1000001011010
110100101110
10001000100
1111110111010101
1111011101001100
1111101001001011
1111101000111000
11011111
1111111100001110
1111101111011001
1111111111101000
1000000110
1111011001111010
1111000100111101
1111011011000110
1111111011010000
1111101011000011
1111110011101101
1111110101011110
1111100110100010
1111011110001110
1111111010010000
1001001000
1000101100
101100010101
110001101100
101011000011
1001001000110
101100000110
11110111100
1111110111011010
1111010110011100
1111010001000111
1111100111011011
1111111011001001
10100010
1111101010000101
11011100
1111011111001100
1001110101
1111110010010011
1111010010110111
1000110101
101011010
1111011010001011
1111110101010010
1111011101101011
1111011010110100
1111110110100000
1111100101000110
1111110011001111
10111
1111111001000001
1111111101101011
1001010001
10101111000
1000001110
1111111010110011
1111100000001101
1111101100001111
1111101110101110
101
1111110101000000
10110001011
1001000000
10110100111
1111110111111110
1111111011000111
1111110101011101
11101010111
1111111110001011
111100
1111011111000100
1111100101111001
1111010010011100
1111010110111101
1111101111100001
1111101001110110
1111100110000110
1111101011110000
1111011111101011
1111100010011010
1111011010100001
1111110010001101
1111100110001100
1111100111110011
1111101011010000
1111110101011110
10011111
1011011111
10001010111
1001010000
1111111111010111
1111101111110101
1111101011001000
1111111101111001
10100110001
1111010111101101
1111101010000011
110011010
110001110
1111000110100001
1110110110110011
1111110001110111
1111100011000111
1111110010011111
1111100101000110
1111101010111001
1111100001000111
1111100100101000
1111100000010101
1111100000101000
1111101111101000
1111110000101100
1111101010001101
1111110000010010
110101101
1100001010
101100010101
1110100001
1110011011
1111111100101100
1111110010111111
1111110000011010
100011101110
1111010101000000
1111011011110110
101000100
10111100
1111101000001101
1111110100100100
110011110
11101
1111110101111100
1111110000011111
1111101101111100
1111110100000101
1111110111110001
11000001
101000010
1000111001
1111111001100010
1111110101101101
1111101001111000
1111111001111101
1001111101
10111100101
11001101110
11111011001
10111000100
1111101110011011
1100111
10010011101
1111011010010111
1111100000010111
11101101
10110
1111011001111011
1111111110110111
1110110110110010
1111001100101001
1111100010110010
1111100010110010
1111110010001001
1111101011111010
1111101011010010
1111100101100000
1001110101
1110011001
1111111010100100
1000001111
1111111100
11110101
1111111000110000
10100010110
101111111010
111000110000
110000111110
1111111110001100
1111101110111011
10011111001
1111001011011000
1111111010111100
11101010
1111111100110000
1111011001100111
1111001101111111
1110011011000011
1110100011101001
1111000011010111
1111001011101000
1111101100001110
1111110000000110
1111110001011111
1111110010110010
1111111000011101
1111111011011000
1111101011010110
1111110000011111
1111111000000000
1111011001010010
1111111101011011
110101100100
111101111101
100000100101
11001011000
101010001
1111100001010001
10101010000
1111111010111100
11110111
1111111101010101
1111111011001000
11001101
1111110001101010
1111001100111001
1111100100101100
1111000100101110
1111001011111010
1111000000111011
1111001111011010
1111100111111110
1111010011000111
1111000010010100
1111010101110100
1111111010101001
1011000
1100011010
100111010110
110010000101
111000111000
11111101010
11111100011
1111100100
1111100010111011
1111000100111111
1111111110100111
1101111
1111111011111001
1111111111101001
1111111110111110
11110101
1111110100100101
101101100100
10110101
1111111101110000
1111101011110010
1000100
1111111100110000
1111100111101110
1111100110100100
1111110010100110
1111011000010101
1111010001111001
1110100111000111
1111010001110001
10000010101
10101100000
1111101111
1100110
100000100010
1111110110000011
1111011100101000
1111111111100011
1111110000010000
1111111111001111
101001010
1111111111001100
1111111111010000
110010
11011100
1111010011101101
1111001110001111
1111101000110110
1110111100010101
1110110101111001
1111100000110001
1111101011011111
10001000100
11100101111
1111100010010100
1111100000010101
101010010
1111111001100101
1111010001111010
1111100000101011
110110
11011101100
1110100000
11111111
1111101100101001
11101100
1011
1101111
1111111101010011
