1111111110110110
1111111010111111
1111111100111111
11000101
100111101
100011100
10001011
1111111011011000
1111111100100100
1111111101001011
1111111011101111
1111111111111000
11111000
1001010111
10110001000
11000000
10101101
1111111011010100
1111111010110100
11100100
11100001
1111111010111111
1111111011001100
11100001
11010100
1111111111011111
100110111
101101
101
1111101
100001011
11001100
1111111010000011
1111111011001001
1111110111100110
1111110010111111
1111101000110001
1111100100010101
1111001101110011
10011101
1111110110000110
10101110
101001010100
111000110001
101000001101
10111010101
1110111101000010
1110110010100000
1110110111111110
1111001011010001
1111101000110001
1111110111011111
1111111101101000
10000011
1111011
100001010
11010111
100111000
1111110110110001
11110000110
11011110001
1111100011000101
1111111110101011
1101101001
100110001
1011110100
10000000000
1111101111110010
1111101100000111
1111110101111000
1111110101011110
1111100011100000
1111110010011111
1111011000000011
1111011101011110
1110111100010111
1111010000110001
1111010001010111
1111100111000111
1111111011010100
1010010
11001000111
100010100
1111100
1010101
111100
11010110001
11101101100
11010000100
1111100000000101
1111101010001110
100010000001
1101000000
1000111100
1111111101
1111111110100010
101010100
1111111000010010
1111110010110110
1111110100100001
1111111110101000
1111111001101101
1111100110001101
1111011101110100
1111111111010100
1111101001111101
1110110000000010
1111001110011000
1111110011010010
1111101110
1111110101011100
1111111100110110
100110100
10111101
11000111010
11100111001
100000010100
11101101
10000010001
10110010
1011001
1001101100
11100011100
10101001100
1111111011001101
1111111100000000
101011001
1111111111011110
1111111010110001
1111101110000000
1111111001011100
1111100110011000
1111101000110101
10110101
1111101010100101
1111011000000101
1111101001100111
1111111011101001
111101000
1111101100110010
1111111110011010
11100111
1111101001011000
100110011001
110001001110
1111000001
11101100
1111111010100010
11101001
10010010000
101100101
100010100000
1111100010
101100110111
11010001111
10111001011
100010111
111011110
10001100111
1110101001
1111110111101111
1111110100111001
1111111001000100
1111111100101110
1111100000110100
11010001001
1001110
1111011110111110
1
1111111111000100
1111011100010001
1001001100
111010100
1111111110011011
1110010110
1111111000101011
1111110010101101
1100001110
101100110011
111111100111
101100111011
111110000011
110110000011
111101110001
110100010101
100011101110
101010000111
11010111101
11001010111
1110001010
1111111111101001
1111101100100110
1111100100011110
1111110100111101
1111111000001001
1111110100011101
100000111
100001000001
1111100010011111
1111111101010100
1111111010000111
1111101011101111
1101010110
1111111011110100
1111110100001101
1111101100
11110000100
11001001101
110000010011
111110110011
111000011010
1001100101000
1000010110100
11010010000
10000110010
1101001101
10001001101
10100111100
1111111001000011
10101101111
1111100110111111
1111111110000000
1111101110000111
1111111010111001
10010111000
101100101101
1111011101011100
1111101010110001
1111110001010110
10000111010
1011111111
1011101100
11011000001
10101101011
10000111001
11001100000
101101100000
111110100001
1000000101011
1000000101000
110001100010
10110111010
11000111110
11000010111
1101010111
1111111111010010
11100011100
111001100
1111100110111100
1111110011111001
1111111111111001
111010001
1111111000110110
111001000011
1111100100000100
10100101010
100001001100
100011110110
101000111
1101010111
1101011001
101101010
10100100101
10010011110
101100010000
1010111111000
1000110010101
100011011001
1001111010
1000011100
1010101101
11011010001
10001101100
1111111100011100
1111111111110000
1111110111000111
10101100101
100011011010
10101010
1111111011011100
1111110100101010
110110001101
100111101
1000011100
1111111001110000
1000010010
1111110110111000
1111110101010001
101110111
1111111101100010
1111111100101000
1010000100
100100010000
111000110110
1001000110101
111100010
1111111010000001
1111110110100101
1111101011
110101100
10010011100
11001010000
1111111000111111
1100110100
1
11011100111
100010100001
11100111000
1111111100001010
1111111100101111
11111000010
100001111110
100001111111
1111111000000111
1111110101001001
1111110000110011
1111110111011101
1111110000100000
1111101101110101
1111101110111010
1000100100
100101001101
100000111011
1110111010
1111101101100001
1111111011011111
10001001011
101101110
1111111010
1111101111011110
110011100
1001000101
1100111111
11111100100
110011011110
101100101010
1111111011110100
10100000
100101111010
1111100101001011
1111111111011010
1111110100100010
1111101011011000
1111111001101011
1111101110111011
1111101111010011
1111010111100101
1111011100110011
1111011111011001
101100
10111110111
1000111
1111100111101010
1111100111011111
1111111000010010
110111001
1001001100
1111101101111000
1111101110000000
1000011111
1111100001110101
1101
1010111010
1111110111111111
1111110011010010
1111111100001110
100100010011
1111111110101110
1111111111110111
1111111000111101
1111101011011011
10
1111101011101011
1111100101001011
1111011100101000
1111101011000111
1111011001101001
1111111101001101
10110000101
1111101010100011
1111100111001111
1111101001000111
1111101100010101
1111111011110000
1111111011001010
1111110000010100
1111110001000100
1111111001101101
1111010001011101
1111110111111010
110000
1111101010000011
1111110101001100
1111100111111001
11110100
1011100000
10101100001
1111100110011110
1111110110001110
1111111001100111
1111101111001011
1111111010101011
1111100
1111100111100101
1111010111011100
111111
1101101100
1111111011110111
1111100101110000
1111101100010100
11001100
1111101101001000
1111111010001110
10000000101
1111010101011111
1111110111000110
1111101001101111
1111011000100010
101100100011
1111111000011000
1111111101111111
1111100000001111
1111000010001001
1111100101110110
1110011110
1100110010
1111110100001100
1111110110110010
1111110111001000
11110101
1111101111111110
1111110000011100
1111011110010001
1111110101000101
1111110111100000
1111110101010011
1111101010010101
1111111111100101
100000000
1111100101100011
1100011
1111110111011101
1111011100101110
1111101111111111
1111100101101110
1111011101101110
100111
1111111011110111
1100100001
1010011000
1111100001010011
1111111000001110
1100000101
1111111010010000
1111101010111101
1111110111111001
1111111010001001
110010001
1111111111100010
1111110010011010
1111110000010100
1111101101010011
1111100001100001
1111011100100100
1111101010010100
1111101101101100
1111100111011111
1111111110110000
1111110011011100
1111101011011010
1111101101010111
1111101100111110
1111111100101010
1111101100001111
1000011110
10100001110
1000111
10000000101
1111011010111000
11000111010
111011011
11001110
1111110011111110
1111110011100010
1111110010011010
1111111101010100
1111111010001111
1111100111101100
1000000100
1111100111110100
1111100001101111
1111110010010011
1111110000000100
100000110
1111111110101111
1111111010
1111110101100000
1111100001001010
1111101110001010
1111100110000010
1111111110010001
1111110001101111
11100101111
101101100
100001110101
101010110
1111111010100011
10111011010
100011001110
1011101011
1111111111100010
1111110111101011
1100101100
10000110110
1011111
1111110001010100
1111011111111101
1111011100000100
1111101100000010
1111110000110101
1111101111011010
1110000010
10000111100
10011001011
1111111111111000
111
1001011010
1101001011
100001000
1110001
10011110100
11101111101
1111110101000100
11010000000
1011100010
11110011
1000000001001
100111110011
10110110101
1100100001
1111110011
1111111000001100
1111110000010111
1111101011011001
1111111010100010
1111100010101100
1111011011010100
1111011011100000
1111101000001100
1101001
1111110100010110
1111000001
111100011
1010011011
11000110011
10010011000
11011011100
11100010111
1111111001100010
100001100110
1111111111100010
1111101000101110
1111100010000001
1111100010000100
1011111011100
1000010110001
1000110100100
11100011000
11001101101
1001111111
1111101101001000
1111111000100100
1111100010110011
1111100111110111
1111100101000011
1111011100111111
1111111101101100
10011011
1111110011111010
10001000110
11011101000
101011011111
11011111101
10001001111
10010011011
10011111110
1000000100
10011100001
1111111111011000
111110101
1111101000100011
1111101100000101
100110010000
1001110011000
1000101111110
100011000111
110011101
10110100111
1111111111100111
1111100100001100
1111011101111010
1111100110110010
1111110001110111
1111110011100001
11101101
1111100010100010
1111011011111100
101011010
1111111100110100
100001001111
100110000110
1010100111
10111101100
1111111001010111
1101101011
11000111
1111111111101000
101111010
1111101011000000
11010100110
1010100101
1001101001100
1010101011101
111010000001
100010000000
10101100001
10
11
1111111010101111
1111110111011010
1111110101
1111111011111111
1111111001100101
1111110
101110100
1111001110010100
1111111011111010
110011011
110101001
1111111011110001
10111001101
1010011001
1111101111111010
110100000
10111011
1111111100110111
1111110101110011
100100001010
1111001111011000
111001001000
110101100111
1000111100000
111000011011
100000101110
110100010111
1010011100111
101111110100
101001000101
111100001
110001111
1111111110110001
1000101001
100111111
1111101111110001
111101101
1111111110100100
1111111011011100
1110010111
110000111000
1111110010100000
1111100100011000
100110110
1111111111001010
1111111011111101
1111110110
100011100100
11001100101
1111101000000001
10111000110
11000100000
11100001000
1010011011
110001010101
101011111001
100101000010
100110101011
10000101
10100110111
1111111000101010
11100111011
1011001100
1111111101000100
10001101
110100
1111101100011000
1111110110100100
100010011100
1111100111100010
10001010111
1011000
1111111010101001
1111111100010111
10000011111
10010101
101111001101
10101110011
110100101
1001001010
1111111011101011
11001010011
1111100110
10000101011
110110111001
100001011111
11110100001
10100111110
111100111100
110011010110
11011001100
11000001
1101111
10101000010
100110000001
1000000100
10010110110
10001001111
100010100
1111111110011110
1111111011101111
1111111010101001
1111111011001100
111000000
1111110011
101010011101
110100110110
1011111101011
110110010111
1010110000000
1011010111110
1101101011001
1000000011100
1100010010000
10000001111010
1111011000001
1100111111000
1001000101101
1110000101101
1001110111110
1000110011110
101011011100
110001011000
11111011110
1110100000
1111111100111000
1100
100011000
1000110
10010101
1111111101101010
1111111010110100
1111111010101110
1111111001100011
11001001100
11100001011
100111010100
110001111001
110111000100
100010110110
100110100111
1010101010111
1010101100000
110000101001
1000001010111
1011110101111
1001101101001
100100100000
1000111001
100000101111
100010000000
100110010
101011001
1111111100010111
11000001
1111111101010001
