1001000010
1000111011
1111000000001111
1100001010010
1100111000000000
11111000
1000111101
11111010011
1110011111001010
1000101101011
10100010111
10110100111
1110111100010110
1111110000000011
1111110011110001
1010010101
1111010011010010
1101010101100001
10100010110
1111011011111100
1110111000000011
100100000111
1101111100101011
1010101001
100001101011
1111010111111010
11110010100
1111100011101000
111110101110
11010111110
