1111000000111101
1110111000011100
101011100100
1111100111001011
110010111101
101101011100
1111110001101000
1111101100111010
1111100101101111
1111100000011110
1111101100010001
1111010011101100
1111110100100010
1010000011110
101010100010
110101110101
1111010001000000
1111100011001100
1111101101000100
1111100100101001
1111000101111111
1111100000011100
1111100101010100
11110000011
1110011111101111
1111001001011000
1110111000001000
1111111100011011
11101001110
10111100001
