1111101111010010
1111101110000101
1111110010101011
1110110010111110
1110110010110100
101011110001
1111000111100000
101001011110
1111101010001100
111011001
101101010000
1111111001000010
1111100001001101
1111111001010101
111101111101
1111111001010001
1111001111001101
10000101010
1110110011010100
1000011010
100111111110
1111001001001000
1111011001111001
1111010101010010
110010010101
1110010110010111
1111101100101101
100000000011
110100101011
100001010000
