1111100011000011
1110101001101
1110110000000101
1111110101011010
1111010110110011
1111111000111101
1111100000010101
1001011100
1000001000
1001011110111
1011100000011
10000100000
1111011001010001
1111010100011110
1111111100000111
1111100000010000
100001011110
11100011110
1111101111000101
1001111101111
1011110010100
111000001010
1111010000110111
1111010110000111
110111011001
1111100110101001
1001011011001
1111011110001100
1111010000100110
1111111000101110
