1101000011000
10001000111001
1111000011111000
111011100100
1111000110010010
1000101110
1011111000
1000000100100
1011101010
10001100001
1111111000011111
1010011000110
101111000101
1111000100010111
1110110001101000
1111100100000010
1111111001000111
1111100010000000
100111011001
1111101000100101
10000111000
101000100000
111001111111
1111001000011001
11111001101
1110001000001
111110111000
1110010000
101000110
1111001100100110
