101101110001
110111110101
1111101011010011
1001011011100
1111000001010011
11000001101
10111010000
10100101001
1110100000100001
10110001101
10001001111
10000000000
1110101101000000
1111101101011001
100010110010
1111010000010100
110111100000
1110111101000000
1111111101110101
1111011010000010
101000001010
110001101011
1110011000101000
10101100100
110000111111
1111010100110001
1111100110000011
1010010000
100000110001
1100010011010
