1111101100110101
1111110110000110
100111011010
11001100100
1010100010100
1110101111000100
1010000110111
1110111101010111
1001110110
11111000010
1111011011000010
1111001111010001
1111111111000001
1111111101111100
1101011110
1111001010110010
1101111100101
1111110111011111
100010010000
1111001110001101
1011001000010
10010110
1111011000000000
101001000011
1111010111011100
1010010110
1111010100011010
1110111110011010
1111000111010101
1010111101000
