1001010011011
1110100001111101
1011010100
1110111101000000
1101010111101110
1111101001000001
1111100010101001
1111010011010100
1110001101101010
10001010001110
1111100001000110
1111011110010000
1100101100
11010010
101010011101
10101011
1001000000111
1111001110011010
1111111100000111
1011110010
1000111100
1111110011110111
1011001000010
111110000011
111101101101
10010001010110
1111110000000100
111010100001
1111110001001101
100111
