1111111010100000
100101111010
1111110100011001
1101110000001000
1111000110100111
101011110011
101001001100
110000110011
1101111100
1111110110001110
1000100001011
1101100111
1010111110110
1111101011010111
1111101000111100
1110110001000110
1111001111011000
10110111111100
1111011011110011
1111010100010110
1111001110011111
1111110011001111
1000100011111
1111011100100111
1111010110111000
1111000000010001
1111111010000100
1101011100101
10001101111111
1000100011001
