111000100010
1111011011010101
1110001111001100
1000010111
10010100110111
1111000100010001
1111110100110111
1101001000001
10100110110001
1110010101110010
1110110001001110
1110000001000
1111011111010001
111010011111
110100011110
1001001011
1010101100
110000010110
11010100001
1110101001110101
11000110000
1111001111001111
1110111101000011
1111001001001001
1101100101011000
1111010111000111
101111110010
101010010111
1111000001111010
10010011110
